#version: 0.2
으 로</w>
에 서</w>
니 다</w>
하 는</w>
했 다</w>
▁있 다</w>
하 고</w>
이 다</w>
▁“ “</w>
습 니다</w>
들 이</w>
▁있 는</w>
다 는</w>
다 고</w>
에 는</w>
지 만</w>
▁한 다</w>
에 게</w>
한 다</w>
하 여</w>
▁및 및</w>
이 라
▁것 으로</w>
까 지</w>
▁경 기
▁한 한</w>
적 으로</w>
적 인</w>
부 터</w>
▁2 0
▁3 3</w>
면 서</w>
었 다</w>
에 서
▁한 국
▁그 그</w>
▁대 한</w>
어 요</w>
하 게</w>
0 0</w>
장 은</w>
▁필 요
들 의</w>
는 데</w>
▁위 해</w>
도 록</w>
▁사 람
장 이</w>
입 니다</w>
▁당 신
▁때 문
들 은</w>
▁가 능
위 원
리 는</w>
하 기</w>
▁할 할</w>
▁따 라</w>
▁것 것</w>
▁더 더</w>
▁20 1
하 지</w>
▁지 난</w>
▁통 해</w>
▁1 0</w>
▁지 원
▁나 는</w>
▁밝 혔
된 다</w>
에서 는</w>
됐 다</w>
되 는</w>
기 를</w>
▁밝혔 다</w>
▁경 우</w>
사 를</w>
▁위 원
▁함 께</w>
이라 고</w>
▁아 니
자 가</w>
▁사 업
사 가</w>
▁사 용
으 며</w>
▁대 통
▁하 는</w>
여 야</w>
장 을</w>
리 가</w>
▁이 번</w>
▁있 습니다</w>
▁지 역
▁중 중</w>
▁경기 도
▁서 울
▁생 각
에 도</w>
지 는</w>
▁문 제
들 을</w>
▁위 한</w>
▁지 난
▁많 은</w>
▁등 을</w>
▁진 행
▁것 이</w>
자 는</w>
▁가 장</w>
▁대통 령
합 니다</w>
▁저 는</w>
하 여야</w>
원 이</w>
성 이</w>
으 로
▁때 때</w>
세 요</w>
았 다</w>
▁다 른</w>
하 며</w>
▁관 계
보 다</w>
▁말 했다</w>
▁구 청
▁것 이다</w>
▁경 우
▁했 다</w>
였 다</w>
하 다</w>
▁운 영
사 는</w>
이 나</w>
▁시 작
리 를</w>
졌 다</w>
▁대 해</w>
▁것 은</w>
▁것 을</w>
▁정 부
거 나</w>
기 가</w>
하 면</w>
▁대 표
▁같 은</w>
▁교 육
지 고</w>
▁기 업
지 를</w>
▁또 는</w>
▁가 운
나 요</w>
▁큰 큰</w>
해 야</w>
대 로</w>
리 고</w>
다 면</w>
▁게 게</w>
라 고</w>
▁시 간
▁한 국</w>
▁참 여
▁확 인
해 서</w>
▁상 황
▁그 는</w>
명 이</w>
▁이 용
▁가운 데</w>
▁프 로
화 를</w>
▁필요 한</w>
▁다 양
▁자 신
▁아 이
되 고</w>
라 는</w>
▁발 생
이라 는</w>
▁하 고</w>
▁다 음</w>
▁때문 에</w>
성 을</w>
▁있 어</w>
▁들 어
▁만 들
▁등 이</w>
서 는</w>
정 을</w>
▁경 찰
▁하 나
기 에</w>
▁있 도록</w>
▁알 려
▁예 정
상 을</w>
▁사 회
▁미 국</w>
▁많 이</w>
▁따 른</w>
▁설 명
▁미 국
▁특 히</w>
력 을</w>
▁안 안</w>
기 도</w>
▁우 리</w>
기 로</w>
으 면</w>
원 을</w>
▁관 련</w>
▁2 0</w>
이 고</w>
▁다양 한</w>
▁있 다는</w>
▁기 대
▁추 진
▁최 근</w>
▁있 었
▁제 가</w>
▁이 날</w>
▁관 련
에 요</w>
▁전 문
▁없 는</w>
▁이 후</w>
▁김 김</w>
▁다 시</w>
하 면서</w>
▁될 될</w>
▁내 가</w>
▁지난 해</w>
0 00</w>
▁3 0</w>
로 운</w>
장 의</w>
원 은</w>
▁사 실
▁경 제
▁이 유
▁서 울</w>
▁관 심
▁이 어
▁제 품
▁대 상
자 의</w>
의 를</w>
▁구청 장은</w>
르 면</w>
니 까</w>
들 에게</w>
사 업
기 업
▁학 생
▁1 2</w>
▁계 획
▁1 9
인 이</w>
▁중 국
▁내 용
▁등 의</w>
▁포 함
▁모 든</w>
도 가</w>
▁위 하여</w>
▁현 재</w>
▁직 접</w>
▁제 공
▁1 1</w>
자 를</w>
회 가</w>
▁문 화
원 의</w>
▁어 려
기 는</w>
시 간</w>
▁모 두</w>
겠 습니다</w>
회 를</w>
▁모 습
스 를</w>
▁국 가
▁우 리
▁국 내</w>
▁이 를</w>
▁나 타
▁사 항
▁평 가
식 을</w>
▁이 상
는 지</w>
▁참 석
이 하</w>
▁마 련
▁올 해</w>
력 이</w>
에서 도</w>
▁공 개
▁따 르면</w>
처 럼</w>
▁좋 은</w>
들 과</w>
어 서</w>
이 는</w>
부 가</w>
▁서 비
이 라</w>
▁중 요
이 에요</w>
▁연 구
지 가</w>
▁주 민
▁우 리는</w>
기 관
사 의</w>
▁활 동
▁안 전
수 가</w>
▁「 「</w>
해 요</w>
▁결 과
▁뒤 뒤</w>
▁경기 도</w>
▁중 국</w>
▁이 상</w>
▁아니 라</w>
했 다고</w>
회 의</w>
되 어</w>
▁전 망
▁있 을</w>
▁없 다</w>
▁국 민
▁있 다고</w>
▁방 문
▁다 만</w>
▁경우 에는</w>
▁실 시
▁발 표
금 을</w>
도 로</w>
▁때문 이다</w>
▁정 보
장 에서</w>
했 던</w>
▁사 이
▁결 정
▁관 한</w>
교 육
▁규 정
인 다</w>
▁증 가
장 에</w>
▁새 로운</w>
▁기 술
▁설 치
▁너 무</w>
스 트
▁세 계
▁높 은</w>
도 를</w>
▁오 후</w>
▁된 다</w>
부 를</w>
▁기 록
인 을</w>
▁피 해
▁시 행
▁어 떤</w>
▁좋 아
가 는</w>
서 를</w>
▁등 에</w>
특 별
▁만 큼</w>
▁않 은</w>
▁지 적
▁금 융
▁프로 그
▁분 석
▁합 니다</w>
▁요 구
▁정 상
▁당 시</w>
▁동 안</w>
▁관 리
▁개 발
▁보 고</w>
치 를</w>
사 에</w>
▁당신 은</w>
항 에</w>
이 었
▁개 최
▁이 런</w>
▁영 향
▁준 비
겠 다</w>
▁신 청
으 나</w>
관 이</w>
료 를</w>
위원 회</w>
▁해 당</w>
▁않 았
▁정 책
▁북 한
체 가</w>
▁특 별
▁어 떻
▁당신 이</w>
▁예 상
▁첫 첫</w>
났 다</w>
▁보 내
▁구 성
했 습니다</w>
▁트 럼
▁오 늘</w>
왔 다</w>
자 들이</w>
▁지 금</w>
▁관계 자는</w>
▁예 산
가 요</w>
▁친 구
▁총 총</w>
위 를</w>
▁산 업
▁중 심
▁투 자
▁과 정
▁지 방
▁있 었다</w>
레 이
안 을</w>
▁또 또</w>
▁조 사
▁있 어요</w>
부 는</w>
▁어떻 게</w>
▁판 매
제 를</w>
▁데 데</w>
제 로</w>
시 는</w>
▁일 본
회 는</w>
▁1 5</w>
▁된 된</w>
문 화
▁이 어</w>
▁사 건
▁1 00</w>
관 리
▁인 정
▁있 으며</w>
▁그 러
▁오 는</w>
센 터
명 의</w>
▁않 고</w>
▁이 야
▁인 터
▁환 경
스 가</w>
까 요</w>
인 의</w>
상 이</w>
▁트럼 프</w>
명 을</w>
▁제 출
▁있 고</w>
▁마 음
▁지 급
▁대통령 이</w>
아 요</w>
되 지</w>
▁나 오
▁열 린</w>
▁자 유
해 주
씨 가</w>
▁업 무
▁사 진
▁대 학
▁지 역</w>
▁보 인다</w>
장 과</w>
▁활 용
▁이 뤄
해 서는</w>
▁시 민
▁영 화
▁받 은</w>
시 아</w>
대 가</w>
▁학 교
▁행 정
▁선 정
▁요 청
▁없 이</w>
▁의 견
렇 게</w>
이 었다</w>
시 아
▁그 것
▁감 사
▁삼 성
▁소 비
▁약 약</w>
▁그 녀
▁지 속
렸 다</w>
▁강 조
는 다</w>
▁우 려
▁예정 이다</w>
원 에</w>
시 에</w>
▁여 러</w>
▁공 무
▁20 0
하 거나</w>
다 가</w>
▁오 전</w>
▁비 롯
했 고</w>
시 설
대 를</w>
▁공 연
▁설명 했다</w>
▁감 독
▁지 금
이 며</w>
▁상 태
동 안</w>
▁가 족
▁적 용
▁사 랑
▁국 제
하 다고</w>
▁가 격
▁주 장
▁좀 좀</w>
연 구
▁판 단
▁부 분
▁공 동
▁보 여
었 습니다</w>
전 을</w>
▁노 동
전 에</w>
▁부 산
▁어 느</w>
▁규 모
▁그 리고</w>
어 야</w>
▁공 공
물 을</w>
에 게
학 교</w>
▁노 력
▁떨 어
▁개 선
▁프로그 램
▁검 찰
▁경 쟁
▁가능 성이</w>
▁세 계</w>
▁볼 볼</w>
▁도 시
수 를</w>
▁고 객
▁이 해
▁해 당
▁같 이</w>
하 도록</w>
▁정부 가</w>
▁건 강
▁일 본</w>
업 을</w>
▁효 과
▁바 로</w>
▁참 가
어 나
▁있 지만</w>
한 국
정 이</w>
▁대 부
회 의
▁여 성
▁돌 아
▁처 음
라 도</w>
▁문제 가</w>
▁기 준
▁생 산
▁고 려
▁도 지
▁호 의</w>
▁주 요</w>
▁후 보
특별 시</w>
▁무 엇
▁대상 으로</w>
▁간 간</w>
▁더 욱</w>
점 을</w>
▁외 국
이 가</w>
제 가</w>
▁생 활
▁의 미
▁사람 이</w>
▁청 와
회 에</w>
사 와</w>
2 0
고 자</w>
품 을</w>
지 에</w>
▁것 입니다</w>
▁성 공
▁시 설
회 에서</w>
조 에</w>
▁대 한
▁말 한다</w>
▁방 법
▁결 과</w>
▁확 대
▁일 자
동 을</w>
▁때 에는</w>
움 을</w>
▁매 우</w>
▁자 동
▁받 고</w>
▁정 말</w>
일 부터</w>
조 제</w>
임 을</w>
화 가</w>
▁이 에</w>
▁수 준
▁이 미</w>
마 다</w>
리 에</w>
트 를</w>
▁보 고
▁민 주
▁해 결
▁당신 의</w>
▁선 수
네 요</w>
진 다</w>
▁이 번
시 면</w>
▁우 리가</w>
하 려
일 까지</w>
▁않 는</w>
과 의</w>
▁5 0</w>
▁관 광
▁일 부</w>
▁경 험
치 는</w>
▁해 해</w>
▁방 송
▁드 러
식 이</w>
▁또 한</w>
▁역 할
▁이 것
▁자신 의</w>
의 가</w>
▁제 기
▁분 야
▁찾 아
선 을</w>
관 은</w>
▁크 게</w>
이 란</w>
행 을</w>
▁건 건</w>
▁난 난</w>
서 도</w>
비 를</w>
기 술
지 원
했 지만</w>
▁되 는</w>
기 업</w>
대 표
▁청 소
되 면</w>
▁먼 저</w>
감 을</w>
도 의</w>
센 터</w>
▁스 타
▁조 례
시 가</w>
▁등 으로</w>
▁됐 다</w>
했 어요</w>
구 청
원 으로</w>
▁보 도
했 다는</w>
▁기 존</w>
▁부 담
▁어 린
▁최 고
▁받 아
드 는</w>
지 역
산 업
▁집 중
▁인 천
▁있 나요</w>
▁글 로
르 는</w>
▁시간 이</w>
계 를</w>
가 를</w>
▁사항 을</w>
▁사 무
시 키
세 를</w>
▁관심 이</w>
▁지 정
로 부터</w>
▁2 5</w>
▁전 했다</w>
▁확 보
주 는</w>
▁사 고
▁신 고
▁스 마
▁강 화
▁그 의</w>
▁국 내
▁1 8</w>
▁유 지
하 다는</w>
소 를</w>
▁1 6</w>
▁최 대</w>
치 가</w>
▁1 4</w>
▁이 름
▁논 란
시 간
▁조 성
원 에서</w>
▁북 한</w>
▁이 루
온 다</w>
약 을</w>
지 로</w>
음 을</w>
함 을</w>
) ,</w>
▁주 문
계 획
▁활 성
▁그 래
가 가</w>
▁1 3</w>
씨 는</w>
▁아 닌</w>
▁행 사
▁보 면</w>
▁선 택
▁장 애
▁추 가
▁중 소
▁아 직</w>
어 를</w>
일 에</w>
▁다 음
인 은</w>
겠 다는</w>
기 관</w>
정 보
예 요</w>
하 였
20 1
2 0</w>
움 이</w>
▁하 며</w>
▁발 견
▁드 라
되 었
▁해 요</w>
▁의 혹
복 지
구 가</w>
한 다는</w>
▁정 치
페 이
량 이</w>
수 는</w>
▁구 매
▁현 대
▁중 인</w>
하 기로</w>
▁부 족
▁역 시</w>
▁그 런</w>
학 교
▁하 지만</w>
▁경기도 가</w>
▁성 장
하 지만</w>
▁그 가</w>
▁각 종</w>
인 데</w>
하 였다</w>
대 에</w>
단 이</w>
한 다고</w>
▁소 개
▁서울 특별시</w>
다 며</w>
▁어 렵
▁얼 마
▁글로 벌</w>
▁사람 들이</w>
▁아 파
전 히</w>
▁한 다는</w>
▁1 7</w>
스 템
권 을</w>
되 면서</w>
▁문 재
▁국 무
▁전 에</w>
자 로</w>
▁못 못</w>
▁그 동안</w>
▁것 도</w>
지 의</w>
▁1 9</w>
▁전 시
계 가</w>
일 을</w>
▁반 영
▁비 용
자 와</w>
▁제 작
5 0</w>
▁재 판
단 체
▁2 4</w>
되 었다</w>
로 는</w>
▁고 용
스 는</w>
▁주 목
▁경찰 은</w>
▁한국 의</w>
▁담 당
▁나 온다</w>
▁과정 에서</w>
▁처 리
▁4 0</w>
▁일 이</w>
▁만 에</w>
나 는</w>
▁발 전
당 이</w>
▁수 도</w>
▁가 지고</w>
회 담
점 이</w>
인 지</w>
▁디 자
▁이 는</w>
▁기 간
▁경 기</w>
▁있 는데</w>
게 요</w>
▁도지 사는</w>
자 들의</w>
스 로</w>
▁차 지
▁나타 났다</w>
▁조 례</w>
▁개 인
정 은</w>
▁물 론</w>
▁이 러
▁제 외
▁보 호
▁영향 을</w>
국 의</w>
▁거 래
▁앞 서</w>
지 도</w>
▁받 을</w>
▁공 간
▁하 지</w>
문 을</w>
▁지 원</w>
▁수 행
▁높 아
▁도 입
위 가</w>
▁전 국</w>
서 의</w>
▁있 을
립 니다</w>
▁온 온</w>
들 도</w>
▁상 승
▁일 반
▁시 장</w>
분 이</w>
시 설</w>
환 경
부 의</w>
▁올 해
의 로</w>
▁있 게</w>
▁계획 이다</w>
▁스마 트
▁대 법
드 를</w>
대 의</w>
▁기 다
▁정 부</w>
에 선</w>
▁실 제</w>
자 에게</w>
으로 는</w>
▁인 해</w>
▁배 우
▁광 주
▁방 식
▁구 조
장 으로</w>
▁위 치
린 다</w>
밖 에</w>
▁정 확
▁목 적으로</w>
있 는</w>
▁행 복
이 지만</w>
▁회 의
▁전 달
▁오 늘
▁계 속</w>
량 을</w>
▁중심 으로</w>
▁문재 인</w>
▁받 았
▁교 통
▁음 식
시 장</w>
▁해 야</w>
▁제 주
대 한</w>
▁비 판
▁않 아</w>
▁강조 했다</w>
▁지난 달</w>
▁이 렇게</w>
▁않 았다</w>
물 이</w>
억 원</w>
소 가</w>
▁이러 한</w>
▁각 각</w>
▁앞 으로</w>
▁2 1</w>
건 을</w>
▁알 고</w>
▁가능 한</w>
▁불 가
▁공 급
▁되 고</w>
이 기</w>
▁연 락
안 이</w>
▁만들 어
정 책
▁근 로
이 를</w>
▁작 성
부 에</w>
사 업</w>
▁올 올</w>
무 를</w>
▁왜 왜</w>
) ’</w>
▁문 문</w>
▁마 지
▁기 능
▁검 토
▁해당 하는</w>
▁자 연
주 세요</w>
과 를</w>
▁것 이라는</w>
구 를</w>
▁음 악
▁브 랜
▁관심 을</w>
▁분 위
민 주
▁위 험
▁수 출
▁어 디
▁사 업</w>
지 역</w>
인 들이</w>
▁않 을</w>
제 는</w>
하 던</w>
▁추 가</w>
지 면서</w>
습 니까</w>
▁두 고</w>
▁기 획
▁데 이
▁역할 을</w>
▁효 율
▁2 3</w>
안 전
금 이</w>
▁사 례
의 회</w>
▁수 요
▁가 까
르 게</w>
체 를</w>
국 이</w>
▁우 수
관 을</w>
▁그 렇
▁인 사
차 를</w>
원 들이</w>
▁기 업</w>
▁이 동
▁있 기</w>
▁처 음</w>
에게 는</w>
▁사업 을</w>
▁알려 졌다</w>
▁2 7</w>
▁공 정
지 방
년 간</w>
▁상 당
년 부터</w>
관 의</w>
수 의</w>
도 는</w>
▁날 날</w>
▁제 시
▁2 2</w>
서 비
▁전 체</w>
▁적 극
▁목 표
분 의</w>
개 발
▁경 영
구청 장</w>
3 0</w>
▁작 품
▁국 회</w>
없 이</w>
▁자 리
개 월</w>
트 가</w>
▁중요 한</w>
▁선 보
▁상 품
▁변 경
율 이</w>
▁나 라
▁민 간
▁의 료
▁별 지</w>
감 이</w>
주 의</w>
▁나 왔다</w>
▁점 을</w>
▁전문 가
▁매 년</w>
스 트</w>
▁도 내</w>
▁우리 나
장 에게</w>
▁남 북
▁201 8</w>
조 의</w>
년 에</w>
▁정 도</w>
증 을</w>
▁어려 운</w>
단 체</w>
▁대 하여</w>
▁네 가</w>
▁모습 을</w>
사 에서</w>
▁제 대로</w>
▁더 불
▁건 설
▁일 을</w>
▁비 핵
▁소 방
▁중 앙
▁베 트
▁언 론
▁현 실
▁협 력
▁같 다</w>
세 먼
원 과</w>
▁정 도로</w>
▁온 라
자 치
▁공 유
경 제
위 에</w>
성 과</w>
▁위 촉
차 가</w>
▁2 8</w>
▁법 법</w>
두 고</w>
▁올 라
▁들 어</w>
적 이</w>
▁도 착
▁수 사
겠 다고</w>
▁201 6</w>
려 고</w>
▁됩 니다</w>
▁기 본
랍 니다</w>
식 에</w>
▁미 래
와 의</w>
▁이 내
스 의</w>
▁부 모
▁본 본</w>
▁무 역
▁거 예요</w>
▁2 6</w>
▁받 는</w>
▁해 외
이 지</w>
만 원</w>
▁최 저
▁선 거
▁얼마 나</w>
▁갖 고</w>
▁지 나
상 에</w>
▁여 행
지 지</w>
▁부 탁
▁배 우</w>
화 에</w>
운 영
▁저 희
▁전 해
정 에</w>
1 0</w>
▁위 탁
▁업 체
▁바 랍니다</w>
▁거 쳐</w>
어 난</w>
▁가 는</w>
▁문제 를</w>
▁목 소
▁합 의
▁이 곳
▁책 임
더 라도</w>
▁감 소
▁수 가</w>
섰 다</w>
세 가</w>
▁아 무
▁기 념
▁구 축
▁없 었
▁추 천
▁전 국
▁자유 한국
드 리
▁대한 민
명 한</w>
하 고자</w>
▁우 선</w>
▁있 으
별 로</w>
▁계 약
▁상황 에서</w>
▁부 동
▁대 표</w>
▁전 통
이 스
겠 어요</w>
▁대 응
▁연 결
▁번 번</w>
▁안 정
▁자신 이</w>
▁대통령 은</w>
받 은</w>
▁것 이라고</w>
▁시간 을</w>
▁내 려
라 이
▁가 진</w>
개 의</w>
▁같 아</w>
▁표 현
▁있 던</w>
▁충 분
항 의</w>
냈 다</w>
▁누 구
아 서</w>
▁이상 의</w>
▁청와 대</w>
교 통
▁청 년
사 로</w>
▁구 체
▁제 안
▁가 지</w>
광 역
으로 써</w>
도 에</w>
스 타
적 을</w>
▁의견 을</w>
위 에서</w>
은 데</w>
▁새 새</w>
▁거 야</w>
▁보 유
하 는데</w>
보 고</w>
▁정부 의</w>
상 의</w>
▁영 화</w>
▁관련 해</w>
▁알 알</w>
▁어린 이
▁현 재
바 이
▁바 이
고 를</w>
▁계 속
▁근 무
공 무
▁말 씀
% )</w>
▁비 해</w>
▁기 자
▁세 세</w>
▁홍 보
은 행
▁소 속</w>
▁그 럼</w>
▁하 면</w>
▁콘 텐
▁해 외</w>
▁사실 을</w>
▁가 져
기 의</w>
생 활
여 명이</w>
롭 게</w>
▁이 제</w>
▁논 의
수 록</w>
▁없 어</w>
▁국 토
단 을</w>
▁있 어서</w>
▁같 아요</w>
▁내용 을</w>
▁혹 시</w>
▁조 금</w>
▁아 름
▁전망 이다</w>
▁등 록
▁경기도 는</w>
▁종 합
현 지
▁필요 가</w>
분 을</w>
▁지원 을</w>
▁교 육</w>
▁방 침
▁대 해서는</w>
호 서
구 의</w>
터 를</w>
▁거 거</w>
▁제 한
▁없 습니다</w>
▁내 년</w>
▁받 아</w>
▁갈 갈</w>
▁케 이
치 고</w>
정 한</w>
로 를</w>
▁인 도
▁주 세요</w>
▁설 치</w>
▁만 나
▁결과 를</w>
▁여 기
▁시 간</w>
▁진 출
▁삼성 전
▁정 신
▁최 초
▁체 험
▁받 았다</w>
▁관 리</w>
▁입 장
▁비 교
▁201 7</w>
상 은</w>
▁못 한</w>
▁필요 하다고</w>
▁2 9</w>
▁6 0</w>
르 고</w>
스 러
는 데
▁학 교</w>
▁3 1</w>
▁운 영</w>
서 에</w>
▁쉽 게</w>
인 과</w>
▁파 악
▁혁 신
▁에 너
머 니
동 이</w>
업 이</w>
▁출 연
▁미 세먼
▁대통령 의</w>
▁시 스템
기 간
어 도</w>
▁상 대
비 가</w>
책 을</w>
로 서</w>
▁도 는</w>
▁조 직
부 와</w>
▁강 원
▁만 든</w>
성 에</w>
▁자 료
▁비롯 해</w>
▁많 다</w>
▁불 편
격 을</w>
▁프로 젝
▁번 째</w>
▁본 격
들 에</w>
▁한 다고</w>
▁노 래
했 을</w>
▁바 람
리 의</w>
▁정보 를</w>
▁주 택
▁규정 에</w>
▁대 중
▁안 에</w>
’ (</w>
▁희 망
▁경 제</w>
▁걸 걸</w>
전 이</w>
하 겠다</w>
▁주 변
▁예 술
▁소 속
▁보도 했다</w>
▁제품 을</w>
▁하 락
▁심 의
▁개 정
▁201 5</w>
▁적 이</w>
했 으며</w>
▁설 립
실 을</w>
▁활동 을</w>
통 신
▁대 비</w>
▁현 지</w>
▁방 향
일 이</w>
되 며</w>
경 찰
▁향 후</w>
▁발생 한</w>
▁채 채</w>
▁모습 이</w>
▁단 체
▁그녀 는</w>
른 다</w>
▁형 태
▁혐 의로</w>
류 를</w>
▁유 치
▁항 공
▁시 험
▁도 움이</w>
▁수 익
▁움 직
▁것 에</w>
▁여 성</w>
▁언 급
주 택
▁수 입
드 가</w>
▁앞 두고</w>
▁미국 의</w>
▁시 청
자 에</w>
규 모</w>
으로 부터</w>
단 의</w>
▁보 험
위 는</w>
▁작 은</w>
▁문 화</w>
진 이</w>
▁기 간</w>
이라 며</w>
자 들은</w>
▁주 관
▁19 9
노 동
▁항 상</w>
▁모 두
▁기 억
학 생
▁여 전히</w>
▁제 조
▁적 극</w>
업 체
▁조 사</w>
▁사 망
▁동 시에</w>
사 회
보 는</w>
▁변 호
▁중 에서</w>
▁경우 가</w>
▁중소 기업
리 아</w>
스 럽
▁거 의</w>
▁논란 이</w>
▁힘 들
▁하 는데</w>
구 하고</w>
▁내 일</w>
▁강 남
기 와</w>
률 이</w>
▁운 전
하 자</w>
리 스
▁수 도
▁기 여
▁나 의</w>
산 을</w>
▁이루 어
▁건 축
▁협 의
▁점 검
▁최저 임
하 기도</w>
▁존 재
월 부터</w>
▁통 한</w>
▁원 내
▁달 리</w>
▁전 략
▁언 제
▁한 반
간 의</w>
금 의</w>
▁위 해서는</w>
▁사 유
▁구청 장이</w>
▁이유 로</w>
▁이 사
▁말 말</w>
▁명 이</w>
지 와</w>
하 세요</w>
▁가능 하다</w>
했 는데</w>
이 자</w>
▁마 을
▁서비 스를</w>
▁확 정
▁특 징
▁사회 적</w>
▁최 종</w>
▁화 장
▁청소 년
인 으로</w>
▁시 장
으로 도</w>
▁의 원이</w>
▁사 람</w>
▁서비 스</w>
▁모 델
▁( (</w>
시 를</w>
▁위원 장은</w>
화 와</w>
▁의 원은</w>
널 드</w>
▁실 제로</w>
어 가</w>
▁프 랑
▁기 관
현지 시간</w>
▁살 아
▁비롯 한</w>
▁거 주
▁괜 찮
▁대통 령</w>
▁일자 리</w>
드 립니다</w>
님 이</w>
건 이</w>
▁반 응
▁지 도
▁되 어</w>
▁이 후
▁말 을</w>
진 을</w>
▁예산 의</w>
▁싶 습니다</w>
대 는</w>
▁서 로</w>
▁보 다</w>
진 흥
▁모 르
▁기 반
▁수 상
행 정
심 을</w>
▁참석 한</w>
민 이</w>
▁지원 할</w>
겼 다</w>
▁정상 회담
청 은</w>
▁사람 은</w>
▁발 언
어 민주
▁줄 어
▁지 하
고 는</w>
▁않 다</w>
▁완 료
▁보 조
시 고</w>
관 리</w>
▁이것 은</w>
▁그래 서</w>
▁인 한</w>
▁등 장
▁의 한</w>
▁궁 금
터 는</w>
물 의</w>
▁이 들이</w>
▁보 는</w>
▁필요 하다</w>
▁구 속
▁드라 마
▁사 고</w>
됩 니다</w>
▁평 균</w>
▁원 하는</w>
▁도 널드</w>
▁운 동
▁취 소
항 을</w>
가 고</w>
안 에</w>
▁이 미
▁예 방
단 은</w>
▁과 학
▁소 송
한 테</w>
▁해 도</w>
▁하 루</w>
▁접 수
▁과 거</w>
▁취 업
▁통 신
▁되 었
문 이</w>
거 래
▁이유 는</w>
▁사진 을</w>
▁넘 는</w>
▁기업 이</w>
▁남 북</w>
▁때 는</w>
▁전 환
▁만들 어</w>
▁상 담
▁주 로</w>
보 다는</w>
▁넘 어
▁특별 한</w>
▁내 놓
▁주 는</w>
▁조 선
▁영 업
▁나 섰다</w>
▁장 기
▁없 다는</w>
▁소 득
▁지적 했다</w>
▁국 방
리 와</w>
▁대 신</w>
▁매 출
길 을</w>
▁범 위에서</w>
민 의</w>
면 서도</w>
상 으로</w>
▁열 리는</w>
▁20 0</w>
▁주 차
리 지</w>
전 문
장 애
▁금 액
▁약 속
▁비 슷
계 의</w>
▁공 부
재 를</w>
▁치 료
▁우려 가</w>
▁제 품</w>
▁수 밖에</w>
▁기 준</w>
▁돼 돼</w>
만 큼</w>
▁체 결
▁촬 영
▁입 장을</w>
% ,</w>
▁부 산</w>
▁해 서</w>
오 는</w>
리 아
▁은 행
▁타 고</w>
년 을</w>
▁그 렇게</w>
서 울
▁돈 을</w>
▁도 로
▁더불 어민주
재 가</w>
▁호 텔
▁여 러
▁위원 장이</w>
▁게 임
서 가</w>
개 월
▁벌 어
▁펼 쳐
▁같 습니다</w>
▁7 0</w>
▁차 량
구 는</w>
▁마 이
▁통 합
▁중 에</w>
이 야</w>
식 의</w>
체 육
관 광
▁마 무
▁따 로</w>
▁조례 는</w>
었 던</w>
▁수 립
▁관 람
▁문 제</w>
▁집 에</w>
▁유 럽
▁알 아
▁토 론
정 부</w>
▁메 시
▁덧 붙
자 인</w>
▁빨 리</w>
▁우리 의</w>
▁아름 다
▁맞 아</w>
▁관련 된</w>
국 은</w>
스 크
셔 서</w>
▁학생 들이</w>
▁전 화
▁결 혼
계 획</w>
▁가 입
▁결 국</w>
▁스 스로</w>
▁독 립
▁이 끌
▁경 찰</w>
▁처음 으로</w>
▁관 객
금 은</w>
▁자 주</w>
▁불 구하고</w>
▁있 는지</w>
구 에</w>
▁통 과
▁죄 송
▁경찰 이</w>
씨 의</w>
그 룹</w>
▁마지 막</w>
고 가</w>
트 는</w>
주 가</w>
▁전 자
쳤 다</w>
▁창 업
▁주장 했다</w>
▁이야 기
▁나 서
선 이</w>
▁않 도록</w>
역 을</w>
▁이번 에</w>
거 운</w>
▁갈 등
▁바 라
에서 의</w>
▁따 라
투 자
▁내용 이</w>
▁김 정은</w>
하 겠습니다</w>
명 으로</w>
데 이
▁너 는</w>
가 지</w>
▁보 건
만 의</w>
▁의 원
리 로</w>
예 술
▁아 니다</w>
▁그 림
▁전 기
▁나 온</w>
소 에</w>
▁자동 차</w>
▁함 께
내 는</w>
문 에</w>
▁접 근
▁하나 에</w>
▁기 존
1 9</w>
▁예 약
해 도</w>
주 시
만 이</w>
▁없 을</w>
▁공 격
▁아 주</w>
▁평 화
▁비 중
▁지 지
▁러 시아</w>
▁둘 러
▁온라 인</w>
케 이
▁현 지
▁블 록
▁그것 은</w>
▁지역 의</w>
▁이 재
년 이</w>
▁사 는</w>
▁못 하고</w>
▁좋아 하는</w>
▁포함 한</w>
권 이</w>
▁롯 데
▁원 원</w>
▁이 벤
가 의</w>
▁201 4</w>
인 가요</w>
▁대 출
▁대표 가</w>
사 들이</w>
▁확 산
▁아 버
일 로</w>
▁도 와
스 에</w>
▁한국 에</w>
▁미 리</w>
해 보
회 담</w>
관 에서</w>
교 육</w>
▁전 반
등 학교</w>
▁효과 가</w>
▁선 생
▁않 습니다</w>
1 2</w>
▁중 이다</w>
▁있 으면</w>
▁복 지
▁배 경
▁상황 을</w>
▁느 끼
프 로
대 표</w>
▁긍 정
▁현 장
▁되 면</w>
므 로</w>
▁자유한국 당</w>
▁소 통
▁늘 어
고 도</w>
▁사 건</w>
도 시
▁어 제</w>
▁기 회를</w>
▁대 형</w>
▁조 정
▁방 안을</w>
▁투 입
▁그 들은</w>
용 을</w>
▁의 해</w>
▁스 트
산 업</w>
▁과 거
대 상
성 은</w>
▁한 번</w>
o p</w>
▁해 석
▁점 에서</w>
▁외 교
▁201 9</w>
▁상 대로</w>
▁인터 넷
개 를</w>
▁예상 된다</w>
▁심 각
▁진 행</w>
트 에</w>
▁지 켜
▁아파 트</w>
랐 다</w>
▁이 들</w>
▁선 발
정 상
▁덧붙 였다</w>
▁시 장은</w>
▁정 도
▁반 도
화 된</w>
계 에</w>
▁공 식</w>
▁회 사</w>
▁발표 한</w>
▁위 반
▁스 포
▁홈 페이
▁이야 기를</w>
으 니</w>
▁사 진</w>
▁만 드는</w>
▁등 은</w>
▁밖 에</w>
▁규 칙
▁정부 는</w>
▁출 석
▁판 결
▁부 정
스 와</w>
당 의</w>
▁바 탕
▁대부 분</w>
T V</w>
중 앙
▁없 었다</w>
▁비핵 화</w>
사 이
▁반 대
위 로</w>
▁추 정
호 를</w>
▁조 치를</w>
소 득
▁얼 굴
▁얘 기
함 으로써</w>
과 학
▁배 출
류 가</w>
▁재 미
리 그</w>
▁것 과</w>
▁높 다</w>
▁프 리
과 는</w>
갔 다</w>
▁업무 를</w>
1 8</w>
▁인 근</w>
▁이 전
조 사</w>
▁주 도
▁사실 이</w>
▁대표 는</w>
이 면</w>
▁직 원
▁역 사
▁플 랫
’ ,</w>
▁싶 은</w>
은 행</w>
금 융
▁대 체
▁사 실</w>
공 사</w>
▁하 기</w>
▁일 반</w>
▁라 이
적 이고</w>
▁외국 인</w>
▁만 족
▁중 단
▁곳 이</w>
▁고 양
▁입 주
▁늘 어나
에 만</w>
▁국 회의
▁전 문</w>
▁않 는다</w>
1 3</w>
▁있었 던</w>
▁국 가</w>
환 경</w>
과 가</w>
▁최 고</w>
경 기
▁통 보
▁비 행
▁보 니</w>
였 던</w>
▁베트 남</w>
▁부동 산</w>
▁싶 어요</w>
▁하 루
▁꾸 준
▁감독 이</w>
히 려</w>
으로 서</w>
▁불가 능
▁고 민
국 제
B S</w>
심 히</w>
사 무
▁인터 넷</w>
▁사 라
기관 의</w>
▁신 규</w>
▁사항 은</w>
▁작 업
▁운영 하는</w>
냐 는</w>
▁인 기를</w>
가 포
▁그 룹</w>
▁점 이</w>
▁운영 에</w>
하려 는</w>
▁힘 을</w>
▁전 체
▁것 이에요</w>
법 을</w>
▁명 의</w>
▁개 발</w>
▁한국 에서</w>
▁수 탁
▁콘텐 츠
지 원</w>
▁조 치
▁정확 한</w>
▁위원 은</w>
▁대 학</w>
▁장 면
▁낮 은</w>
▁위치 한</w>
▁경찰 에</w>
▁대 해
▁원내 대표
▁개 인</w>
려 면</w>
▁출 시
▁오 히려</w>
▁상황 이</w>
실 에서</w>
당 은</w>
N S</w>
겠 지만</w>
▁새 로</w>
운 동
▁지 자
▁부 과
▁되 지</w>
형 을</w>
발 전
▁자 녀
▁보 이는</w>
▁자 치
▁규모 의</w>
▁맞 는</w>
2 5</w>
기 준
▁유 통
▁당 연
▁그 대로</w>
월 에</w>
▁했 습니다</w>
▁시 즌</w>
하 겠다는</w>
소 년
▁방침 이다</w>
▁나 누
▁만 나</w>
▁불 법
▁최초 로</w>
스 템</w>
▁끝 나
반 기</w>
▁가 정
기 간</w>
▁공 모
▁문제 는</w>
청 이</w>
년 도</w>
▁강 력
▁도 서
미 래
▁재 정
▁최 근
▁비 상
▁검찰 은</w>
8 0</w>
▁사실 상</w>
▁신 뢰
분 에</w>
▁가 수</w>
▁여 름
▁소 유
1 1</w>
▁여 기</w>
그 룹
▁사람 을</w>
▁나 도</w>
어 로</w>
격 이</w>
▁정 책</w>
▁아 시
▁5 00</w>
▁안 내
▁나 가
▁차 량</w>
려 는</w>
▁북한 이</w>
상 공
▁아 동
▁당신 에게</w>
리 기</w>
▁놓 고</w>
리 한</w>
▁크 다</w>
되 기</w>
관 과</w>
▁하 여야</w>
▁가격 이</w>
해 를</w>
▁의 원</w>
4 0</w>
인 들의</w>
▁확 인</w>
▁사용 할</w>
▁나 와</w>
B C</w>
터 가</w>
▁중국 의</w>
까 지는</w>
▁전 혀</w>
▁성 폭
▁실 무
▁받아 들
지 사</w>
회 와</w>
점 에서</w>
한 다면</w>
▁8 0</w>
▁브 라
▁기 회가</w>
▁채 용
▁공 동</w>
중 에</w>
▁참여 하는</w>
▁싱 가포
▁보 이
주 의
▁건 가요</w>
▁잘 못
▁심 사
만 을</w>
▁피해 를</w>
▁아 래
로 가</w>
▁혜 택
▁찾 는</w>
▁걱 정
료 로</w>
▁여 론
▁대 변
었 어요</w>
▁201 3</w>
▁회 복
▁주 최
▁위원 회의</w>
▁바 란
▁겁 니다</w>
▁시 도
▁마음 을</w>
▁블록 체
▁수 사</w>
자 동
년 까지</w>
▁지난 해
▁핵 심
활 동
▁방식 으로</w>
께 서</w>
▁없 다고</w>
▁강 한</w>
▁학 생</w>
목 을</w>
▁대 규모</w>
▁청 구
인 에</w>
당 한</w>
▁열 심히</w>
▁수 수
우 는</w>
드 시</w>
명 과</w>
▁T V</w>
▁자 율
▁이 하
일 은</w>
▁우 승
▁프로그램 을</w>
▁대 구
▁출 발
선 거
▁3 00</w>
▁이 들은</w>
▁다 가
▁자 료를</w>
▁미국 이</w>
▁당 신</w>
▁나오 는</w>
제 의</w>
▁인 상
▁바 뀌
▁정 하는</w>
트 워
▁반 드시</w>
▁완 성
▁빠 르게</w>
▁하 나</w>
▁받 지</w>
업 체</w>
▁사 용</w>
6 0</w>
▁여 부를</w>
▁국 정
보 호
▁피 해</w>
▁적극 적으로</w>
▁신 용
▁시 장이</w>
▁했 어요</w>
대 에서</w>
▁있을 까요</w>
▁휴 대
▁않 는
▁최고 의</w>
▁러 시아
▁주 제로</w>
▁바탕 으로</w>
▁기 술</w>
▁기 초
부 한</w>
▁쏟 아
▁창 출
▁여 기에</w>
테 이
▁이 와</w>
▁것 처럼</w>
요 일</w>
당 을</w>
질 이</w>
▁측 은</w>
주 고</w>
▁자 리를</w>
▁도 움을</w>
▁후 에</w>
▁조 사를</w>
▁앞 에서</w>
프 라
▁사용 하는</w>
▁중 구</w>
▁국 립
▁요 즘</w>
▁나 에게</w>
▁관광 객
▁지속 적으로</w>
▁인도 네
▁아 시아
▁나 아
제 에</w>
▁못 하는</w>
▁현 장</w>
▁더불어민주 당</w>
같 이</w>
▁학 습
하 여
내 고</w>
▁불 법</w>
▁국무 위원
▁학 부
평 가
▁달 라
받 고</w>
▁근 거
▁콘 서
▁자 원
▁변 화
▁월 드
▁담 긴</w>
스러 운</w>
보 험
도 와</w>
님 의</w>
조 를</w>
문 화</w>
▁눈 에</w>
▁독 일</w>
▁관 측
호 가</w>
해주 세요</w>
경 을</w>
있 다</w>
▁일 일</w>
▁원 칙
▁투 자</w>
▁관 계</w>
관 계
들 로</w>
았 던</w>
▁살 펴
▁경험 이</w>
▁젊 은</w>
▁저 희</w>
▁한 류</w>
▁임 대
▁무 슨</w>
▁확 실
▁일 으
도 시</w>
경 제</w>
▁선 고
▁범 죄
▁사 법
▁대 비
▁되 었다</w>
됐 다고</w>
▁모 여</w>
▁배 송
실 이</w>
관 에</w>
▁아 직
력 과</w>
표 를</w>
2 2</w>
율 을</w>
▁당신 을</w>
▁엄 마
▁유 일
방 을</w>
▁부 위원
▁우 선
▁스 페
기 술</w>
1 5</w>
▁있 다면</w>
▁않 으면</w>
▁사람 의</w>
▁만 약</w>
군 이</w>
▁의 결
▁보 였다</w>
▁장 소
▁업 무</w>
▁수 는</w>
▁싶 어</w>
▁컴 퓨
▁셈 이다</w>
점 으로</w>
감 독
▁교육 을</w>
5 00</w>
함 에</w>
▁핵 심</w>
시 의</w>
광역 시</w>
▁마 케
▁나 를</w>
▁제출 하여야</w>
▁매 일</w>
▁일 어
기 에는</w>
▁공 연</w>
▁북한 의</w>
팀 이</w>
조 사
▁교 수
▁검 찰</w>
▁인터 뷰
▁그러 나</w>
2 1</w>
위원 회의</w>
▁눈 길을</w>
▁찾 아</w>
호 의</w>
▁기업 의</w>
▁그 냥</w>
으 면서</w>
대 학교</w>
▁오늘 은</w>
보 가</w>
▁바란 다</w>
▁폐 기
세 대</w>
산 이</w>
▁타 이
계획 을</w>
▁비 가</w>
▁통 일
주 택</w>
▁대통령 과</w>
▁겨 울
▁음 식을</w>
▁연 간</w>
▁쉽 지</w>
이 어서</w>
개 발</w>
학 과</w>
▁형 성
▁우리나 라
협 의
신 을</w>
씨 를</w>
▁생각 이</w>
공 동
▁지원 하는</w>
▁이상 이</w>
▁보 장
▁반 발
지 면</w>
▁201 2</w>
▁디 지
▁건 물
▁페 이스
증 이</w>
았 습니다</w>
기 고</w>
▁회 계
▁영 국</w>
▁빠 른</w>
▁동 물
▁가 서</w>
류 의</w>
▁신 속
했 으나</w>
▁추가 로</w>
▁주 인
사업 을</w>
▁저 저</w>
▁최 소
▁모 바
달 러
▁캐 나
▁카 메
▁훈 련
▁다 니
▁미세먼 지</w>
위 원</w>
▁법 률</w>
▁브랜 드</w>
적 이다</w>
▁초 초</w>
▁공무 원</w>
었 고</w>
자 기</w>
▁언 제</w>
명 에</w>
석 이</w>
▁영 어</w>
▁사람 들은</w>
대 와</w>
▁결과 가</w>
▁아 프
▁느 낌
행 이</w>
▁성 과를</w>
▁사고 가</w>
▁프로그 램</w>
▁주 변</w>
점 에</w>
랜 드</w>
담 당
▁제 일</w>
▁없 어요</w>
▁편 의
하려 고</w>
▁자 체
▁곳 곳
트 의</w>
▁차 이가</w>
▁여 자
▁참여 한</w>
수 로</w>
▁지금 까지</w>
하 신</w>
단 에</w>
▁불 안
대 회</w>
▁전해 졌다</w>
▁잇 따
▁과 정을</w>
▁대한민 국</w>
료 가</w>
▁이내 에</w>
▁멤 버
웠 다</w>
▁그 룹
▁모 양
▁제공 하는</w>
▁아이 디
▁바 른
신 청
▁이름 을</w>
황 을</w>
션 을</w>
▁마무 리
지 에서</w>
일 에는</w>
▁교 수는</w>
▁행 사</w>
▁대 상</w>
▁답 변
▁기준 으로</w>
▁지역 에</w>
▁보 이고</w>
▁단 순
하 되</w>
▁열 고</w>
▁본 다</w>
▁등 에서</w>
지 게</w>
▁연 기
▁없 고</w>
준 다</w>
▁출 신
▁증 거
▁곧 곧</w>
▁의 하여</w>
▁단 계
▁행 사를</w>
▁조 금
▁때 까지</w>
▁농 업
▁게 시
▁S NS</w>
▁즐 길</w>
▁어려 움을</w>
▁측 면
사 인</w>
받 는</w>
라 며</w>
▁회 장이</w>
상 과</w>
▁멕 시
액 이</w>
절 한</w>
▁대 책
▁속 에서</w>
이었 던</w>
▁훨 씬</w>
▁혐 의를</w>
▁했 지만</w>
▁해 소
▁활 발
▁지적 이</w>
▁구 구</w>
용 이</w>
로 의</w>
▁인 식
▁지금 은</w>
▁내 부
술 을</w>
▁캐 릭
▁다 소</w>
▁아 침
건 의</w>
▁행 동
생 을</w>
상 에서</w>
▁하 다</w>
▁밝 혀
▁모 집
호 에</w>
▁최저임 금</w>
▁계획 을</w>
▁사 회</w>
▁밝 힌</w>
주 를</w>
명 은</w>
전 에서</w>
▁먹 고</w>
라 면</w>
이라 도</w>
▁기자 회
▁다 르
억 원을</w>
리 며</w>
견 을</w>
▁왔 다</w>
▁분 야</w>
▁충분 히</w>
▁앞 에</w>
▁안 에서</w>
분 기</w>
▁발 굴
▁기술 을</w>
▁반도 체</w>
뿐 만</w>
▁있 지</w>
▁그것 을</w>
▁못 했다</w>
▁대 해서</w>
▁낸 낸</w>
▁L G</w>
자 들을</w>
▁연 장
드 로</w>
대 책
▁일 어나
다 른</w>
▁취 약
▁사이 에</w>
시키 는</w>
스 토
▁정 의
▁의미 가</w>
▁속 에</w>
▁최 대한</w>
▁생 태
▁연 계
권 의</w>
▁한반 도</w>
▁인 공
▁검찰 이</w>
하 시
▁주 시
드 의</w>
▁베 이
▁위 해
▁나 왔
서비 스</w>
▁평가 를</w>
▁위 해서</w>
▁위 에</w>
실 에</w>
가 족
▁지 키
▁확 대</w>
▁주 거
▁정 기
지 사가</w>
▁연 속</w>
▁응 답
▁저 녁</w>
안 은</w>
▁재 난
▁자 세
익 을</w>
▁출 신</w>
▁주 말
▁의 심
▁그 런
▁규 제
병 원</w>
▁따 뜻
▁집 행
▁정책 을</w>
▁아름다 운</w>
▁생각 합니다</w>
▁때 마다</w>
▁기 재
마 을
▁효과 를</w>
▁시작 한</w>
▁문 을</w>
협 회</w>
년 에는</w>
▁끝 난</w>
▁제 도
▁나 머
▁가 족</w>
▁가 격</w>
질 을</w>
▁인 기가</w>
▁상황 이다</w>
▁뛰 어
▁원 활
▁북 미
▁군 군</w>
7 0</w>
정 으로</w>
▁가까 운</w>
▁단 체</w>
많 은</w>
▁이용 할</w>
▁꾸준 히</w>
▁경 남
만 원을</w>
▁있었 습니다</w>
▁의 무
▁너 의</w>
성 의</w>
▁감 안
보 면</w>
▁책 을</w>
▁연 연</w>
▁S K</w>
▁밤 밤</w>
조 가</w>
▁이 탈
▁했 던</w>
▁선 언
▁밝 히
▁시 각
인 에게</w>
▁차 별
▁김 영
전 한</w>
201 8</w>
함 이</w>
▁특 정</w>
▁바 꾸
▁암 호
▁첨 부
▁달 러
▁최 선을</w>
▁내 에</w>
뮤 니
▁장 관이</w>
▁갖 추
유 치
어 진</w>
▁추 진</w>
수 수
▁뿐 뿐</w>
▁나오 고</w>
재 로</w>
▁행 사가</w>
▁판 매</w>
▁아 마
면 에</w>
▁시작 했다</w>
▁게 임</w>
시 켰
▁진행 된</w>
연 합
▁집 집</w>
음 이</w>
정 의</w>
지 자</w>
가 에</w>
▁모두 가</w>
시 부터</w>
▁유 명한</w>
▁아 래</w>
▁주 민</w>
▁동 일
▁전문 가</w>
하 겠다고</w>
점 은</w>
군 요</w>
▁정 리
▁나 서</w>
스럽 게</w>
▁때문 입니다</w>
협 력
즈 니
이 기도</w>
▁부 여
거 리</w>
▁법 무
위원 회가</w>
식 과</w>
해 온</w>
됐 고</w>
▁실 질
성 도</w>
▁장 은</w>
▁일 부를</w>
▁단 단</w>
▁규정 함을</w>
▁이용 해</w>
▁드라 마</w>
화 로</w>
▁확인 할</w>
▁금 지
개 가</w>
▁있 습니까</w>
▁이 들의</w>
▁구청 장에게</w>
▁참석 했다</w>
▁의혹 을</w>
▁느 껴
▁마음 이</w>
▁위 원</w>
▁동 영
▁사업 이</w>
▁규모 가</w>
같 은</w>
▁들 고</w>
▁그 들의</w>
아 야</w>
▁사건 을</w>
목 이</w>
종 합
▁회 담
▁쇼 핑
▁무엇 보다</w>
시 와</w>
▁사업 에</w>
▁나 선</w>
▁기대 된다</w>
▁비슷 한</w>
▁배 치
식 으로</w>
제 도</w>
▁중 간
스 에서</w>
▁세 종
▁선 물
부 서의</w>
보 를</w>
문 은</w>
▁자 체가</w>
▁다 이
▁기대 하고</w>
▁군 사
▁기 관</w>
률 을</w>
i n
▁체 육
▁등 과</w>
미 가</w>
▁반 복
▁하 겠습니다</w>
▁자동 차
▁자 전
▁분 명
▁많 아</w>
▁가 르
릴 게요</w>
▁주 고</w>
▁카 카
▁사 태
대 학
▁초 과
▁씨 가</w>
▁국 제</w>
▁임 시
▁이 행
▁갑 자기</w>
하 우
계 는</w>
▁손 을</w>
▁바른 미래
이 번</w>
위원 회는</w>
해 진</w>
▁시 설</w>
▁많 았다</w>
활 동을</w>
▁미국 과</w>
▁광 고
소 는</w>
▁산 업</w>
▁인 천</w>
▁뉴 욕
▁축 구
▁즉 시</w>
▁그 곳
처 가</w>
▁위 협
▁공개 된</w>
▁지방 자치
▁수요 가</w>
▁선 호
항 공
▁사건 이</w>
▁발 생</w>
비 는</w>
▁인 간
▁그 들이</w>
처 리
액 을</w>
▁저 렴
▁가 고</w>
▁일 단</w>
▁영 화를</w>
▁공연 을</w>
▁상대 적으로</w>
▁방문 해</w>
▁허 용
▁설명 이다</w>
▁졸 업
▁아 시아</w>
▁1 0
1 4</w>
생 이</w>
부 했다</w>
▁삶 의</w>
화 의</w>
베 이
안 의</w>
▁하 면서</w>
▁소 요
▁관 하여</w>
했 기</w>
▁수 사를</w>
▁참석 해</w>
▁전 날</w>
▁적 발
▁아시 안
▁처음 이다</w>
▁실 패
▁수 용
▁남 자
사 한</w>
▁블록체 인</w>
▁말 이</w>
봉 사
▁혼 자</w>
▁드 리
▁납 부
식 품
▁수 출</w>
▁서비 스
▁명 예
▁분 양
었 는데</w>
의 료
데 요</w>
▁적 은</w>
▁스마트 폰</w>
▁남 편
▁들어 가
▁특 수
▁커 지고</w>
▁촉 구
시 스템
▁프랑 스</w>
▁번 째
▁목소 리가</w>
▁맞 춰</w>
▁기 상
달 러</w>
이 의</w>
▁수 업
▁부 회
▁열 린다</w>
▁암호 화
연 을</w>
군 의</w>
▁9 0</w>
부 터는</w>
▁부탁 드립니다</w>
지 며</w>
조 사를</w>
▁미 안
▁따 른다</w>
▁대 회</w>
는데 요</w>
2 4</w>
▁흐 름
▁광 역
▁피해 가</w>
▁부분 이</w>
▁구체 적인</w>
▁내 에서</w>
일 과</w>
시 행
▁임 명
▁유 럽</w>
▁메 뉴
1 6</w>
▁길 을</w>
▁베트 남
▁상 징
▁말 고</w>
우 고</w>
▁센 터
▁메 이
▁나 올</w>
▁영 상
▁국토 교통
▁커 뮤니
임 이</w>
▁건 물</w>
▁사 전</w>
▁남 은</w>
▁걸 쳐</w>
자 원
▁발생 하는</w>
▁장애 인</w>
겠 어</w>
▁코 스
학 을</w>
요 일에</w>
▁이 메
▁우리나 라</w>
▁구 입
1 7</w>
건 설
▁여 행</w>
▁수 원
▁직 원</w>
▁예 측
신 이</w>
▁차 례</w>
▁마지 막
▁자 기</w>
▁의견 이</w>
드 에</w>
▁필 리
본 부
▁작 용
▁불 과
▁201 0</w>
▁시 장에</w>
▁수 많은</w>
자 들에게</w>
주 로</w>
▁어 머니
▁크 리스
▁철 저
이 에</w>
스 티
▁처 벌
선 다</w>
▁인 근
▁식 품
단 지</w>
▁대 기
스 터
▁듣 고</w>
이라 면</w>
▁하나 의</w>
▁반 면</w>
▁네 트워
▁구성 된</w>
▁개 혁
크 를</w>
일 의</w>
월 까지</w>
면 을</w>
▁정상 회담</w>
▁저 녁
▁완 전히</w>
▁겸 겸</w>
▁않 아요</w>
▁중국 이</w>
사 회</w>
▁집 에서</w>
이 던</w>
지 기</w>
위 의</w>
대 문
▁끌 어
드리 겠습니다</w>
. ”</w>
▁좋 다</w>
▁삶 을</w>
▁살 고</w>
심 이</w>
▁표 시
▁하 나요</w>
▁자 체</w>
▁자 랑
▁먹 는</w>
시설 을</w>
만 에</w>
▁이 용</w>
▁시 절</w>
▁수 정
▁민주 당</w>
▁관련 한</w>
▁회 원
▁드러 났다</w>
재 정
▁시작 된</w>
▁공 감
▁적 합
▁남 아</w>
▁대 전
트 로</w>
▁연 구</w>
▁활 동</w>
▁미 디
▁생각 한다</w>
▁규 제</w>
▁진 입
▁점 점</w>
로 잡
▁유 튜
건 에</w>
▁우수 한</w>
▁실 현
▁설 계
▁권 한
▁대표 적인</w>
에 너
국 에</w>
▁수 립</w>
▁뜻 을</w>
▁여기 서</w>
았 고</w>
▁갖 춘</w>
법 이</w>
등 학교
▁새 롭게</w>
감 은</w>
▁특징 이다</w>
▁참여 해</w>
▁선 수</w>
▁저희 가</w>
▁현 현</w>
▁책 임을</w>
▁생각 을</w>
▁대 로</w>
▁이유 가</w>
▁예 고
▁영 어
▁부족 한</w>
연 이</w>
▁흔 들
▁계 획</w>
년 대</w>
기 까지</w>
체 의</w>
시 오</w>
▁분 분</w>
▁계 산
치 지</w>
주 민
▁의 사
▁에 어
▁김 문
스 코
▁201 1</w>
▁소 상공
▁기능 을</w>
2 7</w>
2 3</w>
학 생</w>
쟁 이</w>
권 에</w>
▁정 한</w>
▁자신 을</w>
▁징 수
었 어</w>
▁이 달</w>
▁여 행을</w>
▁미 술
▁했 는데</w>
▁오 래
▁비용 을</w>
▁알 게</w>
히 는</w>
▁직 무
▁발 급
석 을</w>
▁되 나요</w>
당 과</w>
▁에너 지</w>
▁안 타
▁하 게</w>
▁말 레이
▁추진 하는</w>
한 데</w>
▁진행 된다</w>
▁자 격
▁오 른
▁스타 트
▁내 부</w>
▁기대 한다</w>
향 을</w>
처 를</w>
식 은</w>
▁보 통</w>
도 서
▁청소 년</w>
▁도 민
▁해 주
▁대법 원
▁북 미</w>
건 으로</w>
▁압 박
▁나머 지</w>
▁지급 할</w>
P op</w>
근 로
▁활성 화를</w>
▁자 본
▁만 한</w>
▁담 은</w>
▁폭 염
소 로</w>
받 을</w>
▁있 어야</w>
▁대부 분의</w>
▁점 이다</w>
▁이번 이</w>
▁아 르
▁목 적
▁유 명
▁맞 춤
▁20 00</w>
▁너 너</w>
정 보</w>
시 킬</w>
버 스</w>
되 자</w>
▁지역 에서</w>
▁방 문</w>
▁예 산</w>
음 에도</w>
▁일 정</w>
▁포 기
▁오 랜</w>
종 의</w>
역 에서</w>
▁활성 화
▁지 시
▁완 벽
▁좋 지</w>
▁사회 적
▁남 아
▁가능 성을</w>
▁이 슈
▁보 수
스 포
▁운영 을</w>
▁스트 레
▁1 8
품 이</w>
법 인</w>
▁필요 하다는</w>
▁현 장에서</w>
▁주민 들이</w>
▁인 기</w>
▁전 부</w>
트 에서</w>
▁한국 과</w>
▁조 합
▁물 어
차 례</w>
▁학부 모
▁그 를</w>
▁도 시</w>
▁힘 든</w>
▁받아 야</w>
▁시 장의</w>
역 이</w>
▁변 화가</w>
서울 특별시</w>
▁일 주
▁이어 질</w>
▁사 우
▁기 울
▁커 피
▁참여 할</w>
▁누구 나</w>
▁장 관은</w>
활 동</w>
▁개 선</w>
▁강 제
금 으로</w>
▁청 년</w>
▁인 증
▁사 전에</w>
▁보 관
▁경기도 와</w>
▁이 외
▁의 뢰
▁모바 일</w>
▁달 성
법 에</w>
▁해 양
▁간 의</w>
었 지만</w>
▁의혹 이</w>
▁여 의
▁그러 면</w>
▁곳 에</w>
▁알려 진</w>
▁19 8
론 을</w>
▁폭 발
▁연 출
▁누 가</w>
되 었습니다</w>
▁스마트 폰
▁동 아
▁제외 한</w>
▁달 러</w>
▁오 래</w>
▁방법 을</w>
▁노력 하여야</w>
▁인 수
▁아 쉬
▁결 제
단 과</w>
▁향 해</w>
▁발 행
아 도</w>
▁치 열
▁거 부
봤 다</w>
건 강
▁한국 을</w>
▁최 종
경 영
▁불 거
▁다 녀
페이 오</w>
▁홍 콩
▁혹 은</w>
▁만 난</w>
▁깊 은</w>
졌 습니다</w>
▁제품 은</w>
▁이 란
▁넘 어</w>
▁공 직
▁오 르
▁비중 이</w>
▁부 총
▁도 전
▁대 형
해 가</w>
항 이</w>
분 쯤</w>
▁팀 팀</w>
▁선수 들이</w>
▁기 소
▁강력 한</w>
온 이</w>
▁저 에게</w>
▁개 편
번 에</w>
▁민 원
▁정 비
▁그녀 의</w>
▁개 막
▁플랫 폼
▁정 한다</w>
▁음 악</w>
▁여 자</w>
▁외 에</w>
▁쓴 쓴</w>
▁동 의
졌 고</w>
됐 던</w>
▁생 산</w>
쪽 으로</w>
▁만 만</w>
▁남 자</w>
▁그래 도</w>
▁강원 도</w>
레 이</w>
▁만들 기</w>
▁되 었습니다</w>
든 지</w>
공 간
▁될 까요</w>
▁김문 수</w>
▁그 리
▁고 위
▁교 체
▁공 사
▁행 사는</w>
▁적극 적인</w>
▁서울 시
▁별 표</w>
을 까</w>
▁체 계
셔 야</w>
▁아 침</w>
▁심 의를</w>
▁겪 고</w>
정 부
▁손 흥
▁직 업
▁시 장에서</w>
▁긴 급
고 요</w>
▁중요 하다</w>
스 터</w>
▁사 전
회 사</w>
국 을</w>
▁풀 이
▁부담 이</w>
▁노 원
▁일 은</w>
▁올해 는</w>
▁알려 져</w>
중 한</w>
리 에서</w>
▁성 과
▁광 주</w>
▁프리 미
▁포함 된</w>
▁만 날</w>
▁시행 령</w>
▁아 닌
▁끝 에</w>
▁자 리</w>
▁축 하
▁노 인
▁얼 마</w>
▁수도 권</w>
▁3 5</w>
사 고</w>
공 원</w>
주 에</w>
▁고 령
에게 도</w>
▁호 텔</w>
▁보유 한</w>
정 책</w>
▁위 반</w>
유 의</w>
소 의</w>
▁재 산
▁김 성
서 다</w>
보 건
▁확인 됐다</w>
▁열 렸다</w>
▁수 강
재 단</w>
드 라
▁지 배
▁시작 으로</w>
▁쓰 레
▁국민 연
역 에</w>
▁느 낄</w>
▁사 이</w>
▁발표 했다</w>
▁발생 할</w>
▁카 페
디 오
게 임</w>
▁문 화를</w>
▁국 민</w>
▁간 담
▁유 명</w>
▁보 낸</w>
사 항을</w>
▁친구 가</w>
▁아니 냐는</w>
▁제품 이</w>
▁재 무
▁일 상
▁예 비
▁디지 털</w>
▁경기 를</w>
료 는</w>
▁어 울
▁사랑 을</w>
▁정 보</w>
▁정 규
▁비 밀
시 장
라 운
▁기록 했다</w>
됐 지만</w>
구 와</w>
▁사업 은</w>
▁대해 서도</w>
▁나 갈</w>
심 의
▁종 사
▁아이 들이</w>
방 이</w>
▁폼 페이오</w>
그 램
▁카카 오
▁있 음을</w>
메 이
량 의</w>
▁포함 해</w>
▁출 입
▁조 선</w>
통 을</w>
▁작 업을</w>
▁글 을</w>
▁못 해</w>
▁명 확
▁전 세
▁기업 들이</w>
▁200 9</w>
a r
기관 이</w>
▁연 습
▁다 행
▁노 출
▁알려 주
▁불 이</w>
하여 는</w>
디 오</w>
▁굉 장
▁인 상</w>
▁미 래</w>
▁디자 인</w>
▁감사 합니다</w>
비 의</w>
▁심각 한</w>
산 물</w>
소 에서</w>
기 구</w>
▁늘 고</w>
▁회 의</w>
▁한 편</w>
▁외 부
▁순 간
▁국내 외</w>
었 다고</w>
▁업 체</w>
수 와</w>
라 우
▁시민 들이</w>
▁만들 고</w>
▁대 화
▁상황 에</w>
▁상 품을</w>
시 켜</w>
선 에</w>
됐 다는</w>
▁주목 된다</w>
아 이
▁참 고
▁본격 적인</w>
보 고
▁전 까지</w>
▁자 는</w>
▁문제 로</w>
▁인정 하는</w>
▁어렵 다</w>
▁관계 자</w>
▁고 발
혔 다</w>
▁사례 가</w>
십 시오</w>
▁있 는
▁위원 회</w>
▁레 이
물 로</w>
▁일 정을</w>
▁그 려
▁인 권
▁개 의</w>
▁분석 했다</w>
▁월 월</w>
▁스 토
▁불 러
▁경 북
▁감독 은</w>
▁직 후</w>
▁심 의</w>
▁경제 적</w>
해 야
▁포 인
▁자 기
▁급 격
▁가 야</w>
2 8</w>
▁가 치를</w>
▁영 상을</w>
여 명의</w>
▁이 하</w>
▁후 원
향 이</w>
미 를</w>
▁환 경</w>
▁저 의</w>
▁모 으
▁연 예
▁만 들</w>
▁단 지</w>
정 과</w>
▁초 청
▁먹 을</w>
▁그 간</w>
운 용
a n
경 이</w>
▁실 천
▁비 즈니
▁보 여</w>
어 는</w>
▁검 사
여 서</w>
가 로</w>
▁대 구</w>
▁노 력을</w>
▁금 감
대 상</w>
▁이 른
▁이 건</w>
▁최 우
▁입 고</w>
▁선 수가</w>
▁김 정
▁고객 이</w>
▁계 기로</w>
e r
▁바 다
▁내 다
▁와 서</w>
▁당 사
▁경험 을</w>
▁비 난
조 차</w>
약 이</w>
▁한국 은</w>
▁전 통</w>
▁당 부했다</w>
형 이</w>
령 을</w>
▁방 송</w>
▁누 군
▁기 금
난 다</w>
▁화 려
▁어린 이</w>
▁신 신</w>
▁경기 가</w>
회 로</w>
▁진 술
▁네 이
없 는</w>
▁이 전</w>
▁선 임
▁정치 적</w>
▁거 론
차 는</w>
▁향 상
▁뜨 거운</w>
입 니까</w>
▁참 여</w>
▁소 재
등 록
▁공 시
▁정 착
▁뮤 지
하려 면</w>
▁이 르
▁무 너
▁건 립
율 은</w>
▁나타 나
▁교 수</w>
개 로</w>
▁평 양
▁이어 지고</w>
력 에</w>
▁메시 지를</w>
▁에 이
▁당 선
시 로</w>
▁회 사
▁통 화
이 한</w>
복 을</w>
▁저희 는</w>
▁우 수</w>
▁육 성
▁무역 전
재 판
우 가</w>
평 화
▁차 례
▁구 분
▁완 화
▁애 플
▁사람 들의</w>
▁곳 은</w>
진 은</w>
본 부</w>
▁투 표
▁불가 피
▁공연 이</w>
▁경 북</w>
▁가 면</w>
기관 에</w>
▁주 요
▁발 달
바이 오
▁상 임
▁무엇 을</w>
▁대 폭</w>
▁효율 적인</w>
▁일 찍</w>
▁가 맹
▁오 른</w>
▁꿈 을</w>
항 제</w>
제 품</w>
결 과</w>
▁팀 이</w>
▁공무 원
▁혜택 을</w>
▁보 냈
▁민 간</w>
▁교 환
됨 에</w>
산 의</w>
▁싶 다</w>
▁기 부
시 험
▁치 료를</w>
▁지 출
▁당 장</w>
▁내 고</w>
▁개 입
국 에서</w>
▁법 률
▁듯 듯</w>
▁근 처
▁활용 해</w>
▁올 림
▁보 완
▁발생 했다</w>
당 에서</w>
▁평 생
▁최 소</w>
▁대 기업
▁20 20</w>
선 의</w>
구 역</w>
▁인 지
▁서울 시</w>
▁봉 사
돼 야</w>
▁200 8</w>
시 민
만 원
▁삼 성</w>
직 을</w>
조 합
가 능
▁화 재</w>
▁점 도</w>
▁사 로잡
▁있 으나</w>
▁시 장을</w>
▁가능 합니다</w>
운 동</w>
▁많 아
2 6</w>
상 담
물 에</w>
▁지원 에</w>
▁준 준</w>
▁실시 한</w>
황 이</w>
시 다</w>
객 이</w>
▁일본 의</w>
▁이 끄
▁' '</w>
일 간</w>
책 임
▁시 상
▁떠 나
장 인</w>
▁확인 하고</w>
▁보 기</w>
▁나 선다</w>
▁고 객</w>
팅 을</w>
즈 를</w>
방 송
서 와</w>
▁방법 으로</w>
▁분석 이</w>
▁할 인
▁이 제는</w>
▁못 할</w>
▁맞춤 형</w>
성 장
▁잡 고</w>
▁끌 고</w>
라 가</w>
▁마 을</w>
받 아</w>
▁찾 은</w>
▁A I</w>
드 러
는데 도</w>
▁계 기가</w>
▁1 50</w>
▁전문가 들은</w>
▁있으 니</w>
▁변 화를</w>
▁기 독
▁굉장 히</w>
연구 원</w>
▁입 은</w>
영 업
▁역 대</w>
▁길 이</w>
▁박 물
수 사
▁총 괄
▁챔 피
▁상 품</w>
▁김 동
진 에</w>
▁홍 콩</w>
▁좋 을</w>
▁이끄 는</w>
▁예산 을</w>
▁종 교
▁삼성전 자</w>
▁보 내</w>
▁늘 늘</w>
o r
▁운 행
▁쓰 는</w>
회 에는</w>
▁회 장</w>
▁집 을</w>
판 을</w>
차 에</w>
▁한국 이</w>
▁운 용
▁눈 이</w>
▁그 만큼</w>
▁주인 공
▁같 은데</w>
호서 식에</w>
탄 소년
익 이</w>
산 에</w>
▁통 계
▁증 권
▁전 부터</w>
급 을</w>
▁지속 적인</w>
▁그것 이</w>
력 으로</w>
▁학교 에</w>
▁평 가</w>
▁통 하여</w>
▁위원 회는</w>
▁수 여
말 로</w>
▁차 를</w>
▁손 손</w>
진 의</w>
▁생 기
▁공 식
이 랑</w>
▁간 단
호서 식의</w>
▁백 악
▁시 스템</w>
▁단 속
제 와</w>
▁그녀 가</w>
▁경 남</w>
공무 원</w>
▁이유 를</w>
▁계 약을</w>
▁시간 에</w>
▁그런 데</w>
의 원</w>
분 은</w>
▁모 니
▁스포 츠
▁더불 어</w>
협 의회</w>
력 은</w>
▁실 험
교 회</w>
▁했 다고</w>
▁임 직
▁의 원의</w>
▁복 잡
▁점 은</w>
▁빠 져
▁마 찬
평 가</w>
카 드</w>
만 한</w>
▁어 린</w>
▁시 범
▁공 익
유 가</w>
▁팬 들이</w>
▁급 증
선 언
부 장
됐 으며</w>
공 단</w>
▁위원 장의</w>
▁예정 입니다</w>
▁앞 둔</w>
▁시설 을</w>
시설 의</w>
고 에</w>
▁부 장
▁강남 구</w>
승 을</w>
하 셨
▁지 휘
▁가 치가</w>
▁활성 화</w>
▁위원 장</w>
▁호 소
▁중소 기업</w>
트 와</w>
▁보 안
▁가까 이</w>
위원 회를</w>
▁우리 에게</w>
▁검 색
팀 은</w>
시키 고</w>
배 를</w>
▁태 양
▁어 떠
▁미 치는</w>
하였 습니다</w>
조 정
▁자 극
소 득</w>
▁하 이
▁뿐 만</w>
▁관계 를</w>
▁㈜ ㈜</w>
▁재 활
▁일 부
▁않 게</w>
▁당 초</w>
▁높아 지고</w>
센터 가</w>
▁수 업을</w>
▁범 위</w>
▁돌 파
▁공 항
관 계</w>
▁요구 하는</w>
▁올 린</w>
▁악 화
▁사유 가</w>
번 째</w>
▁밖 의</w>
▁향 한</w>
▁핸 드
▁주 택</w>
훈 련
▁하 였다</w>
▁버 스</w>
▁과 태
점 검
기 본
▁지 연
▁입 을</w>
▁아니 면</w>
▁부 문
1 9
더 니</w>
▁여 성이</w>
▁싶 은데</w>
▁성 장</w>
▁상 영
▁곳 으로</w>
▁평 소</w>
▁페이스 북
▁우 즈
▁떨어 진</w>
▁체 크
되 도록</w>
▁왜 냐
▁소 재</w>
▁박 근
▁리 더
▁체 험</w>
▁직 원이</w>
▁사 과
▁융 자
▁대 행
▁구 성</w>
진 과</w>
▁콘텐 츠</w>
▁세계 적인</w>
▁반 려
▁바른미래 당</w>
▁극 복
2 9</w>
학 년</w>
▁풀이 된다</w>
▁정부 와</w>
▁공개 했다</w>
▁1 000</w>
소 와</w>
▁하 되</w>
▁의미 를</w>
▁부담 을</w>
▁경기도 의</w>
님 을</w>
▁직 접
허 가</w>
농 업
개 혁
▁페 이
▁토 대로</w>
▁집 계
▁세 월
▁방 탄소년
▁맞 추
▁환 불
▁인도네 시아</w>
▁외 부</w>
▁수준 의</w>
▁반 환
센터 에서</w>
▁힘 이</w>
▁아 내
▁승 인을</w>
▁보여 주는</w>
▁하나 로</w>
▁편 리
▁제 거
였 습니다</w>
▁회 의를</w>
▁한국 어</w>
▁무 료로</w>
미 디
▁추 세
▁이른 바</w>
▁사 상</w>
▁내용 의</w>
▁협 약
▁옷 을</w>
▁신청 을</w>
▁숨 진</w>
▁둔 둔</w>
▁차 원에서</w>
▁주 어
▁있을 지</w>
▁마찬 가
▁관련 하여</w>
▁전망 이</w>
▁음 식</w>
▁경우 에</w>
▁지 정</w>
테 인
▁유 도
▁소 식을</w>
▁서 류를</w>
▁사업 의</w>
▁비 율이</w>
▁교 수가</w>
201 9</w>
크 가</w>
▁원 을</w>
▁시스템 을</w>
▁서 초
▁불 리는</w>
▁문제 에</w>
▁1 3
절 을</w>
▁친 구</w>
▁이용 하는</w>
▁내 리
▁가 치
▁고려 해</w>
수 에</w>
로 구</w>
▁점 차</w>
▁엄 청
▁사 립
▁구속 영
a t
혁 신
하 시면</w>
서 요</w>
리 카
▁증 명
▁제 주</w>
▁전 쟁
▁작 품을</w>
▁골 프
거 래</w>
▁진행 되는</w>
▁전망 된다</w>
▁둘러 싼</w>
▁공동 으로</w>
▁가능 성도</w>
정상 회담
▁자 문
▁김 치</w>
▁계 열
년 의</w>
태 를</w>
만 으로</w>
해주 는</w>
집 을</w>
경 기</w>
▁받 게</w>
▁들 었다</w>
씨 와</w>
군 은</w>
▁지 불
▁대 만</w>
▁테 이
▁카 드
▁측 이</w>
▁결 정을</w>
▁플 레이
▁인 도</w>
▁유 기
▁긴 장
전 의</w>
▁보여 주
▁개 설
력 의</w>
▁후보 가</w>
▁수 술
물 은</w>
▁학생 들의</w>
▁절 차를</w>
▁울 산
▁싱가포 르</w>
▁떠 오
쪽 에</w>
▁행 정</w>
▁블 랙
동 의</w>
▁버 스
▁도 로</w>
▁모 색
▁I T</w>
사업 에</w>
단 으로</w>
구 로</w>
▁학생 이</w>
▁장애 인
▁만 남
▁기 타</w>
▁있었 지만</w>
▁발 전을</w>
풍 이</w>
▁경 상
▁강 하게</w>
리 적</w>
▁채 택
▁오 후
▁분야 에서</w>
된 다는</w>
▁확 장
▁비 서
▁달 하는</w>
▁늘 어난</w>
영 화
된 다고</w>
규 칙</w>
▁관 광</w>
▁경우 는</w>
회 장</w>
해 질</w>
어 의</w>
가 스</w>
▁보내 주
▁따뜻 한</w>
건 축
▁트 위
▁때 도</w>
와 는</w>
동 에</w>
▁아 티
▁대 북</w>
▁국 회에서</w>
▁가 이
▁하 늘
▁이용 한</w>
▁대 거</w>
▁활용 한</w>
▁지역 은</w>
▁알려 주세요</w>
▁실 적</w>
▁시 즌
과 장은</w>
▁제 재</w>
▁이것 이</w>
▁외 에도</w>
▁결과 에</w>
달 을</w>
▁하 여</w>
▁창 의
▁올 랐다</w>
▁업 계</w>
망 을</w>
▁집 중</w>
▁C C
▁1 6
정 에서</w>
▁필요 합니다</w>
▁진 단
▁세 부
▁담 당</w>
▁그 게</w>
▁구 민
o n
받 았다</w>
▁훼 손
▁풍 부한</w>
어 버
▁당신 과</w>
하 면서도</w>
▁컨 설
▁인공 지
▁유 리
▁상 반기</w>
▁분위 기를</w>
금 과</w>
▁회 장은</w>
▁외국 인
▁상 관
▁동 남
▁영향 으로</w>
▁구 매</w>
해 지고</w>
주 년을</w>
가 와</w>
▁전 남
▁보 존
▁나 무
▁가능 한
스 플
▁주 장이</w>
▁안 팎
▁그 건</w>
▁희 생
▁보 이지</w>
▁남 성이</w>
▁그 에</w>
론 이</w>
▁찾 고</w>
▁제품 의</w>
▁목표 로</w>
나 마</w>
▁진 짜</w>
▁제 작</w>
▁신 분
▁비용 이</w>
▁복 합
▁가 로
▁적 지</w>
▁응 급
▁찾 을</w>
▁쓰 고</w>
▁생각 하는</w>
▁필 수
▁전 년</w>
▁없 지만</w>
▁보 육
▁기존 의</w>
마 을</w>
▁특 성
▁이유 다</w>
▁넘 게</w>
폐 기
▁비 용</w>
▁북 부
면 으로</w>
란 히</w>
▁전 용
리 게</w>
▁환경 을</w>
▁병 원</w>
영 이</w>
여 성
▁훌 륭
▁놀 라
▁개 념
체 에</w>
권 은</w>
▁대 리
▁개발 한</w>
▁파 트
▁이어 졌다</w>
▁이 같이</w>
▁대변 인은</w>
▁양 성
층 의</w>
센터 를</w>
드 와</w>
▁평 택
▁신 설
▁법 원
하 이
▁종 료
▁저 도</w>
▁스 티
션 이</w>
▁음 주
▁부분 을</w>
님 은</w>
▁영 어를</w>
▁설치 된</w>
▁바 닥
▁매 출</w>
▁교 류
▁검찰 에</w>
성 장</w>
▁소비 자</w>
▁가 게
▁1 4
▁안전 한</w>
▁보 상
▁대 신
관 련</w>
▁줄어 들
▁마음 에</w>
전 은</w>
구 에서</w>
▁연 령
▁시 험</w>
▁생각 해요</w>
▁기 본</w>
▁계 약</w>
▁추진 할</w>
▁긍정 적인</w>
▁계 좌
▁개 방
되 어야</w>
계 약
▁형태 로</w>
▁행복 한</w>
▁작 년</w>
▁배 제
학 습
▁지역 을</w>
▁증가 한</w>
▁유 출
▁아직 도</w>
3 2</w>
질 의</w>
▁합 격
▁진행 됐다</w>
▁운영 할</w>
▁과 도
이 니</w>
▁전 개
▁응 원
▁데이 터</w>
길 이</w>
규 모
▁아 는</w>
▁바 에</w>
▁편 안
▁취 득
▁많 고</w>
▁마 치고</w>
▁영 상</w>
▁출 범
▁제출 한</w>
▁이 민
▁어려 워
▁소 화
1 00</w>
분 간</w>
▁방법 이</w>
▁뛰 어난</w>
▁돈 이</w>
▁질 문
▁정 치</w>
▁전 남</w>
e r</w>
하 시는</w>
시켰 다</w>
▁할 머니
님 께서</w>
년 으로</w>
겨 진</w>
▁캠 페
▁지원 이</w>
▁준 용
▁정 도의</w>
▁곳 에서</w>
▁거 듭
▁가족 이</w>
해 왔다</w>
실 로</w>
소 방
▁상태 다</w>
▁물 을</w>
▁목소 리를</w>
렸 습니다</w>
▁일자 리를</w>
▁업 체가</w>
▁안 전</w>
▁남 성
▁분 석</w>
▁물 건을</w>
▁감 염
질 환
각 을</w>
▁회 사의</w>
▁않았 습니다</w>
▁손 해
▁맛 있
▁검 토</w>
▁기술 이</w>
▁유 입
▁요 리
e n
억 원의</w>
▁여성 의</w>
▁생 명
▁공 장</w>
한 이</w>
어 나</w>
▁투 자를</w>
▁자 리에</w>
▁어 르
▁관계 가</w>
▁차 단
▁여 름</w>
▁분야 의</w>
▁부 적
▁가 득
름 이</w>
등 을</w>
사 령
▁장 관</w>
▁없 어서</w>
올 림
관 으로</w>
▁이름 이</w>
▁수 영
▁사 항</w>
져 야</w>
시 까지</w>
보 니</w>
당 에</w>
▁프로그램 이</w>
▁전 공
▁의 지를</w>
▁원 래</w>
▁아 마</w>
▁선정 된</w>
▁기대 를</w>
▁분위 기가</w>
▁대 화를</w>
▁자리 에서</w>
▁있 어
시간 이</w>
세 로</w>
▁한 정
▁동 원
▁구 간
3 1</w>
회의 에서</w>
분 야</w>
▁효율 적으로</w>
▁민 족
▁나 중에</w>
구 나</w>
▁혐 의
▁추진 하고</w>
▁슈 퍼
▁상당 히</w>
▁둔 다</w>
▁녹 색
▁거주 하는</w>
▁후 반</w>
▁표 준
▁잘 못</w>
▁뒤 에</w>
▁대 하여는</w>
테인 먼
대 학</w>
▁잠 시</w>
▁복 귀
▁강 강</w>
교육 을</w>
▁취 재
▁챔피 언
▁별 도의</w>
주 차
▁초 기</w>
▁남 성</w>
▁결 합
수 한</w>
▁체 포
▁이뤄 질</w>
▁대 북
▁낼 낼</w>
▁고 속
프 트
▁소비 자
▁산 림
▁마 친</w>
▁년 년</w>
▁내 린</w>
▁권 고
위원 장</w>
▁질 문에</w>
하 기
달 라고</w>
국 민
▁통 지
▁캐나 다</w>
▁한국 인</w>
▁부 인
닙 니다</w>
▁회 사가</w>
▁생 활</w>
▁방 지
하 니</w>
로 도</w>
졌 다는</w>
시 장이</w>
량 은</w>
▁주 의
▁연 합
▁방문 한</w>
▁200 7</w>
이 와</w>
을 까요</w>
비 와</w>
▁전망 했다</w>
▁사회 복지
▁감 독</w>
단 체가</w>
▁포 착
▁산 산</w>
▁받 으
키 스
▁발 송
▁공무 원이</w>
▁4 5</w>
▁검 증
일 자
어 와</w>
기업 의</w>
▁자원 봉사
▁부 서
하 려</w>
▁특 허
▁이 승
▁입 학
▁연 주
▁신 청</w>
▁것 이란</w>
힌 다</w>
▁유 니
▁소 식이</w>
▁덕 분에</w>
아 가</w>
▁허 가
▁않았 지만</w>
▁발 휘
▁머 물
▁맞 이
▁금 융</w>
가 들이</w>
▁젊 은
▁마 치</w>
▁과학 기술
2 00</w>
표 가</w>
기 기</w>
▁위원 의</w>
집 니다</w>
▁생 겼
▁가 을
▁샘 플
▁고 마
▁것 인지</w>
었 다는</w>
▁앞 앞</w>
▁본격 적으로</w>
지 구</w>
▁협 상</w>
▁진행 하는</w>
▁떠 올
▁호 응
▁팬 들의</w>
▁전 면</w>
▁노 조
▁기간 이</w>
▁친 환경</w>
▁최 최</w>
▁아이 가</w>
사 진</w>
겠 습니까</w>
▁평가 했다</w>
▁인 사</w>
▁대 책을</w>
3 5</w>
▁충 돌
▁설 정
▁비교 적</w>
E O</w>
인 들은</w>
이 로</w>
건 은</w>
▁올 리
▁선 진
▁서 류
▁교육 감은</w>
심 에서</w>
시 킨</w>
▁절 반
▁새 벽</w>
▁국민 의</w>
회 의를</w>
설 을</w>
체 험
참 여
▁홍 보</w>
▁물 품
▁기반 으로</w>
▁CC TV</w>
간 다</w>
▁조 언
시 스템</w>
기 금</w>
▁촉 진
▁초 대
▁지하 철
▁맡 은</w>
▁논 의가</w>
▁노래 를</w>
제 품
세 기</w>
게 도</w>
▁활용 할</w>
▁한국 당</w>
▁탓 에</w>
▁충 남
▁왜냐 하면</w>
▁시 민</w>
신 가요</w>
▁징 역</w>
▁반응 을</w>
▁곳 이다</w>
도 에서</w>
▁했 다는</w>
▁피 의
▁전 용</w>
▁도 모
적 의</w>
로 에</w>
▁포 장
▁배 터
▁따라 서</w>
▁양 국</w>
▁음악 을</w>
▁옆 에</w>
사 에게</w>
▁행 사에</w>
▁이 웃
▁연 방
▁돼 요</w>
▁대 단
▁규 모</w>
▁경 고
드 릴게요</w>
▁혼 란
▁강 서
행 에</w>
터 테인먼
청 에</w>
▁법 인</w>
호 는</w>
층 에</w>
▁화 웨
치 게</w>
▁짧 은</w>
▁공간 을</w>
▁경기 에서</w>
업 무
생 의</w>
구 역
▁열 어</w>
▁없 도록</w>
▁않 지만</w>
▁실시 할</w>
▁수 석
하 실</w>
▁감독 의</w>
▁1 5
바 로</w>
겁 게</w>
▁마케 팅</w>
▁깨 끗
소 한</w>
▁절 대</w>
▁입 증
▁임 기는</w>
층 이</w>
주 시</w>
전 으로</w>
목 으로</w>
▁후 보</w>
▁차지 하는</w>
▁의 혹</w>
위원 은</w>
았 지만</w>
▁조사 됐다</w>
▁운영 하고</w>
▁보 급
▁박 람
▁건강 한</w>
지 인</w>
▁출 동
▁재 개
▁워 싱
▁스페 인</w>
▁담 겨</w>
▁거 에요</w>
확 실
▁않 아도</w>
▁K T</w>
예 산
료 의</w>
▁운 동을</w>
▁날 짜
직 한</w>
지 다</w>
▁진행 할</w>
▁잇따 라</w>
▁기준 을</w>
어 에</w>
▁진행 하고</w>
▁주 주
▁거 래</w>
▁호 흡
▁스 크
보 조
능 을</w>
▁얻 고</w>
즈 가</w>
▁하 여
▁신고 를</w>
▁분 리
▁갈 수록</w>
▁준 비</w>
▁수 비
o n</w>
▁압 수수
생 활</w>
▁피해 자</w>
▁인 물
▁생 존
▁되 어
▁가 동
성 으로</w>
▁일 하는</w>
▁이 상을</w>
▁여 야</w>
▁4 00</w>
▁하 노
▁이야 기가</w>
▁고 용</w>
▁법 적</w>
▁눈 을</w>
포 구</w>
사업 의</w>
국 장</w>
경 기도</w>
▁출 전
▁시 리
▁떨어 져</w>
▁기록 한</w>
▁구 현
모 델
금 리</w>
▁출 산
▁좋 아</w>
▁산업 혁
아 의</w>
게 임
▁현재 까지</w>
▁오 픈
▁관 리를</w>
나 무
▁채 널
▁의 사를</w>
▁수 소
▁말 하는</w>
▁가격 을</w>
았 어요</w>
▁헌 법
▁공개 한</w>
▁프 레
▁재판 에</w>
▁방향 으로</w>
▁된 다는</w>
행 한</w>
렀 다</w>
▁이 란</w>
▁옮 겨
▁예 를</w>
▁앞 으로도</w>
▁기다 리고</w>
기업 이</w>
▁환 영
▁성 남
▁경우 도</w>
▁경기 북
터 에</w>
체 는</w>
오 고</w>
▁행사 에는</w>
▁이재 명</w>
▁이것 을</w>
▁수 사에</w>
국 과</w>
▁조 성</w>
▁은 행</w>
▁소 식
▁디자 인
회 에서는</w>
권 과</w>
▁축 구</w>
▁이어 지는</w>
▁서비 스가</w>
▁상 장
▁차지 했다</w>
▁작 동
▁아 닙니다</w>
▁기다 려
▁6 5</w>
우 러
▁택 시
▁질 병
▁승 인
▁화 재
▁지원 한다</w>
▁자 료</w>
▁이 전에</w>
▁선 사
▁가 득</w>
연 합</w>
▁제공 할</w>
▁오 염
▁산 하</w>
▁모 르는</w>
협 력</w>
보 험</w>
기 록
▁조례 에</w>
▁제공 하고</w>
▁데 다</w>
▁과 연</w>
▁정상회담 을</w>
▁자 산
▁암호화 폐</w>
▁속 도를</w>
리 카</w>
개 국</w>
▁지 사는</w>
▁증가 하고</w>
▁앨 범
▁싱가포 르
▁놀 이
▁김 경
식 에는</w>
▁현 상이</w>
▁있었 고</w>
▁여의 도</w>
▁씨 는</w>
▁반 대</w>
▁결 승
감 과</w>
▁적 절한</w>
▁자유 롭게</w>
▁보 호</w>
▁그 때</w>
▁갈등 이</w>
월 에는</w>
벤 처
라 서</w>
▁여러 분
▁수준 으로</w>
조 원</w>
▁일자 리
▁원활 한</w>
▁신 한
▁미국 은</w>
▁돌 려
판 매
방 에</w>
▁지 식
▁주 식
▁어 우러
▁아 니</w>
▁시 는</w>
▁사랑 하는</w>
▁문 의
▁독 특
▁당 일</w>
법 은</w>
들 에게는</w>
기 지</w>
▁처 리</w>
▁정확 히</w>
▁미래 를</w>
▁돌아 가
▁즐 거
▁제 도</w>
▁분야 에</w>
▁3 2</w>
추 진
▁재미 있
▁선 출
▁사고 로</w>
▁단 축
% ),</w>
하 는지</w>
릅 니다</w>
내 에</w>
▁휴대 전
▁충분 한</w>
▁지 급</w>
▁인천 광역시</w>
▁사용 한</w>
▁브 리
▁세 상을</w>
▁경기도 지사가</w>
하 라고</w>
포 를</w>
▁역 사를</w>
▁비판 했다</w>
▁명 시
E D</w>
환 으로</w>
프 가</w>
억 원
스 타</w>
경 쟁
▁했 고</w>
▁플 라
▁상당 한</w>
▁분 류
▁고려 하여</w>
▁협 조
▁프로젝 트</w>
▁평 균
▁착 용
▁실시 한다</w>
▁뚜 렷
▁공 사</w>
▁강 화</w>
▁낮 아
▁구체 적으로</w>
▁검 사</w>
자 금</w>
느 냐
▁지 도</w>
▁상 황</w>
▁만들 었다</w>
▁막 기</w>
▁가 졌다</w>
듯 이</w>
▁잠 재
▁생각 해</w>
▁대법 원</w>
▁나 설</w>
구 조
▁축 제</w>
해 졌다</w>
▁통 해서</w>
▁유 발
▁별 도로</w>
▁때 부터</w>
▁금 리</w>
▁감 사</w>
화 하는</w>
▁판단 했다</w>
▁저 지
▁불 확실
▁거 짓
지 요</w>
부 로</w>
▁친구 들과</w>
▁대표 이
▁공공 기관</w>
할 지</w>
▁작 품</w>
▁스포 츠</w>
▁스 케
▁사람 에게</w>
▁공 개</w>
자 고</w>
연 맹</w>
대 학교
광역 시
결 을</w>
▁올 렸다</w>
▁목 숨
형 의</w>
했 어</w>
폰 을</w>
액 은</w>
시간 을</w>
수 산
사 들의</w>
▁동 반
트 리
종 을</w>
▁추 구
▁신 고</w>
▁보건 복지
▁매출 이</w>
▁농 촌
기 준</w>
하 는
만 원의</w>
감 한</w>
▁흥 미
▁한 류
▁좋 습니다</w>
▁영화 가</w>
▁면 접
▁도 입</w>
▁관 내</w>
▁빠 진</w>
▁기 분이</w>
러 스</w>
되 거나</w>
까 지의</w>
국 가
▁함께 하는</w>
▁청와 대가</w>
▁월드 컵</w>
▁브라 질</w>
선 거</w>
였 고</w>
실 은</w>
관 계가</w>
▁별 로</w>
▁번 역
▁멕시 코
▁공 을</w>
▁시 절
▁시 급
▁방 안
적 으로는</w>
발 을</w>
▁한 층</w>
▁직 원들이</w>
▁직 무를</w>
▁요청 할</w>
▁미 사
▁동 작
▁감 정
▁전 시</w>
▁않 다는</w>
▁날 이</w>
해 져</w>
자 유
분 야
▁사람 들을</w>
▁기자회 견을</w>
무 역
▁백 화
▁내 는</w>
업 무</w>
▁주 에</w>
▁인 구</w>
▁노 력이</w>
▁내 세
▁사항 이</w>
▁말 한</w>
카 르
▁포 상
▁최 창
▁이 정
▁선 정</w>
▁매 니
서비 스를</w>
▁트 렌
▁일 정
▁없 어
▁부 당
중 소
주 년</w>
▁유치 원</w>
▁다음 달</w>
▁긴 급</w>
통 신</w>
안 보
센터 는</w>
목 의</w>
▁선 거</w>
▁맛 이</w>
▁기 반</w>
▁강 원</w>
업 에</w>
▁어려 울</w>
▁부 상
▁능 력을</w>
스트 를</w>
사 용
▁탑 승
▁최 초</w>
▁일 각
졌 다고</w>
세 계
▁현 장을</w>
▁플랫 폼</w>
▁출 근
▁서울 중앙
▁벌 써</w>
▁대표 하는</w>
▁가 수
데 다</w>
▁추 억
▁참여 를</w>
▁중심 의</w>
▁정 체
▁분석 이다</w>
▁바람 이</w>
▁맞 게</w>
▁경쟁 력을</w>
▁5 2</w>
판 에</w>
인 권
말 을</w>
리 그
▁이하 의</w>
▁내용 은</w>
인 가</w>
원 한</w>
세 에</w>
인 천
위 와</w>
스 코</w>
만 명</w>
▁특별 히</w>
▁멤 버</w>
▁멋 진</w>
▁죄송 하지만</w>
▁아무 리</w>
▁1 7
▁제품 에</w>
▁저 를</w>
▁인 사를</w>
▁순 간</w>
▁소 녀
▁가 해
▁현 장에</w>
▁평가 가</w>
▁접 촉
▁자연 스럽게</w>
▁자 아
▁고용 노동
▁선 교
▁상 호</w>
▁나 라</w>
해 왔
▁총 리가</w>
▁에너 지
▁보 수</w>
▁무 료</w>
▁두 려
화 하고</w>
▁내다 봤다</w>
워 서</w>
▁하 거나</w>
▁이 르는</w>
▁어려 움이</w>
▁붙 잡
▁돋 보
▁댓 글
▁대상 이</w>
▁공 부를</w>
▁강 릉
전 략
머 니</w>
▁일 이다</w>
▁봤 다</w>
▁박근 혜</w>
▁매 주</w>
▁고 등
▁건 설</w>
박 물
▁전 화를</w>
▁선 발</w>
▁마련 됐다</w>
▁김 태
▁하 반기</w>
▁신 선
▁소 집
▁보 입니다</w>
▁너 무
센터 의</w>
마 를</w>
▁직 장
▁오 랫
▁아이 를</w>
야 만</w>
▁자전 거
▁기 도
▁고 등학교</w>
▁것 보다</w>
▁가 시
해 양
이 트</w>
▁행정 안전
▁진행 될</w>
▁건 의
당 국은</w>
▁폐 쇄
▁너 를</w>
지 도
군 에</w>
▁파 티
▁죄송 합니다</w>
▁전 화</w>
▁장 르
▁살 해
▁규 정을</w>
▁이번 에는</w>
▁오랫 동안</w>
▁비판 이</w>
▁높 이고</w>
k m</w>
미 술
▁장 학
▁멕시 코</w>
잖 아</w>
▁관 악
▁『 『</w>
원 장</w>
에 이
되었 고</w>
▁인도네 시아
▁위 임
▁모으 고</w>
재 생
심 사
라 의</w>
▁스 웨
▁설 득
▁몸 을</w>
▁때 가</w>
▁들어 간</w>
▁동일 한</w>
▁담 겼다</w>
▁게 임을</w>
▁19 7
▁차 량을</w>
▁인 하
▁행 위를</w>
▁하 겠다</w>
▁생 긴</w>
▁미국 에서</w>
▁사이 에서</w>
▁법 령
항 공</w>
축 구
과 에</w>
▁영 양
▁없 으면</w>
▁세 미
▁사건 의</w>
▁물 러
공 항</w>
▁회 사에</w>
▁품 질
▁자 발
▁모니 터
종 이</w>
물 과</w>
도 로
가 족</w>
▁외 국</w>
▁상 대</w>
하였 고</w>
그 램</w>
▁위 기
▁수 집
▁대부 분이</w>
▁높 아</w>
지 어</w>
줍 니다</w>
주 와</w>
능 이</w>
▁위원 으로</w>
▁무 게
▁날 씨가</w>
▁교 부
▁점 유
▁사진 이</w>
▁다 루
화 는</w>
마 저</w>
▁제기 됐다</w>
▁부 작
▁합 리
▁즐 거운</w>
▁조사 한</w>
▁잘못 된</w>
▁옛 옛</w>
▁수 입</w>
3 7</w>
판 이</w>
범 죄
▁해 제
▁일 정이</w>
▁요 즘
▁엘 리
▁세 무
▁관 해</w>
에서 만</w>
▁주민 의</w>
▁조사 하고</w>
▁않 으
▁문화 가</w>
▁하나 가</w>
▁진행 되고</w>
▁인 용
▁의 존
▁예 술</w>
▁영향 이</w>
▁열 었다</w>
▁본 격</w>
치 의</w>
비 로</w>
문 의</w>
▁환 자가</w>
▁편 성
▁위험 이</w>
▁세 워
▁꽤 꽤</w>
▁기 온이</w>
스 크</w>
사업 이</w>
망 이</w>
▁티 켓
▁태 국</w>
▁주관 하는</w>
▁유 전
▁온라 인
▁연구 원은</w>
▁승 용
▁술 을</w>
▁국무위원 장이</w>
아 버
리 도</w>
되 기도</w>
▁포 함</w>
▁페 스티
▁쪽 으로</w>
▁이내 로</w>
▁안정 적인</w>
▁너 에게</w>
▁나 섰
▁그 린</w>
학 의</w>
▁워 크
▁예상 되는</w>
▁얻 을</w>
이었 습니다</w>
▁최창 식</w>
▁사항 에</w>
운 영</w>
▁협 력</w>
▁실 행
▁방향 을</w>
▁단순 히</w>
▁학생 들은</w>
▁풀 어
▁통 제
▁작성 하여</w>
▁에 스
▁시 행</w>
▁기간 을</w>
▁3 4</w>
봐 야</w>
느 냐</w>
▁호 에</w>
하 길</w>
중 인</w>
선 수
면 이</w>
▁심 사를</w>
▁스마 트</w>
▁생활 을</w>
▁때문 이에요</w>
▁내 렸다</w>
▁기능 이</w>
▁최초 의</w>
▁선 도
▁그렇 지</w>
▁국회의 원</w>
6 5</w>
재 난
▁판 문
▁상태 로</w>
▁무 더
인 터
▁화려 한</w>
▁지 목
▁탄 생
▁종 전
▁소 득</w>
▁부동 산
▁부 진
▁발 의
▁만 나는</w>
▁되 며</w>
▁능 력이</w>
정 규
워 요</w>
들 로부터</w>
▁발 표</w>
설 이</w>
사 고
▁확인 해</w>
▁투 명
▁준비 를</w>
▁정보 가</w>
4 5</w>
▁창 업</w>
▁진행 한다</w>
▁주민 들의</w>
▁용 산
▁아 동</w>
▁독 일
은행 이</w>
유 를</w>
시설 이</w>
나 가</w>
▁크리스 마
▁제공 한다</w>
▁작 성</w>
겠 네요</w>
▁세계 에서</w>
▁상태 에서</w>
▁들 을</w>
도 지사</w>
나 무</w>
▁터 키
▁적 응
장애 인
▁활동 에</w>
▁택 시</w>
▁크 고</w>
▁진행 한</w>
▁정책 이</w>
▁설 립</w>
환 이</w>
하 고는</w>
자 들과</w>
▁호 와</w>
▁포함 하여</w>
▁카 드</w>
이 용
이 어</w>
식 에서</w>
▁않 기</w>
▁분 들이</w>
▁뉴 욕</w>
줬 다</w>
▁테 니</w>
▁최근 에는</w>
▁이상 으로</w>
▁이 명
▁시 선을</w>
▁고 정
치 로</w>
과 장</w>
▁일 제
▁열 릴</w>
▁스 튜
▁김 씨는</w>
골 을</w>
▁수 업</w>
▁소 프트
▁결 제</w>
서 로</w>
▁제 재
▁번째 로</w>
▁머 리를</w>
▁마지막 으로</w>
▁내 내</w>
▁김 현
▁기준 에</w>
▁흘 러
▁서울 의</w>
▁데이 터를</w>
▁기업 을</w>
▁건 조
▁착 수
▁업 계
▁답 했다</w>
▁개선 을</w>
기 념
▁활 약
▁혐 의</w>
▁준용 한다</w>
▁주변 에</w>
▁좋아 요</w>
▁경제 가</w>
▁강 동
함 과</w>
측 이</w>
월 드
사 랑
▁유 해
▁없었 던</w>
▁신 규
▁기 각
▁측 정
▁겪 는</w>
▁K BS</w>
락 을</w>
▁활동 이</w>
▁현 행</w>
▁폐 지
▁발 전</w>
▁만 났
차 로</w>
오 염
▁태 풍</w>
▁찍 은</w>
▁조 용
▁재 배
▁영 수
▁부분 은</w>
▁맛 있는</w>
▁클 래
▁들어 서
▁높 이는</w>
3 4</w>
3 3</w>
포 먼
전 과</w>
액 의</w>
▁필 요</w>
▁않는 다는</w>
▁내 용</w>
▁간 사는</w>
자 도</w>
▁학교 에서</w>
▁패 션
▁중국 에서</w>
▁주 문</w>
▁좋 겠다</w>
▁예 방</w>
▁상태 가</w>
▁마련 된</w>
하 라</w>
져 서</w>
억 원이</w>
래 요</w>
공 항
▁필리 핀
▁증 가</w>
▁조 작
▁어디 에</w>
▁수 급
▁보 낼</w>
터 의</w>
▁존 중
▁적 절
▁있 다며</w>
▁원 인을</w>
▁원 의</w>
▁실 시간</w>
▁수 사가</w>
▁매 각
▁마 세요</w>
▁듯 한</w>
▁고 통
처 리</w>
정보 를</w>
았 는데</w>
색 을</w>
려 요</w>
▁콘텐츠 를</w>
▁준 공
▁실 적이</w>
▁노 후
▁김 종
▁기 록</w>
▁간 편
상 황
▁파트 너
▁저 소득
음 악
감 사
▁정 도가</w>
▁자 영업
▁사고 를</w>
▁낮 낮</w>
모 를</w>
▁인터뷰 에서</w>
▁들어 가</w>
렉 시
공 사가</w>
▁채 용</w>
▁장 이</w>
▁있었 는데</w>
▁유일 한</w>
▁분명 히</w>
▁검 사를</w>
▁가 슴
였 지만</w>
▁회 장의</w>
▁파 견
▁와 이
▁성 성</w>
▁상 상
▁배 려
▁미 중</w>
▁국내 에서</w>
▁곳 을</w>
토 록</w>
관 계를</w>
▁조 기</w>
▁위촉 한다</w>
▁아 무</w>
▁등 도</w>
정 부가</w>
선 은</w>
▁종 로구</w>
▁입 법
▁익 숙
▁위 안
▁안 보
▁구청 장의</w>
었 을</w>
선 에서</w>
▁필요 할</w>
▁역 사</w>
▁성 실
▁기 관의</w>
▁개 별</w>
크 로
리 면</w>
▁충 격
▁일 에</w>
▁연락 을</w>
▁보 증
▁3 8</w>
만 은</w>
려 서</w>
▁좋 겠어요</w>
▁절 반</w>
▁저렴 한</w>
▁입장 이다</w>
▁이 들을</w>
▁용 인
▁본 인이</w>
▁미국 에</w>
▁다음 과</w>
▁검 출
▁강 남</w>
▁3 6</w>
청 소년
드 에서</w>
▁재판 부는</w>
▁손해 배
▁상 호
▁부분 에</w>
▁대 사
지역 의</w>
억 원으로</w>
기간 이</w>
▁자 금
▁원내대표 는</w>
▁변 동
▁노원 구</w>
▁경 영</w>
% (</w>
▁환 자</w>
▁피 부</w>
▁충 족
▁연 말
▁메 르
▁관측 이</w>
▁공 급</w>
▁경쟁 이</w>
한 의</w>
수 요
률 은</w>
▁유 관
▁송 파
▁부장 판
▁구 축</w>
치 에</w>
자 마
▁이 스
▁외 외</w>
화 할</w>
진 다는</w>
생활 을</w>
▁반응 이</w>
▁공 통
졌 지만</w>
공 공
▁특 별</w>
▁즉 즉</w>
▁조 심
▁유 엔
▁목숨 을</w>
▁대 화</w>
▁합 동
▁지하 철</w>
▁저 장
▁실시 하고</w>
▁생 겨
▁뒤 를</w>
▁동 참
▁격 려
▁최 대
▁주목 을</w>
▁보유 하고</w>
▁대 출</w>
▁간 호
콘 텐
어 린
▁인 력</w>
▁위원 이</w>
▁마이 크</w>
차 이
증 권</w>
점 과</w>
▁확인 한</w>
▁현 대</w>
▁카메 라
▁이뤄 진</w>
▁면 세
매 를</w>
렸 던</w>
▁취 임
▁원 인
▁시 사
▁되 기</w>
▁국방 부</w>
현 이</w>
시 켜
산업 의</w>
▁협 상이</w>
▁분석 한</w>
▁건 강</w>
3 00</w>
▁초 등학교</w>
▁사 장
▁목 격
▁근 본
선 과</w>
▁태 권
▁촬 영</w>
▁국민 이</w>
▁과정 에</w>
점 이다</w>
▁한 계가</w>
▁커뮤니 티
▁전 력
▁아 베</w>
▁맞 지</w>
▁관람 객
하 다가</w>
고 기</w>
▁조 절
▁이 게</w>
▁아시안 게임</w>
▁공 기
i t
화 한</w>
화 될</w>
테 크
느 라</w>
▁초 등
▁지정 된</w>
▁자 금을</w>
▁유 력
▁법원 행정
▁바이 오
▁기업 에</w>
하 러</w>
자동 차</w>
에너 지</w>
가 격
▁호 주</w>
▁추 락
▁발언 을</w>
▁게 재
하 기가</w>
프로 그램
프 라</w>
▁음주 운
▁성 장을</w>
투 자</w>
청 의</w>
심 으로</w>
선 으로</w>
▁실 종
▁된 다고</w>
▁늦 게</w>
▁교육 과
▁관리 에</w>
▁공정 거래
조 례</w>
복 지</w>
기 획
▁이끌 어
▁설 문
▁달 려
▁느 꼈
일 인</w>
▁자 리가</w>
▁신 흥
▁장 관
▁실질 적인</w>
▁상 승</w>
▁빅 데이
▁비즈니 스</w>
▁받 는다</w>
▁다 수</w>
▁늘어 날</w>
▁기 원
▁대통령 을</w>
하 기를</w>
브 를</w>
▁인공지 능</w>
▁업 데이
▁모 아
님 께</w>
▁제 도를</w>
▁젊은 이
▁임 금
▁떨어 지는</w>
▁높 게</w>
▁갤 럭
▁개 최</w>
▁어떠 한</w>
▁널 리</w>
호 선</w>
탄 을</w>
사 항
부 지
▁공 고
▁합 류
▁포 항
▁퍼 포먼
▁선정 됐다</w>
▁무 려</w>
▁기 후
▁광 진
I C
부 에서</w>
▁원칙 으로</w>
▁보 좌
▁방 치
▁맡 고</w>
▁대 책</w>
▁그렇 다면</w>
회 관</w>
▁참여 했다</w>
▁자 카르
▁삼성 바이오
▁사람 들에게</w>
▁바 꿔
졌 던</w>
고 용
▁자 살
▁올 바
▁성공 적으로</w>
▁네 티
▁참 참</w>
▁집 으로</w>
▁증 상이</w>
▁상 용
▁데 뷔
▁내놓 은</w>
▁금액 을</w>
▁광 고</w>
주 기</w>
사 항</w>
▁하 반
▁스 위
▁사용 자가</w>
▁그 린
점 의</w>
곳 이</w>
▁차 량이</w>
▁마 감
한 지</w>
리 면서</w>
▁신 경
▁시 내
▁사유 로</w>
▁모 델</w>
▁매 월</w>
▁대 전</w>
▁달 라</w>
▁걸 어
자마 자</w>
결 과를</w>
▁상 반
▁부 르
▁배 달
▁늘 었다</w>
▁김 지
파 가</w>
시 장의</w>
▁장 비</w>
▁없 기</w>
▁시간 은</w>
▁돌 입
창 업
▁캐나 다
▁정책 에</w>
▁분 노
▁뒷 받
▁공간 이</w>
▁곧 바로</w>
▁경쟁 력</w>
적 한</w>
석 의</w>
배 가</w>
다 니</w>
낸 다</w>
▁축 제
▁즐 기는</w>
출 을</w>
령 이</w>
▁패 스트
▁들 여
▁독특 한</w>
▁금 메
팀 을</w>
조 합</w>
님 과</w>
구 조</w>
견 이</w>
▁하 는지</w>
▁오 피
▁가격 은</w>
례 를</w>
렸 고</w>
나 게</w>
▁할 인</w>
▁이미 지를</w>
▁아티 스트
▁수 료
▁성 격
▁다 르게</w>
▁국무 총
a l</w>
가 며</w>
▁형태 의</w>
▁측 측</w>
▁아 울
▁생각 하고</w>
▁넘 치는</w>
▁가 계
방 송</w>
다 니
▁훌륭 한</w>
▁하나 님의</w>
▁프리미 엄</w>
▁책 책</w>
▁중국 과</w>
▁적 적</w>
▁인 프라
▁이야 기</w>
▁이 같은</w>
▁달 라고</w>
▁그 때
▁1 20</w>
한 을</w>
▁전 북
▁이 틀</w>
▁어린이 집</w>
▁산 불
▁법 인
▁담당 하는</w>
용 으로</w>
디 자
▁역 량을</w>
▁물 이</w>
소 비
▁친 환경
▁영업 이
▁방 식을</w>
▁구 글
차 와</w>
위원 회에</w>
▁평 양</w>
▁진 흥
▁증가 했다</w>
▁얘기 다</w>
▁매 력
▁냈 다</w>
할 게요</w>
놨 다</w>
▁수행 할</w>
▁많 지</w>
드 릴</w>
▁토 지
▁지 구
▁로 봇
▁드리 겠습니다</w>
▁기대 가</w>
▁관 심</w>
▁I C
됐 습니다</w>
▁서울중앙 지
▁부 문</w>
▁만들어 진</w>
던 데</w>
▁협 력을</w>
▁한 마
▁시 에</w>
▁그 에게</w>
화 되고</w>
▁회 사는</w>
▁성폭 력</w>
▁맞 은</w>
▁기 무
▁M BC</w>
양 이</w>
상 품
간 에</w>
▁홍 홍</w>
▁예 수
▁나아 가</w>
▁기록 을</w>
▁교 회</w>
주 도
▁취 임</w>
▁언 론</w>
▁실 태
▁시 대
▁동 해
▁대 처
▁강 경
상 태
▁항 소
▁충 청
▁지원 하고</w>
▁올 라</w>
▁연 극
▁받았 습니다</w>
▁무 시
리 오
▁삭 제
▁몰 랐
▁남 양
a l
적 은</w>
시 기</w>
▁하 던</w>
▁집 단
▁시 기
▁끌 었다</w>
팀 의</w>
목 에</w>
▁영화 는</w>
▁아이 돌</w>
▁아 빠
▁소송 을</w>
▁서 명
▁변 경</w>
▁무 대에</w>
▁많 아서</w>
▁국가 가</w>
▁관 여
3 8</w>
학 적</w>
어 져</w>
시키 기</w>
석 은</w>
밀 한</w>
▁한국 전
▁조례 에서</w>
▁운 송
▁시 정
▁서울 특별
▁비 공
▁가능 할</w>
▁정 당
▁솔 루
▁과정 이</w>
▁개 별
재 는</w>
보 증
▁이 렇
▁사건 에</w>
▁말 해</w>
▁강 아
조 건</w>
이 거나</w>
색 이</w>
미 는</w>
국 으로</w>
▁수준 을</w>
▁방 안이</w>
▁핵 핵</w>
▁치열 한</w>
▁입 력
▁외 무
▁올 랐
▁아니 지만</w>
▁되 도록</w>
▁대 응</w>
▁대 다
이었 지만</w>
영 을</w>
▁회의 에</w>
▁아침 에</w>
▁무 역</w>
▁대학 교
▁나오 지</w>
방 안을</w>
놓 고</w>
▁촉구 했다</w>
▁지 내
▁원내대표 가</w>
▁성 적을</w>
▁발견 된</w>
▁김 용
차 의</w>
다 만</w>
▁폭 행
▁통보 하여야</w>
▁치 료</w>
▁충 남</w>
▁참가 한</w>
▁올 려
다 시</w>
가 구</w>
가 격</w>
▁알 리는</w>
▁병 원에</w>
▁마련 한</w>
▁레 스토
▁되 길</w>
▁단 일
9 0</w>
4 8</w>
지원 센터</w>
사 장</w>
금 에</w>
▁예산 이</w>
▁부 분</w>
▁들어 오
p op</w>
프 를</w>
자 료를</w>
소 송
▁화장 품</w>
▁협 상을</w>
▁오 면</w>
▁시 대</w>
▁발생 해</w>
▁내 지</w>
전 시
▁인정 되는</w>
▁위원 회에</w>
▁소 외
▁문화 체육
▁몸 이</w>
▁말레이 시아
천 만</w>
심 한</w>
가 량</w>
▁테 마
▁안 산
▁쏠 리고</w>
▁보 인</w>
▁당 한</w>
T A</w>
회 계</w>
해 지는</w>
지방 자치
▁한 글
▁지 사가</w>
▁준 수
▁전 담
▁사례 를</w>
▁벤 처
▁반 박
▁막 을</w>
▁공 간</w>
편 이</w>
급 이</w>
▁일 방
▁아 쉽
▁쉬 운</w>
▁선 선</w>
▁사용 을</w>
▁방 법</w>
▁경우 를</w>
▁하여 금</w>
▁잡 아
▁언제 나</w>
▁보내 는</w>
4 9</w>
서 에서</w>
매 가</w>
등 이</w>
검 사</w>
▁사무 를</w>
▁다음 에</w>
▁노 무
▁김 진
▁과 반
▁것 이라</w>
▁한국 문화
▁지적 이다</w>
▁주민 이</w>
▁주 력
▁개 봉
호 텔
체 로</w>
▁않 을까</w>
▁속 도가</w>
▁세계 적으로</w>
▁사업 이다</w>
▁부 실
▁국무 장
주 민</w>
에서 부터</w>
기간 을</w>
▁피 부
▁작 업</w>
▁개최 한다</w>
▁가 질</w>
▁200 6</w>
친 다</w>
체 와</w>
▁특 정
▁지 방</w>
▁어렵 다는</w>
▁교 통</w>
▁3 7</w>
3 6</w>
수 도</w>
▁지 닌</w>
▁중 에는</w>
▁준비 한</w>
▁종 류
▁아이 템
▁매 입
▁늘어나 고</w>
통 상
▁클 럽
▁유 엔</w>
▁요청 한</w>
▁실시 하는</w>
▁신 임</w>
▁벌 이고</w>
이 상</w>
연구 소</w>
생 들이</w>
모 가</w>
▁현재 의</w>
▁의 미</w>
▁심 사</w>
층 을</w>
국 인</w>
▁팀 을</w>
▁컸 다</w>
▁장 식
▁분위 기
▁복 지</w>
T X</w>
웨 어</w>
▁홈페이 지</w>
▁천 안
▁중 장
▁안 녕
▁스 피
▁드 립니다</w>
회 계
적 에</w>
이 도</w>
에 겐</w>
▁진 료
▁작 업이</w>
▁세월 호</w>
▁상 생
▁브랜 드
▁경기도 내</w>
했 다가</w>
하 기에</w>
데 도</w>
기관 과</w>
거 리
▁밖 으로</w>
▁많 습니다</w>
▁대체 로</w>
▁느끼 는</w>
▁김 상
하 지는</w>
짜 리</w>
성 한</w>
로 서의</w>
▁충 북</w>
▁무 대를</w>
피 해
▁피 아
▁클 라우
▁찾 기</w>
▁자 가</w>
▁엄청 난</w>
▁얻 은</w>
▁아무 런</w>
▁규모 로</w>
홀 에서</w>
임 대
으로 의</w>
▁치 러
▁그 럴</w>
들 과의</w>
▁위 축
▁객 관
▁강 화를</w>
5 2</w>
값 이</w>
▁후 에는</w>
▁피 곤
▁조 정</w>
▁윤 윤</w>
▁우즈 베
▁상 업
▁사업 으로</w>
▁미 얀
▁끈 다</w>
▁관 세
포 가</w>
체 계</w>
▁이곳 은</w>
▁이 유</w>
▁운 동</w>
▁모 아</w>
▁대 우
대 행
관 리를</w>
▁철 거
▁조 치가</w>
▁작품 이</w>
▁위탁 할</w>
▁브 렉시
▁뒷받 침
▁나 와
▁그림 을</w>
준 이</w>
사업 은</w>
▁형 사
▁의 지가</w>
▁쓰 러
▁성 추
▁상 담</w>
▁끊 임
▁기독 교
이었 어요</w>
이 든</w>
▁추진 한다</w>
▁자료 에</w>
▁이뤄 지지</w>
▁아 예</w>
▁방 안</w>
▁되 면서</w>
▁계속 해서</w>
▁20 22</w>
재 정부</w>
인 들에게</w>
이 면서</w>
시 장은</w>
달 아</w>
▁준 다</w>
▁몰 려
▁다 수의</w>
▁높 았다</w>
▁6 00</w>
연 한</w>
았 다고</w>
시 즌</w>
▁증 언
▁주최 하고</w>
▁수 준</w>
▁넓 은</w>
▁깊 이</w>
O P</w>
▁징 계
▁우 울
▁승 리
▁노 사
▁가 끔</w>
▁현재 는</w>
▁부위원 장은</w>
▁고 조
늦 게</w>
▁한국 어를</w>
▁텐 데</w>
▁당연 히</w>
하 더라도</w>
체 계를</w>
이라 서</w>
신 의</w>
니 아
▁취 업</w>
▁보내 고</w>
▁방법 은</w>
▁발 전에</w>
▁들 려
▁당 분간</w>
하 나요</w>
단체 의</w>
고 속
▁커 피</w>
▁제외 하고는</w>
▁제시 한</w>
▁정 상</w>
▁이 래</w>
▁요구 할</w>
▁배 송</w>
▁네티 즌
▁기 계
▁관 할</w>
타 임
된 다면</w>
▁퇴 직
▁주 말</w>
▁이곳 에</w>
▁위 기에</w>
▁업 종
▁보여 준다</w>
▁무엇 인지</w>
▁들어 가는</w>
▁고 소
은 데요</w>
되었 으며</w>
▁지금 도</w>
▁인 기
▁상 위</w>
▁사건 은</w>
▁마련 했다</w>
정책 을</w>
▁사용 하고</w>
e s
사 법
▁침 해
▁왔 습니다</w>
▁색 깔
▁납 세
▁기획 재정부</w>
호 로</w>
터 로</w>
안 과</w>
과 도</w>
▁이 내</w>
▁수 리
▁도서 관</w>
3 9</w>
했 는지</w>
쟁 을</w>
세 한</w>
릴 까요</w>
는 지를</w>
▁표 창
▁이곳 에서</w>
▁위촉 직</w>
▁예 정</w>
▁벗 어나</w>
▁문화 예술
▁목표 를</w>
▁마찬가 지로</w>
▁남자 친
▁공 화
5 5</w>
패 를</w>
▁출 판
▁추진 을</w>
▁않 아서</w>
▁범 죄</w>
▁무 관
▁구 제
하 자는</w>
보 에</w>
▁하 더라도</w>
▁창 조
▁이탈 리아</w>
▁아름 답
▁당 직
▁근처 에</w>
보 장
보 세요</w>
담 을</w>
▁함 은</w>
▁전 투
▁작성 한</w>
▁이내 의</w>
▁이 처럼</w>
▁의 장은</w>
▁받 기</w>
▁건 너
타 를</w>
비 에</w>
군 을</w>
▁획 득
▁창 원
▁잠 을</w>
▁이 익을</w>
▁요청 했다</w>
▁아니 라는</w>
▁발 주
▁관련 이</w>
▁공 인
▁곳곳 에</w>
▁가족 과</w>
처 는</w>
발 전</w>
▁측면 에서</w>
▁사립 유치
▁말 할</w>
산 화
비 용</w>
▁최 악
▁배우 고</w>
▁계획 이</w>
▁충 전
▁중 입니다</w>
▁전 파
▁임 임</w>
▁앞 장
재 의</w>
셨 다</w>
▁확인 했다</w>
▁요구 가</w>
▁않았 던</w>
▁심 지어</w>
▁시행 규칙</w>
▁비 영
▁미 칠</w>
▁200 5</w>
해 줄</w>
하였 으며</w>
지역 에</w>
▁회 사에서</w>
▁제기 한</w>
▁인정 할</w>
▁내 게</w>
▁개 정</w>
▁P C</w>
하 다면</w>
평 을</w>
▁컴퓨 터</w>
▁일 환으로</w>
▁살펴 보면</w>
▁기업 들의</w>
M W</w>
F C</w>
퍼 런
영 의</w>
심 의</w>
본 다</w>
단 계</w>
▁자율 주
▁오 리
▁영 등
▁압 도
▁서 해
▁기 관이</w>
▁걸 릴</w>
▁개최 했다</w>
▁E U</w>
키 로</w>
조 선
원 도</w>
시 대</w>
사 회의</w>
각 의</w>
▁카 드를</w>
▁취 소</w>
▁임 금</w>
▁수 원</w>
▁디 스플
▁높 고</w>
▁기상 청은</w>
폭 력</w>
양 을</w>
그룹 이</w>
▁중국 에</w>
▁생각 에</w>
▁로 이
▁달 에</w>
마 트</w>
기 만</w>
▁지 명
▁정부 에</w>
▁자전 거</w>
▁얼굴 을</w>
▁상 환
▁보 면서</w>
웠 던</w>
시 장을</w>
▁향 상을</w>
▁투 자가</w>
▁탑 재
▁조 직</w>
▁제 공</w>
▁전략 을</w>
▁인 간의</w>
▁아 우
▁씨 의</w>
▁무 료
▁대표 의</w>
▁다 문화
▁기자회 견
▁기업 과</w>
까 지도</w>
▁증가 하는</w>
▁법 원이</w>
▁방 북
▁나타 났
▁결 정</w>
▁강 의
▁감 면
실 과</w>
▁조 현
▁비 정규
▁답변 을</w>
▁경찰 의</w>
장 에는</w>
여 개</w>
업 계</w>
남 도</w>
▁안타 까
▁시작 됐다</w>
▁숙 박
▁끝나 고</w>
▁구 직
▁갖추 고</w>
▁5 5</w>
장 도</w>
리 케이
▁혁 신</w>
▁전반 에</w>
▁수 시로</w>
▁발생 하지</w>
▁든 든</w>
▁대 여
▁단 독
사 들은</w>
되 어
▁특 검
▁장 난
▁유 동
▁보고 서를</w>
▁반 대로</w>
▁개 성
양 의</w>
▁확실 히</w>
▁재 판</w>
▁우즈베 키스
▁앉 아</w>
▁신 경</w>
▁시 기에</w>
▁승 리를</w>
▁불편 을</w>
▁금융 감독
▁1 19</w>
i c
▁채 권
▁선 박
▁맞 춰
▁김 재
▁김 씨가</w>
▁것 이고</w>
아 시아
▁주문 한</w>
▁일으 키
▁이 주
▁비 치
▁모 인</w>
▁모 았다</w>
▁매 력을</w>
▁대 피
▁냄 새
▁규 정</w>
▁할 지</w>
▁정상 이</w>
▁스타트 업</w>
▁소 셜
▁서울 시가</w>
▁사실 이다</w>
▁보 안</w>
▁높 이기</w>
▁개 인의</w>
시 티</w>
계 약을</w>
▁협 의를</w>
▁참여 하고</w>
▁진행 했다</w>
▁이어 진</w>
▁아니 고</w>
▁북한 에</w>
▁다 채
▁갖 는</w>
림 을</w>
년 과</w>
▁통 합</w>
▁차 원의</w>
▁일 시
▁시 달
▁사회 의</w>
▁빠져 나
▁부 착
▁버 스를</w>
▁드러 나
크 는</w>
세 의</w>
들 어</w>
▁학 술
▁정 식</w>
▁자 금</w>
▁음 식이</w>
▁다이 어
▁기 회
중 공
대 한
공 장</w>
▁해 마다</w>
▁이 집
▁노 래</w>
헨 티
식 품</w>
▁진 상
▁전 북</w>
▁전 라
▁육 아
▁올림 픽
▁여 야
▁소 중한</w>
▁상 무
▁사 정이</w>
▁디자 이
▁동영 상</w>
장 한</w>
다 운</w>
▁비 대
▁마 시
▁논란 을</w>
▁그 랬
▁가능 하며</w>
면 의</w>
▁특 유의</w>
▁이 중</w>
▁원 장은</w>
▁관리 하는</w>
호 와</w>
자 들</w>
시 장에서</w>
▁회 담</w>
▁있었 어요</w>
▁오 랜
▁시민 들의</w>
▁부 과</w>
▁보 행
▁나라 의</w>
자 나</w>
든 다</w>
▁행 동을</w>
▁일주 일</w>
▁신 입
▁소비 자가</w>
▁병 역
▁대해 선</w>
근 무
▁활 용</w>
▁적 정
▁예 약</w>
▁연락 이</w>
▁한 화
▁준비 가</w>
▁어디 서</w>
▁성 사
▁남 녀
▁난 민
▁김 민
in g</w>
받 지</w>
▁프로그램 은</w>
▁통 상
▁차 가</w>
▁지 하</w>
▁적합 한</w>
▁인 구가</w>
▁시 작</w>
▁손 님
▁사용 이</w>
▁부 품
▁말레이 시아</w>
▁S BS</w>
원 에게</w>
▁특 성을</w>
▁취약 계
▁조 건
▁전 직</w>
▁연 장</w>
▁상태 를</w>
▁비 례
▁들어 갔다</w>
▁김 병
▁기여 할</w>
▁거 리가</w>
C C</w>
호서 식</w>
▁출 시</w>
▁초 래
▁조금 만</w>
▁재 발
▁이 날
▁의 견</w>
▁영화 의</w>
▁시 군</w>
▁세 대
▁삼성전 자가</w>
▁부 득
▁발 령
▁민주 노
▁도 가</w>
▁금융 당
▁과도 한</w>
음 에</w>
산 은</w>
백 을</w>
▁인 하여</w>
▁이상 인</w>
▁소 규모</w>
▁등 록</w>
악 한</w>
▁회 원</w>
▁일 고</w>
▁여 부</w>
▁사이 의</w>
▁매 매</w>
▁마 주
▁꼽 힌다</w>
본 을</w>
경 은</w>
▁해 수
▁파 이
▁추 석</w>
▁의 료</w>
▁수 십
▁별 다른</w>
▁거 리
M Z</w>
▁확 대를</w>
▁사 장이</w>
▁단 독</w>
▁구 속</w>
4 1</w>
유 통
별 로는</w>
▁키 워
▁조금 씩</w>
▁있었 다고</w>
▁시 공
▁말 까지</w>
치 며</w>
▁즐 기
▁유 족
▁실 내
▁서 민
▁보 지</w>
▁문화체육 관광
▁국가 의</w>
4 00</w>
학 이</w>
예 술</w>
신 고
목 은</w>
▁체 감
▁참 가</w>
히 고</w>
운 이</w>
역 으로</w>
교육 청</w>
▁클 럽</w>
▁부정 적인</w>
▁들 은</w>
▁된 다면</w>
▁노 인</w>
▁나 가는</w>
▁관 리가</w>
5 3</w>
씨 에게</w>
시 티
들 이다</w>
▁터 키</w>
▁진 정한</w>
▁지 속</w>
▁인 생
▁믿 고</w>
▁기업 은</w>
▁가능한 가요</w>
농 단</w>
▁폭 로
▁수 렴
▁소 리가</w>
▁서울 대</w>
▁도 쿄
▁그 만
어린 이
안 으로</w>
비 서
교 류
▁체 납
▁조 사에</w>
▁육 성</w>
▁유 통</w>
▁어르 신
▁또 다시</w>
▁동 료
천 시</w>
업 체가</w>
비 아</w>
▁화 성
▁일본 에서</w>
▁이름 은</w>
▁여자 친
▁부 각
▁물 론
▁무 기
▁날 부터</w>
▁계 절
▁3 9</w>
파 크</w>
지 원을</w>
순 환
방 에서</w>
놀 이</w>
▁확 충
▁축 소
▁주 지</w>
▁정상회담 이</w>
▁언급 한</w>
▁아울 러</w>
▁시 너
▁규칙 은</w>
▁거 두
▁판매 하는</w>
▁지자 체</w>
▁주 장을</w>
▁장면 이</w>
▁잡 은</w>
▁인 상을</w>
▁이명 박</w>
▁이 슬
▁이 때</w>
▁양 승
▁대 기업</w>
▁규 제를</w>
▁가능 하도록</w>
트 랙</w>
정상 회담</w>
리 스</w>
대 출</w>
니 다만</w>
▁협 약을</w>
▁아니 한</w>
▁심 한</w>
▁선 물을</w>
▁기준 이</w>
▁갤럭 시</w>
물 질</w>
두 로</w>
▁해 명
▁페이스 북</w>
▁타 당
▁잊 지</w>
▁인 재
▁역사 적</w>
▁여 겨
▁대표 팀</w>
▁기존 에</w>
▁결 혼</w>
이었 고</w>
놓 은</w>
기 부터</w>
▁펼쳐 진다</w>
▁유 사한</w>
▁방 해
▁갈등 을</w>
▁가능 성은</w>
결 이</w>
▁협 상
▁필리 핀</w>
▁작 가
▁일 어난</w>
▁수 술</w>
▁서초 구</w>
평 균</w>
▁황 황</w>
▁종 류의</w>
▁전 기</w>
▁비 싸
▁법 원</w>
▁대부 분
▁끝 까지</w>
▁건강 을</w>
행 위</w>
즈 는</w>
재 산</w>
계 와</w>
▁호응 을</w>
▁명 칭
▁메 모
▁네트워 크</w>
▁공 항</w>
▁거 세
기 적으로</w>
▁친구 를</w>
▁인 프라</w>
▁실 정
▁사 장</w>
▁담 고</w>
개 선
▁일자 리가</w>
▁사실 은</w>
▁보고 하여야</w>
▁보 며</w>
▁베 네
▁몸 에</w>
▁공 포
▁S S</w>
I S
군 과</w>
가 야</w>
▁콘서 트</w>
▁질 환
▁이 수
▁엄 격
▁아르 헨티
▁꼼 꼼
▁교 과
▁거 뒀
어 지고</w>
리 포
▁하나 인</w>
▁하 자</w>
▁장 점이</w>
▁장 을</w>
▁인 스타
▁이 영
▁융 합
▁수탁 자는</w>
▁사 망</w>
▁부 채
▁보조 금</w>
위원 회에서</w>
연 히</w>
법 상</w>
▁있 거나</w>
▁여 기는</w>
▁시 대에</w>
▁기대 감이</w>
0 1</w>
긴 다</w>
개 선</w>
▁지역 이</w>
▁절 실
▁아니 한다</w>
▁돕 는</w>
▁높 이</w>
▁구 조</w>
o u
▁친구 와</w>
▁앨 범</w>
▁비 트
▁병 원으로</w>
▁백악 관</w>
▁급격 히</w>
센터 에</w>
다 도</w>
기술 을</w>
▁월드 컵
▁안 심
▁시설 의</w>
▁데 는</w>
억 원에</w>
십 니다</w>
스 틱</w>
박 람
렸 을</w>
▁크 로
▁이해 할</w>
▁수 집</w>
▁불 러</w>
▁독 서
▁기 아
▁가 구
▁4 2</w>
4 2</w>
한국 시간</w>
원 들의</w>
역 의</w>
끄 러
▁처 분
▁불 을</w>
5 1</w>
대 비</w>
것 도</w>
▁책임 이</w>
▁정 지
▁장 기</w>
▁유튜 브</w>
▁생 길</w>
▁명 을</w>
▁돈 돈</w>
▁눈 눈</w>
위 기</w>
▁패 키
▁패 션</w>
▁전문가 들이</w>
▁이 제
▁발 사
▁몰 아
▁낮 추
▁감안 하면</w>
4 6</w>
조 직
▁이스 라
▁의 장이</w>
▁올바 른</w>
▁얘 기를</w>
▁벗 어나
▁드 는</w>
▁초 반
▁점 에</w>
▁절 차</w>
▁장 에게</w>
▁일본 이</w>
▁사용 하지</w>
▁논 의를</w>
▁깜 짝</w>
▁고 시
▁감 사를</w>
산 으로</w>
▁파 괴
▁적 용</w>
▁수행 하는</w>
▁딸 딸</w>
▁나 한테</w>
▁나 이
▁갖 게</w>
비 용
병 을</w>
년 보다</w>
▁한 데</w>
▁하 니</w>
▁탄 력
▁주 가가</w>
▁소 리를</w>
▁맛 을</w>
▁고 향
▁가 치</w>
하 라는</w>
▁추 모
▁창 출</w>
▁아니 라고</w>
▁성 과가</w>
▁새 벽
▁발 굴</w>
▁데 뷔</w>
▁그 나마</w>
희 가</w>
별 지</w>
되 는데</w>
▁한 진
▁학 습</w>
▁철 도
▁수수 료</w>
▁고려 하면</w>
형 으로</w>
하 나
을 지</w>
다 면서</w>
내 가</w>
▁제 정
▁워 낙</w>
▁서울 에서</w>
▁방문 하는</w>
▁방 사
▁규 칙</w>
▁곳곳 에서</w>
통 합
킨 다</w>
카 데
정보 통신
실 의</w>
▁합 의를</w>
▁커 질</w>
▁차 세대</w>
▁재 밌
▁안전 을</w>
▁벌 인</w>
▁권 리를</w>
▁관 찰
▁경 비
하 나</w>
장애 인</w>
에서 다</w>
사 람
백 화
▁한 해</w>
▁태 극
▁최 신</w>
▁조 사가</w>
▁메 일을</w>
▁뒤 늦게</w>
▁급 등
▁근 육
▁관계 자들이</w>
▁과 정</w>
▁경기도 에</w>
▁가 구</w>
해 진다</w>
우 리</w>
니 아</w>
관리 에</w>
▁재 정</w>
▁맡 아</w>
▁근로 자</w>
▁경 계
았 을</w>
▁화 물
▁한 강
▁텔 레
▁인 건
▁아이 돌
▁아 들</w>
▁상담 을</w>
▁비 록</w>
▁모습 으로</w>
▁관심 과</w>
청 소
위원 장이</w>
거 리가</w>
▁특성 상</w>
▁좋 겠습니다</w>
▁전기 차</w>
▁무역 협
▁듣 는</w>
▁4 3</w>
든 요</w>
▁한 때</w>
▁포함 한다</w>
▁의혹 에</w>
▁원 자
▁예 외
▁당 해</w>
▁4 8</w>
A I</w>
하였 을</w>
자 문
의 약
▁폭 이</w>
▁차지 하고</w>
▁지원 하기</w>
▁전국 에서</w>
▁음식 은</w>
▁원 인이</w>
▁수 능</w>
▁마케 팅
▁국민 들이</w>
▁겨 냥
폭 이</w>
테 크</w>
았 어</w>
만 간</w>
거 든요</w>
▁접 속
▁실 업
▁브리 핑
▁부위원 장</w>
▁뒤 집
프 는</w>
▁한 인</w>
▁전 수
▁인 력
▁유일 하게</w>
▁씨 씨</w>
▁선 제
▁몇 몇</w>
▁드러 냈다</w>
▁대 답
▁김 수
▁검토 하고</w>
▁19 6
준 비
만 큼
로 만</w>
▁혐 의가</w>
▁매 장</w>
▁넘 겨
▁2 50</w>
r e
기관 을</w>
관 에게</w>
▁호텔 에서</w>
▁조 성을</w>
▁자 녀</w>
▁인 식이</w>
▁요구 했다</w>
▁시험 을</w>
▁부 인</w>
▁그 리스
▁참가 해</w>
▁중 심</w>
▁제 조</w>
▁전 반</w>
▁위 기를</w>
▁데 려
▁급 속
▁가운 데
하 기는</w>
터 와</w>
반 을</w>
계 약</w>
▁폭 행</w>
▁팀 의</w>
▁정보 통신
▁없 애
▁안전 하게</w>
▁수익 을</w>
▁다 섯</w>
접 한</w>
렬 한</w>
는 가</w>
내 기</w>
▁철저 한</w>
▁위해 선</w>
▁예 전
▁알 려</w>
▁신 중
▁상품 이</w>
▁며 칠</w>
4 4</w>
정 신
시 에는</w>
▁지적 도</w>
▁종 료</w>
▁시 책을</w>
▁시 중
▁미디 어</w>
▁무 한
▁기간 에</w>
테 리
세 는</w>
복 합
▁철저 히</w>
▁어 깨
▁선호 하는</w>
▁누 리
▁노 조</w>
▁기 자가</w>
연합 회</w>
▁최근 에</w>
▁연 휴
▁보여 주고</w>
▁변호 사</w>
▁노동 자</w>
▁길 길</w>
▁갑 작
4 7</w>
전 까지</w>
임 금</w>
금 융</w>
▁화 제를</w>
▁철 도</w>
▁줄어 든</w>
▁이후 에</w>
▁법무 부</w>
▁말 에</w>
▁늘어나 는</w>
▁넣 어</w>
▁끌어 올
주 에서</w>
북 도</w>
부 문</w>
문 화를</w>
래 도</w>
▁축 산
▁이 틀
▁신청 서를</w>
▁성 별
▁사우 디
▁보 도가</w>
▁방 영
▁공 중
▁가격 에</w>
▁7 5</w>
훈 련</w>
파 로</w>
집 이</w>
셔 도</w>
사 고가</w>
▁이뤄 졌다</w>
▁열 어
▁야 구
▁발견 됐다</w>
▁무 산
▁기다 리
분 께</w>
란 드</w>
고 한</w>
▁통 신</w>
▁자신 들의</w>
▁시 진
▁석 유
▁들 이
록 을</w>
동 과</w>
니 가</w>
▁출연 해</w>
▁조 별
▁예정 인</w>
▁영 어로</w>
▁나 눠</w>
▁경찰 과</w>
8 00</w>
201 7</w>
청 과</w>
제 한</w>
임 에도</w>
시 에서</w>
▁화 가</w>
▁총 리는</w>
▁자카르 타</w>
▁유 행
▁도 중</w>
6 00</w>
브 리
대문 구</w>
▁화 재가</w>
▁친구 들이</w>
▁중국 을</w>
▁중국 은</w>
▁위원 장을</w>
▁불 이
▁나 눠
▁걸 리
통상 자원
침 을</w>
계획 에</w>
▁필요 로</w>
▁포 럼
▁위 주로</w>
▁물 리
▁물 류
▁느낌 이</w>
▁관광객 이</w>
▁갔 다</w>
▁간단 한</w>
a n</w>
에게 서</w>
부 서</w>
박 한</w>
▁협 조를</w>
▁허 가를</w>
▁정의 당</w>
▁인 구
▁응 시
▁우승 을</w>
▁오래 된</w>
▁시작 해</w>
▁수 험
▁사람 들</w>
▁번 도</w>
▁배경 으로</w>
▁도 와</w>
▁나 쁜</w>
▁끝나 면</w>
▁기 금의</w>
▁근 무</w>
▁극 단
▁그 걸</w>
▁관 세</w>
▁고 맙
인 당</w>
약 에</w>
신청 을</w>
석 에</w>
▁측 의</w>
▁정확 하게</w>
▁여론 이</w>
▁소개 했다</w>
▁모 범
▁내 외
▁권 권</w>
▁교 사</w>
▁개 통
▁가 지
정 부의</w>
운 동을</w>
요 일
연 도</w>
범 죄</w>
민 은</w>
▁재 생
▁자동 으로</w>
▁이 른</w>
▁유 지</w>
▁알 리
▁신속 하게</w>
▁별 도</w>
▁면 역
▁개발 을</w>
▁수준 이</w>
▁세 입
▁세 운</w>
▁사람 과</w>
▁비 싼</w>
▁병 원
▁밀 집
▁들어 갈</w>
▁다 운
▁김 해
▁거 로</w>
▁개발 에</w>
재 단이</w>
인 들을</w>
소 시
션 은</w>
▁제조 업</w>
▁유 사
▁없 는데</w>
▁실 효
▁보 러</w>
▁경 비를</w>
▁결 의
▁감 소</w>
업 의</w>
▁하나 는</w>
▁크 지</w>
▁카메 라</w>
▁질 문을</w>
▁중 학교</w>
▁이벤 트</w>
▁이 례
▁유 의
▁요 금
▁싫 어
▁손 에</w>
▁배 정
▁바 르
▁묻 는</w>
▁노 하우
▁접 어
▁입 금
▁일 하고</w>
▁않았 다는</w>
▁사용 해</w>
▁무 상
▁대통령 에게</w>
▁경기도 지
시간 에</w>
▁천 연
▁일반 적으로</w>
▁의 사</w>
▁무 대</w>
▁말 은</w>
▁구속영 장을</w>
▁구매 할</w>
축 산
센 티
랜 드
▁수출 이</w>
▁북미 정상회담
▁내 릴</w>
▁경 향이</w>
a c
보 다도</w>
등 급</w>
▁흐름 을</w>
▁점 수를</w>
▁우려 를</w>
▁부 활
▁모 임
▁대표 와</w>
중 이</w>
과학 기술
▁화 학
▁판매 가</w>
▁지역 으로</w>
▁이 기
▁암호화 폐
▁신뢰 를</w>
▁식 사를</w>
▁센 터</w>
▁성공 을</w>
▁부 담</w>
했 다면</w>
면 적</w>
게 는</w>
▁지 났
▁자세 한</w>
▁자 연</w>
▁외교 부</w>
▁심 리
▁보 일</w>
▁광 화
5 8</w>
5 6</w>
축 제</w>
시 장에</w>
마 가</w>
▁회의 는</w>
▁조 만간</w>
▁아파 트
▁대 회
▁것 들이</w>
4 3</w>
부 서
▁한 다면</w>
▁통지 하여야</w>
▁테이 블
▁탄 탄
▁전 쟁</w>
▁수 요</w>
▁몽 골
▁김 포
▁권한 을</w>
추 가</w>
째 로</w>
루 킹</w>
기 에서</w>
▁첨 단
▁제 한</w>
▁의 원들이</w>
▁연 수
▁서 류</w>
▁달 아
음 으로</w>
단 에서</w>
내 며</w>
▁즐 겁게</w>
▁적용 한다</w>
▁재판 을</w>
▁있었 다는</w>
▁없 나요</w>
▁안 으로</w>
▁성 적이</w>
▁서울특별 시
▁가 을</w>
▁가 게</w>
5 7</w>
플 레이
집 에</w>
안 전</w>
부 담
▁추정 되는</w>
▁준비 하고</w>
▁있 기를</w>
▁인 증</w>
▁위 로</w>
▁업무 에</w>
▁시진 핑</w>
▁사 장은</w>
▁그 래</w>
▁감 시
심 사</w>
부 총
로 로</w>
드 린다</w>
▁진출 을</w>
▁주장 하는</w>
▁요구 를</w>
▁산업 통상자원
▁변 화</w>
▁규정 이</w>
▁결 코</w>
▁거 라고</w>
▁강서 구</w>
대 사
▁임 용
▁신청 한</w>
▁기 사
▁그 다
▁교육 이</w>
▁B MW</w>
F A</w>
미 세먼
만 명이</w>
라운 드</w>
고 의</w>
▁행사 로</w>
▁오랜 만에</w>
▁영 상이</w>
▁아이 들을</w>
▁박 정
▁국 세
▁관 할
▁- -</w>
5 9</w>
였 다고</w>
▁지속 가능
▁지급 한다</w>
▁원 이</w>
▁역할 이</w>
▁멈 추
▁대 기</w>
▁겨 울</w>
▁갖 춰
▁가 깝
C D</w>
청 에서</w>
살 을</w>
▁어 쩔</w>
▁신 앙
▁산 정
▁배 가</w>
▁미 만</w>
▁대 목
▁교 체</w>
▁C J</w>
코 리아
쳐 야</w>
제 다</w>
재 산
간 담
▁해결 할</w>
▁취 급
▁준비 하는</w>
▁주 시면</w>
▁좋 겠어</w>
▁영 유
▁연 동
▁약속 을</w>
▁아무 것도</w>
▁부 딪
▁뮤지 컬</w>
▁느낌 을</w>
씨 에</w>
법 으로</w>
▁털 어
▁지역 경제</w>
▁완벽 한</w>
▁민 선</w>
▁다니 는</w>
▁내용 에</w>
쇼 핑
경 에</w>
▁혼 자
▁합 의</w>
▁파악 하고</w>
▁줄 을</w>
▁정 황이</w>
▁이 바
▁없 게</w>
▁안녕 하세요</w>
▁빈 빈</w>
▁베이 징
▁문화 의</w>
▁가 량</w>
찰 을</w>
▁지금 의</w>
▁좋아 합니다</w>
▁장 려
▁우 리를</w>
▁아르 바이
▁실 적을</w>
▁분석 된다</w>
▁모습 이다</w>
▁드 릴게요</w>
▁농 어
▁결정 했다</w>
형 은</w>
선 언</w>
리 스트</w>
글 로
간 으로</w>
▁판단 이</w>
▁어디 로</w>
▁설명 을</w>
▁C EO</w>
크 의</w>
어 지는</w>
▁환경 이</w>
▁조 달
▁엇 갈
▁섭 취
▁산업 의</w>
▁극 대
▁골 목
▁고 급
▁가 상
I T</w>
차 례
유 공
방 의</w>
르 지</w>
▁활동 하고</w>
▁방송 을</w>
▁둘러 싸
곳 을</w>
▁활발 한</w>
▁학생 들을</w>
▁스 카
▁블 로
▁부 드러
▁대상 은</w>
▁당연 직</w>
▁기 쁨
▁것 인
▁가 스
5 000</w>
으로 만</w>
공 연
▁현실 을</w>
▁중소기업 의</w>
▁연 일</w>
▁업무 협
▁성장 할</w>
▁비용 은</w>
▁도 출
▁당 국이</w>
▁경 쟁</w>
▁후 반
▁해 운
▁평 화</w>
▁제 게</w>
▁절 대
▁전체 의</w>
▁이 거</w>
▁아 이</w>
시 쯤</w>
는 다는</w>
거 리를</w>
▁합 의가</w>
▁중 기
▁제 도가</w>
▁운영 한다</w>
▁여성 들이</w>
▁어 른
▁어 디</w>
▁싶 지</w>
▁실 력을</w>
▁식 사</w>
▁스 테이
▁마 약</w>
▁꿈 꾸
▁기 념</w>
▁구 글</w>
자 리에</w>
왔 던</w>
영 향
림 이</w>
노 조</w>
나 의</w>
관 광</w>
▁힘 입
▁화 제가</w>
▁필요 성이</w>
▁주문 을</w>
▁작 곡
▁이벤 트를</w>
▁불 어
▁마무 리</w>
▁로 맨
▁나 이가</w>
▁강 연
0 5</w>
한 국</w>
용 품</w>
계 에서</w>
▁해결 하기</w>
▁프 린
▁트 레이
▁진 정
▁좋 고</w>
▁이해 가</w>
▁실 망
▁시행 에</w>
▁모습 은</w>
▁면 제
▁말 이다</w>
▁끊임 없이</w>
▁가 공
치 와</w>
줘 야</w>
으 니까</w>
더 라</w>
▁회 사를</w>
▁프로젝 트를</w>
▁찬 성
▁읽 고</w>
▁인용 해</w>
▁움직 임이</w>
▁않았 다고</w>
▁시 대를</w>
▁사용 자</w>
▁떠 난</w>
▁금 호
▁궁금 증을</w>
▁걸 린</w>
콘텐 츠
철 도</w>
도서 관</w>
▁홈페이 지에</w>
▁주 실</w>
▁유 효
▁연구 를</w>
▁연 관
▁설치 할</w>
▁배 울</w>
▁못 했던</w>
려 야</w>
기 능
과 정에서</w>
▁해결 을</w>
▁충 격을</w>
▁주민 등록
▁주 고
▁소속 사</w>
▁비서 실
▁배터 리</w>
▁리 그</w>
▁대 선</w>
▁고 백
▁개선 이</w>
통 이</w>
웠 습니다</w>
아 파
가 에서</w>
▁좋아 해요</w>
▁정 하여</w>
▁아 들이</w>
▁소 감을</w>
▁본 부
▁높 였다</w>
▁결과 는</w>
▁가 야
아 동
달 라</w>
▁창 작
▁예정 된</w>
▁언급 했다</w>
▁스 캔
▁부 가
▁발 간
▁높 일</w>
▁높 다는</w>
B O</w>
진흥 원</w>
면 에서</w>
▁판결 을</w>
▁출 장</w>
▁지역 사회</w>
▁조사 에서</w>
▁자리 매
▁오 프라
▁불가능 한</w>
▁발 효
▁맡 았다</w>
▁대학 생</w>
▁근거 로</w>
▁가 속
▁4 4</w>
▁충 북
▁첨 단</w>
▁주말 에</w>
▁두 드러
▁동 네
▁구청 장</w>
▁감 정을</w>
5 4</w>
풍 을</w>
신 한</w>
▁이 송
▁우리나라 의</w>
▁야 외
▁신 체
▁시 나
▁발생 하고</w>
▁뮤 직
▁뜻 이다</w>
▁다채 로운</w>
▁남 긴</w>
▁고 려</w>
▁결 론을</w>
▁거 친</w>
▁4 1</w>
출 산</w>
▁할 아버
▁폐기 물</w>
▁조 건을</w>
▁의 도
▁사람 으로</w>
▁대 립
▁교육 부</w>
▁각 자</w>
행 위를</w>
자 에게는</w>
▁코 너
▁지 체</w>
▁일 대</w>
▁왔 어요</w>
▁않았 어요</w>
▁스 스
▁생 각</w>
▁대 상을</w>
▁기 사를</w>
▁금 강
▁글 이</w>
▁그러 하지</w>
▁고객 의</w>
야 말로</w>
았 다는</w>
아 는</w>
산 과</w>
되 지만</w>
대 출
▁편 하게</w>
▁유 용
▁완 화</w>
▁솔 직
▁서 식에</w>
▁너무 나</w>
▁내 년부터</w>
▁관 세를</w>
우 리
▁추정 된다</w>
▁열 리고</w>
▁방 금</w>
▁무 대
▁당 국은</w>
▁나 서는</w>
▁구 미
▁거 대한</w>
편 의</w>
조 치</w>
▁필요 해요</w>
▁있을 까</w>
▁위 에서</w>
▁요청 을</w>
▁신속 한</w>
▁식 으로</w>
▁상당 의</w>
▁기대 감을</w>
▁건 데</w>
퍼 센
레 스</w>
날 인</w>
교 통</w>
▁환 자의</w>
▁하 려고</w>
▁주차 장</w>
▁아니 요</w>
▁보 인
▁번 에</w>
▁미 흡
▁머 무
▁구 민의</w>
▁경제 의</w>
▁결정 이</w>
▁거래 가</w>
효 과가</w>
연 의</w>
만 으로도</w>
등 의</w>
두 에</w>
국 장은</w>
▁피해 자가</w>
▁책 은</w>
▁제 재를</w>
▁전 체가</w>
▁적 어도</w>
▁의 식
▁오 를</w>
▁신청 할</w>
▁사진 은</w>
▁만 료
▁단순 한</w>
▁다르 다</w>
▁국 회가</w>
▁공동 주택
▁경 위를</w>
인 력</w>
다 보니</w>
▁키 우
▁케이 팝</w>
▁차 기</w>
▁좌 우
▁자세 히</w>
▁자 립
▁수 학</w>
▁성공 적인</w>
▁성 매
▁선택 한</w>
▁미국 을</w>
▁단 순</w>
▁다행 히</w>
▁금액 이</w>
정 수
▁헌법 재판
▁포함 돼</w>
▁중 구
▁절 차가</w>
▁일 제</w>
▁워싱 턴
▁오 디
▁예 능</w>
▁아니 야</w>
▁수 백
▁든 다</w>
▁대비 해</w>
▁남 경
▁급 여
리 우
▁최악 의</w>
▁주 식</w>
▁이용 하여</w>
▁않았 고</w>
▁블 라
▁반영 된</w>
▁바람 직
▁돼 지
▁기금 운용
요 한</w>
왔 습니다</w>
미 사
기간 은</w>
▁접 목
▁작 가</w>
▁인천 광역시
▁유지 하고</w>
▁예정 이라고</w>
▁아프 리카</w>
▁아마 도</w>
▁불 과</w>
▁반대 하는</w>
▁감 상
T S</w>
법 원</w>
만 원으로</w>
▁희망 을</w>
▁훈련 을</w>
▁확보 한</w>
▁평가 다</w>
▁팬 팬</w>
▁카 페</w>
▁존 존</w>
▁적 립
▁입 원
▁일반 적인</w>
▁분 쟁
▁되 돌
▁대 외
▁공 약
▁검찰 의</w>
직 으로</w>
즈 의</w>
죄 를</w>
렸 어요</w>
량 으로</w>
▁혜택 이</w>
▁합의 한</w>
▁통 행
▁이 목이</w>
▁성공 한</w>
▁새 해</w>
▁뒤 로</w>
▁넌 넌</w>
▁나 면</w>
▁공 사를</w>
활동 에</w>
조 치를</w>
운영 할</w>
수 엘
권 에서</w>
건 과</w>
▁포 스코
▁인근 에</w>
▁이 곳</w>
▁영 광
▁아이디 어를</w>
▁불편 한</w>
▁부정 적</w>
▁레스토 랑
▁대한민 국의</w>
▁농 림
▁노력 하겠다</w>
▁국민 청
▁국 회
체 험</w>
▁토 트
▁조 속
▁잃 어버
▁위 탁</w>
▁오 직</w>
▁무역 분
▁고 스
I A</w>
쪽 에서</w>
자 료</w>
은행 의</w>
였 어요</w>
▁활성 화에</w>
▁세계 의</w>
▁비중 을</w>
▁바 라는</w>
▁담 겨
▁경기도 지사</w>
였 다는</w>
역 은</w>
그 레이
개월 간</w>
▁제외 하고</w>
▁이 자
▁의 사가</w>
▁시민 이</w>
▁부 부가</w>
▁방 식이</w>
▁몽 골</w>
▁모델 을</w>
▁도지 사가</w>
▁다 하겠다</w>
0 8</w>
치 료
주시 기</w>
위원 장은</w>
사 건</w>
▁확 신
▁학교 를</w>
▁테 스트
▁정책 의</w>
▁인 문
▁연 휴</w>
▁세 탁
▁선 포
▁배우 는</w>
▁매니 저
▁맞 고</w>
▁높 이
▁나타 나는</w>
▁나 란히</w>
▁개 척
▁가 볍
됐 을</w>
교 를</w>
▁중요 하다고</w>
▁정 작</w>
▁일본 은</w>
▁아 끼
▁수 거
▁서울 에</w>
▁보여 준</w>
▁변 화에</w>
▁무 리
▁다 짐
▁고 위</w>
▁e e</w>
환경 을</w>
줘 서</w>
잖 아요</w>
번 호를</w>
나 라
▁한국 에서는</w>
▁친 절
▁이 르면</w>
▁요 소
▁선보 인</w>
▁반려 동
P OP</w>
케 어</w>
장 비</w>
▁진 출</w>
▁직 전</w>
▁연 기를</w>
▁양승 태</w>
▁설립 한</w>
▁선보 인다</w>
▁부 상을</w>
▁기여 한</w>
▁금 리
▁관광 객</w>
행 사</w>
크 로</w>
대 책</w>
▁풍 부
▁주 된</w>
▁조 명
▁절 감
▁식 사
▁소 관</w>
▁사 령
▁보조 금을</w>
▁규 제가</w>
어 질</w>
대 상은</w>
▁학생 들에게</w>
▁필요 성을</w>
▁초 반</w>
▁주 소를</w>
▁예 약을</w>
▁없 다면</w>
▁분 이</w>
▁드라마 를</w>
▁됐 다고</w>
▁나서 고</w>
▁5 000</w>
7 5</w>
포 인
입 을</w>
으 세요</w>
계 로</w>
▁점 검</w>
▁세 금을</w>
▁내 비
▁난 민</w>
▁그 저</w>
▁200 4</w>
▁200 2</w>
기준 을</w>
▁힘입 어</w>
▁한국 으로</w>
▁처 분을</w>
▁이용 자가</w>
▁올 리는</w>
▁김 기
▁고 성
▁각 각의</w>
하 시고</w>
프 트</w>
인 도</w>
까 지만</w>
▁전문 가가</w>
▁오 고</w>
▁보고 서는</w>
▁밤 에</w>
▁돌아 오
▁눈 물을</w>
▁기소 된</w>
i s
서비 스
대 회를</w>
▁후보 는</w>
▁현지 에서</w>
▁하 셨
▁터 뜨
▁않 다고</w>
▁안타 깝
▁바 닷
▁도입 을</w>
▁남 동
▁그 와</w>
▁권 리
▁구조 조
시설 에</w>
교육 청은</w>
▁주장 이다</w>
▁부 품</w>
▁귀 국
6 4</w>
제 한
위 생
운 드</w>
름 을</w>
▁프로그램 에</w>
▁착 공
▁주민 자치
▁웃 음을</w>
▁선택 을</w>
▁병 원에서</w>
▁들어 갔
▁도 심</w>
▁대학 생
▁났 다</w>
▁균 형
m m</w>
6 2</w>
랜 차이
▁제 안을</w>
▁이해 하고</w>
▁수 학
▁소비 자들이</w>
▁부 대
▁말씀 을</w>
▁남경 필</w>
▁곤 란
해 지면서</w>
코 리아</w>
만 원이</w>
▁현 직</w>
▁초 점을</w>
▁우 주
▁소 송</w>
▁선택 할</w>
▁마 음</w>
▁되 는데</w>
▁농 협
▁나라 가</w>
▁기 쁘
▁기 능</w>
▁결정 할</w>
지 않
자 면</w>
석 과</w>
박 스</w>
냅 니다</w>
기본 법</w>
각 이</w>
▁호 기
▁원 인으로</w>
▁오른 쪽</w>
▁세 부</w>
▁상관 없이</w>
▁사회 에</w>
▁사 퇴
▁밝 은</w>
▁먼 먼</w>
▁기 증
▁공 론
▁경우 에도</w>
엔 터테인먼
상 품</w>
례 가</w>
▁힘 들</w>
▁해 야
▁전 략</w>
▁잡 았다</w>
▁이름 으로</w>
▁예상 했다</w>
▁애 초</w>
▁앞 세
▁신 혼
▁비행 기</w>
▁불 공
▁부 지
▁발표 를</w>
▁공 략
▁경쟁 을</w>
▁견 인
▁거 절
▁L A</w>
i l
잡 고</w>
벤처 기업
문 과</w>
건 축</w>
▁하 시
▁이후 에도</w>
▁아버 지가</w>
▁승 객
▁선보 였다</w>
▁불 만을</w>
▁더 는</w>
▁구성 한다</w>
▁고스 란히</w>
▁가족 을</w>
▁가 중
▁가 벼
협 회가</w>
개 에</w>
▁희망 하는</w>
▁중 독
▁제외 한다</w>
▁일본 에</w>
▁인사 청
▁나누 고</w>
▁골 키
합 니까</w>
기 한</w>
▁해 주세요</w>
▁하루 에</w>
▁하 도록</w>
▁진 술을</w>
▁점 심
▁저녁 에</w>
▁이 걸</w>
▁연 루
▁얻 었다</w>
▁아시아 나
▁사망 한</w>
▁브렉시 트</w>
▁붕 괴
▁때 보다</w>
▁너 와</w>
▁걸 려</w>
화 장
있 습니다</w>
이 스</w>
우 의</w>
▁회의 에서</w>
▁협 동
▁출신 의</w>
▁종전 선언
▁위원 장과</w>
▁스케 줄
▁보내 주세요</w>
▁버 닝
▁되 기를</w>
▁농 산
▁국내 에</w>
▁구 상
▁경기 에</w>
▁강화 하고</w>
o l
했 다며</w>
졌 으며</w>
는 다고</w>
▁클라우 드</w>
▁왼 쪽</w>
▁여 객
▁엄마 가</w>
▁승 인</w>
▁설치 한</w>
▁방문 할</w>
▁많 다는</w>
▁노 트
▁기 숙
한 미
시 험</w>
보 며</w>
법 과</w>
달 라는</w>
▁확인 을</w>
▁함 유
▁하 락</w>
▁제 약
▁의 회</w>
▁약 간</w>
▁세계 적</w>
▁부모 가</w>
▁무 서
▁디지 털
▁것 이며</w>
▁것 이
▁갑 니다</w>
시스템 을</w>
보 로</w>
냐 고</w>
▁했 을</w>
▁징 계</w>
▁지자 체
▁자 칫</w>
▁인 테리
▁인 센티
▁인 보
▁연 임
▁연 속
▁선생 님
▁사회 가</w>
▁발 을</w>
▁민주 당이</w>
▁내 리는</w>
N G</w>
데 이</w>
니 메이
네 이
국 가</w>
공무 원
▁한 인
▁지급 하는</w>
▁위해 서
▁소 환
▁미사 일</w>
▁너 희</w>
▁간 에</w>
하 에</w>
로 와</w>
량 에</w>
▁피 고
▁투 어</w>
▁지나 치게</w>
▁제시 했다</w>
▁유 연
▁업체 들이</w>
▁어려 워</w>
▁수 술을</w>
▁소요 되는</w>
▁빠 져</w>
▁비교 해</w>
▁부 천
▁네이 버
▁공 장
▁고 급</w>
i on</w>
6 3</w>
업 무를</w>
능 력
▁차 이
▁직 장</w>
▁제품 으로</w>
▁오 지</w>
▁오 르는</w>
▁여 부가</w>
▁어 떨
▁신고 가</w>
▁시청 자들의</w>
▁상 하
▁사람 들
▁본 인</w>
▁물 건
▁도 봉
▁기후 변
D P</w>
조 는</w>
작 을</w>
영 은</w>
▁중 부
▁주 셔서</w>
▁종 합</w>
▁전국 적으로</w>
▁임 명</w>
▁수 능
▁성 희
▁보 냈다</w>
▁모양 새
▁때문 으로</w>
▁각 호의</w>
▁《 《</w>
0 7</w>
색 으로</w>
▁평 범
▁탄 탄</w>
▁직 면
▁전 형
▁작 가가</w>
▁일각 에서는</w>
▁일 관
▁유지 할</w>
▁요 리를</w>
▁올림 픽</w>
▁앞 선</w>
▁아마 존
▁스 탠
▁부득 이한</w>
▁베네 수엘
▁동 북
▁납 품
▁기억 이</w>
▁공연 은</w>
▁공개 됐다</w>
▁4 6</w>
텔 레
치 면서</w>
찬 을</w>
가 락
▁카 자
▁제작 한</w>
▁임 진
▁올해 도</w>
▁못 하게</w>
▁대출 을</w>
▁느끼 고</w>
▁나누 는</w>
▁각 별
▁D MZ</w>
문 제</w>
끼 리</w>
기 자
▁허 위
▁편 집
▁편 지를</w>
▁충 실
▁춤 을</w>
▁최우 수
▁주 최</w>
▁의 약
▁유 아
▁올해 로</w>
▁엄 마</w>
▁소 비</w>
▁생 생
▁병 행
▁바 꿀</w>
▁목 사는</w>
▁멀 리</w>
▁내 야</w>
▁국토교통 부</w>
올림 픽
수 도
부 동
량 과</w>
놀 이
▁확 보</w>
▁팬 들은</w>
▁중 소</w>
▁주 가</w>
▁정 당한</w>
▁장 소를</w>
▁오 사
▁여 성을</w>
▁식 당</w>
▁내 년도</w>
지 니
자 로서</w>
이 게</w>
번 호</w>
농업 기술
년 째</w>
▁휩 싸
▁찾 지</w>
▁참여 한다</w>
▁전 후
▁전 환</w>
▁의미 다</w>
▁불거 진</w>
▁바람 에</w>
▁머 리</w>
▁동 의를</w>
▁규모 는</w>
▁결정 한다</w>
e l
차 량</w>
안 에서</w>
생 산
내 에서</w>
▁토 요일</w>
▁줍 니다</w>
▁이 익
▁어 쩌
▁민주 평화
▁미세먼 지가</w>
▁둘 째</w>
▁기획 재정
▁기 온
▁규정 한</w>
▁거 기에</w>
크 와</w>
명 에게</w>
▁홈 런
▁자리매 김
▁일 할</w>
▁이 동</w>
▁의 정부
▁앱 앱</w>
▁설치 하고</w>
▁사회 공
▁부 처
▁문제 의</w>
▁김경 수</w>
▁경 력
▁개최 한</w>
태 가</w>
은행 은</w>
십 니까</w>
스포 츠
▁협 의</w>
▁태 풍
▁집계 됐다</w>
▁인 명
▁어 두
▁소 설
▁서울 과</w>
▁서 구</w>
▁산업혁 명</w>
▁들 었습니다</w>
▁도 달
▁끊 이지</w>
▁고 등학교
▁가족 의</w>
▁가 기</w>
6 1</w>
청 을</w>
점검 을</w>
▁협 업
▁해석 된다</w>
▁제주 도</w>
▁제기 된다</w>
▁입 찰
▁소상공 인</w>
▁살 인
▁딸 이</w>
▁대 대
만 여</w>
길 에</w>
▁현 저
▁피의 자</w>
▁편 이다</w>
▁장면 을</w>
▁입 니다</w>
▁잃 은</w>
▁연 기</w>
▁애플 리케이
▁쌀 쌀</w>
▁성 적
▁봐 야</w>
▁벌 였다</w>
▁물 에</w>
▁목 표</w>
▁노 동</w>
▁걸 그룹</w>
▁갤 러
측 은</w>
졌 을</w>
정 비
분 으로</w>
▁지방자치 단체
▁장 비를</w>
▁유 권
▁북한 은</w>
▁보 편
▁미 군</w>
▁거 죠</w>
▁가족 들이</w>
▁199 0</w>
본 부는</w>
▁출 국
▁인 쇄
▁없 었습니다</w>
▁아버 지</w>
▁마련 해</w>
▁담 아</w>
▁논 의</w>
▁교 섭
시 각</w>
보 기</w>
방 안</w>
▁포함 됐다</w>
▁판결 이</w>
▁지원 해</w>
▁성 공</w>
▁밥 을</w>
▁미 술</w>
▁문화 재
▁라 인
▁기반 을</w>
▁국 경
▁공정 한</w>
▁것 이었다</w>
공동 체</w>
▁재 난</w>
▁일어 났
▁일 부가</w>
▁수준 에</w>
▁소 극
▁밝혔 습니다</w>
▁문화 에</w>
▁멘 토
▁드 릴</w>
▁개최 되는</w>
로 직
로 서는</w>
곳 에</w>
가 격이</w>
▁참여 가</w>
▁지 향
▁줄 일</w>
▁사 물
▁사 랑</w>
▁복잡 한</w>
▁보호 를</w>
▁문화 적</w>
▁매 매
▁농 도가</w>
▁남 자가</w>
확 인
폐기 물</w>
속 에</w>
로 써</w>
▁컬 러
▁정 무
▁시설 이</w>
▁시 가</w>
▁사태 가</w>
▁빼 앗
▁배 당
▁데이 터
▁강원 도
파 이
지 한</w>
졌 어요</w>
으 러</w>
민 들이</w>
링 을</w>
기 보다</w>
▁학부 모</w>
▁프 랜차이
▁제안 한</w>
▁아이 들의</w>
▁서 로의</w>
▁비트 코
▁본 인의</w>
▁류 현
▁남 녀</w>
▁김 대
신 용
감 에</w>
▁지 분</w>
▁저 축
▁응 응</w>
▁올해 부터</w>
▁성 인</w>
▁선 물</w>
▁변호 사는</w>
7 00</w>
차 별
옵 니다</w>
심 과</w>
반 이</w>
리 트</w>
누 리
가 정</w>
▁포 토
▁퇴 근
▁집 단</w>
▁외 교</w>
▁예정 이며</w>
▁않는 다고</w>
▁생 기는</w>
▁방식 이다</w>
▁마음 으로</w>
▁구체 적</w>
▁공간 으로</w>
▁것 들을</w>
▁가 정</w>
▁가 려
인 인</w>
여 행
어 주
▁행 위가</w>
▁학생 의</w>
▁축 제가</w>
▁지방 선거
▁정 할</w>
▁이해 를</w>
▁양 천
▁안 내</w>
▁실정 이다</w>
▁스웨 덴
▁상 위
▁북한 과</w>
▁법 정
▁박 원
▁내 년에</w>
▁규칙 으로</w>
▁공무 원의</w>
▁결 론
▁거 리</w>
자 산
사 항이</w>
건 설</w>
▁지난 주</w>
▁인터뷰 를</w>
▁얻 어</w>
▁아무 도</w>
▁시작 할</w>
▁수 를</w>
▁리 리</w>
▁도착 한</w>
▁가져 다
팀 에</w>
타 운</w>
벌 이</w>
미 의</w>
▁확실 한</w>
▁주시 기</w>
▁움직 임
▁순 으로</w>
▁송파 구</w>
▁손 상
▁성공 했다</w>
▁선수 들의</w>
▁법 을</w>
▁미 만
▁매 체
▁강조 한</w>
수 당</w>
사업 으로</w>
▁최소 화
▁지 상
▁제안 했다</w>
▁분위 기</w>
▁봐 도</w>
▁받 으며</w>
▁날 아
▁그 림</w>
▁갈 아
화 되는</w>
하 의</w>
삼 성
버 그
▁정 해
▁않는 다면</w>
▁스 타</w>
▁동 기</w>
▁넣 고</w>
▁공 원</w>
플 라
▁차량 에</w>
▁주 제
▁요구 한</w>
▁시 드
▁성 적</w>
▁산업 이</w>
▁사회 를</w>
▁도 민</w>
▁대 회에서</w>
▁가이 드라
네 트워
▁불 평
▁미 니
▁공 영
▁고 수
할 까요</w>
취 를</w>
지 대</w>
병 이</w>
▁측 에</w>
▁집중 되고</w>
▁진 심으로</w>
▁조 리
▁있 겠
▁이미 지</w>
▁쓰레 기</w>
▁브라 질
▁남 해
▁남 부
▁남 겨
▁나 눔
▁국가 대표</w>
▁고 교</w>
▁건 물이</w>
h e</w>
프로 그램</w>
프 의</w>
운영 에</w>
억 달러</w>
규 칙
경찰 서는</w>
▁확인 된</w>
▁치 매
▁처음 에는</w>
▁찬 찬</w>
▁직 원을</w>
▁없 던</w>
▁아무 래도</w>
▁선보 이는</w>
▁도지 사</w>
▁강 좌
▁3 000</w>
E U</w>
여 행</w>
기관 은</w>
구 의회</w>
▁화 합
▁하 천
▁정 해진</w>
▁완 전한</w>
▁올 려</w>
▁손해배 상</w>
▁상 당</w>
▁비판 을</w>
▁로 드
▁더 욱
▁대 만
▁가 축
k g</w>
질 환</w>
들 인</w>
공 간</w>
가 치</w>
▁해 가</w>
▁클 클</w>
▁진 보
▁적용 해</w>
▁있 어도</w>
▁유 포
▁업 그레이
▁수 업이</w>
▁소 중
▁서 로를</w>
▁바라 보는</w>
▁막 막</w>
▁국가 안보
▁교 류</w>
▁공 유</w>
▁개 혁</w>
▁강 요
▁20 21</w>
U V</w>
흐 스
웨 이</w>
여 부를</w>
민 과</w>
렸 다고</w>
▁흔 히</w>
▁중 고
▁유럽 연합</w>
▁오 토
▁벌어 진</w>
▁8 00</w>
과 정</w>
결 정
▁지정 한</w>
▁자 동</w>
▁우 승</w>
▁수 차례</w>
▁소득 이</w>
▁세 상에</w>
▁비 리</w>
▁방 어
▁목 회
▁많 은데</w>
▁나타 난</w>
롭 고</w>
▁평 생</w>
▁펼 치고</w>
▁청 문
▁중 앙</w>
▁종 목
▁장 관의</w>
▁업 계의</w>
▁아 픈</w>
▁마 사
▁구조 를</w>
▁건강 에</w>
0 4</w>
현 대
캠 퍼
최 근</w>
으로 서의</w>
움 과</w>
무 가</w>
가 면서</w>
▁해 상
▁판문 점</w>
▁파 는</w>
▁추구 하는</w>
▁줄어 들</w>
▁정 준
▁일 대
▁압수수 색
▁알 리고</w>
▁서울 시는</w>
▁사무 총
▁사건 과</w>
▁보 세요</w>
▁물 품을</w>
▁말 로</w>
▁국가 주
▁감소 한</w>
▁가득 한</w>
▁C N
▁1 80</w>
했 으면</w>
청 년
았 으며</w>
기 인</w>
▁확정 된</w>
▁천 안</w>
▁이뤄 지는</w>
▁위 촉</w>
▁사 상
▁블 루
▁먹 어
▁매 달</w>
▁나 은</w>
c m</w>
원 인</w>
시 피</w>
되 던</w>
▁헤 어
▁파 손
▁이뤄 지고</w>
▁알 지</w>
▁블 룸
▁모 른다</w>
▁마 포구</w>
▁대북 제
▁끝 나는</w>
▁공 격</w>
▁감 동
아 를</w>
문 에서</w>
료 와</w>
▁중심 이</w>
▁인 권</w>
▁이어 가고</w>
▁열 려</w>
▁시 키
▁사 각
▁문재 인
▁마 시고</w>
▁날 을</w>
▁고양 시</w>
보 자</w>
방 법</w>
문 으로</w>
▁품 질</w>
▁텔레 비
▁진 학
▁조 치</w>
▁인 력을</w>
▁연 기가</w>
▁성 동
▁긍정 적</w>
▁경 과
펀 드</w>
처 분</w>
어 붙
습 을</w>
선 수</w>
기관 으로</w>
▁확대 하고</w>
▁판단 을</w>
▁전 액</w>
▁이용 이</w>
▁예 능
▁복 원
▁무역전 쟁
▁국 회에</w>
▁건 축</w>
▁4 7</w>
a s
지 수</w>
정 치
연 금</w>
신 은</w>
▁태양 광</w>
▁커 졌다</w>
▁체계 적인</w>
▁질 의
▁줄 이고</w>
▁장 착
▁완 공
친 화
요 금</w>
▁하나 도</w>
▁폭 염</w>
▁장 례
▁일 치
▁시 대의</w>
▁돕 기</w>
▁댄 스</w>
▁대 체</w>
▁거 듭</w>
G A</w>
8 4</w>
7 2</w>
클 럽
치 면</w>
▁흡 수
▁후 에도</w>
▁해석 이</w>
▁커뮤니 티</w>
▁조 기
▁은 퇴
▁안전 하고</w>
▁쓰 지</w>
▁승 무
▁수 질
▁밥 밥</w>
▁바 쁘
▁디자 인을</w>
▁당 황
▁단 위로</w>
▁기록 하며</w>
▁거 기
태 평
지 기도</w>
예 정
역 과</w>
아 시아</w>
리 티
감 독</w>
▁쾌 적한</w>
▁캐릭 터</w>
▁직 후
▁전 부
▁장 관과</w>
▁영 업</w>
▁박 성
▁많 을</w>
▁뛰 어나
▁고 통을</w>
▁계 엄
▁5 1</w>
타 운
리 스트
가 면</w>
▁태 도를</w>
▁인 원이</w>
▁요 양
▁연결 하는</w>
▁얼굴 이</w>
▁소방 당국은</w>
▁디자이 너
▁남 한
▁굳 이</w>
▁건 지</w>
▁감 지
▁가 난
트 럼
아 트
사 도</w>
다 란</w>
▁훈 련</w>
▁접수 된</w>
▁이루 고</w>
▁의혹 과</w>
▁유튜 브
▁옆 옆</w>
▁여 부에</w>
▁쇼핑 몰
▁비 타
억 달러
소 통
교 가</w>
▁하 세요</w>
▁주목 받고</w>
▁얼 굴</w>
▁생각 보다</w>
▁무엇 이</w>
▁몸 몸</w>
▁나타 나</w>
▁급 락
▁구 멍
▁구 는</w>
▁건 전한</w>
▁거래 를</w>
천 여</w>
지 도록</w>
있 어</w>
아 무
밀 히</w>
리 라</w>
▁탁 월
▁최저임 금
▁짐 을</w>
▁오 픈</w>
▁만나 고</w>
▁대표 적</w>
▁국민연 금</w>
▁과학기술 정보통신
▁경제 에</w>
▁개 인이</w>
0 2</w>
프 레
조 한</w>
본 부가</w>
기업 을</w>
▁주 재
▁장기 간</w>
▁자유한국 당이</w>
▁위 생
▁신청 이</w>
▁사 기</w>
▁마 약
▁내 년
▁기본 적인</w>
▁귀 여
▁공동 체</w>
▁개최 된</w>
테크 노
됐 으나</w>
동 에서</w>
▁호 선
▁테 러
▁연 락</w>
▁안정 적으로</w>
▁실 내</w>
▁시간 과</w>
▁사 후
▁법 령</w>
▁명 령
▁때 에</w>
▁등 에게</w>
▁그 중</w>
▁공 사가</w>
▁200 3</w>
6 7</w>
채 를</w>
증 은</w>
사무 소</w>
두 를</w>
▁현 금</w>
▁한 미
▁추 산
▁천 천
▁중 에서도</w>
▁설치 하는</w>
▁삶 이</w>
▁바 뀐</w>
▁뮤직 비
▁드라 이
▁김성 태</w>
제 품을</w>
일자 리</w>
열 이</w>
권 으로</w>
▁중요 성을</w>
▁이 름</w>
▁유 출</w>
▁언 젠
▁어렵 게</w>
▁수수 료를</w>
▁샌 드
▁대 화가</w>
▁나 쁘
▁규모 를</w>
6 6</w>
이 네요</w>
었 기</w>
업 은</w>
▁채 워
▁찾아 가</w>
▁지 표
▁정 류
▁전반 적인</w>
▁자 국</w>
▁일 회
▁이하 로</w>
▁이용 자</w>
▁이외 에</w>
▁언 어
▁안 양
▁신 호
▁스크 린
▁산 책
▁부 합
▁범 위를</w>
▁물 품</w>
▁달 리
▁나 빠
▁거 둔</w>
청 정
움 에</w>
예 방</w>
스 테
발 전을</w>
공 사는</w>
▁타이 틀
▁제기 된</w>
▁작 가의</w>
▁자녀 가</w>
▁의 무를</w>
▁언론 에</w>
▁수 십</w>
▁무 조건</w>
▁무 언
▁못 했습니다</w>
▁매 진
▁롯 데</w>
▁드라마 가</w>
▁늦 은</w>
▁게 이
▁강 제</w>
7 7</w>
혜 를</w>
전 자
이 사</w>
상 황을</w>
▁확보 를</w>
▁판매 를</w>
▁카카오 톡</w>
▁천천 히</w>
▁지 나</w>
▁중 구는</w>
▁있 니</w>
▁온 실
▁앞 당
▁수 치
▁세계 를</w>
▁삼성전 자는</w>
▁불 만이</w>
▁미디 어
▁남북 이</w>
▁국무위원 장의</w>
▁광 고를</w>
▁간 부
품 의</w>
전 자</w>
일 보</w>
세 대
디 자인</w>
동 은</w>
▁항 의
▁집중 적으로</w>
▁줄 었다</w>
▁일 도</w>
▁이 로</w>
▁윤 리
▁유 리한</w>
▁오피 스
▁부산 의</w>
▁방송 된</w>
▁뭘 뭘</w>
▁단 체가</w>
▁다 들</w>
▁노동 당</w>
▁가격 으로</w>
▁했 으나</w>
▁추 천</w>
▁초 콜
▁여 지가</w>
▁없 으며</w>
▁애 니메이
▁안 성
▁아 픔
▁소개 하는</w>
▁빌 려
▁내 놨다</w>
▁근거 가</w>
우 를</w>
▁하노 이</w>
▁페 널
▁크 다는</w>
▁캘 리포
▁취 하고</w>
▁지 구</w>
▁정도 다</w>
▁시 원
▁소득 주도
▁분 과
▁배 상
▁대책 이</w>
▁노력 하고</w>
▁과 제를</w>
▁고 개를</w>
▁감 축
r o
편 을</w>
설 명
▁크리스마 스</w>
▁출 마
▁접 수</w>
▁점검 을</w>
▁자 를</w>
▁오후 에</w>
▁아이 의</w>
▁아 닐
▁변호 사가</w>
▁등록 된</w>
▁개최 된다</w>
클 럽</w>
디 어</w>
▁효과 적으로</w>
▁활용 하는</w>
▁해 설
▁학교 의</w>
▁카자 흐스
▁직접 적인</w>
▁중 간</w>
▁열 악한</w>
▁아니 에요</w>
▁시작 하는</w>
▁빅데이 터</w>
▁떠 나</w>
▁때문 이라고</w>
▁골 을</w>
정 지</w>
올림 픽</w>
▁패 턴
▁치 킨
▁울 산</w>
▁야 생
▁시행 하는</w>
▁빛 을</w>
▁버 튼
▁대학 에</w>
▁논란 에</w>
▁내용 이다</w>
▁까 다
▁근무 하는</w>
▁경제 를</w>
▁결정 한</w>
▁7 00</w>
학 습</w>
졌 기</w>
장 치</w>
스포 츠</w>
센터 와</w>
산업 이</w>
교육 감</w>
가 인</w>
▁호 주
▁펼 쳤다</w>
▁코 리아
▁청 주
▁전 체를</w>
▁전 인</w>
▁워크 숍
▁식 품</w>
▁시 군
▁보도 에</w>
▁반 납
▁뚜렷 한</w>
8 5</w>
철 도
자 연
예 를</w>
미 한</w>
막 을</w>
들 에게도</w>
금 지
▁지방 선거</w>
▁즉 각</w>
▁조 각
▁전 당
▁실 제
▁상 처를</w>
▁문 학
▁대학 교</w>
▁다 큐
▁그 리</w>
▁광진 구</w>
▁후 속</w>
▁프로젝 트
▁프로 모
▁폭염 이</w>
▁투입 해</w>
▁증가 할</w>
▁자 꾸</w>
▁인 상이</w>
▁의 원을</w>
▁웹 사이
▁영향 력을</w>
▁연 내</w>
▁세계 에</w>
▁서 버
▁분 식
▁부 사
▁문화 와</w>
▁모 은
▁맞 물
▁맞 대
▁담 아
▁남편 이</w>
▁공급 이</w>
▁공 존
▁고객 에게</w>
준 의</w>
일 으
로 이
들 었다</w>
▁해외 에서</w>
▁찾 았다</w>
▁재미 있는</w>
▁자 격을</w>
▁위 치를</w>
▁여 유
▁심 심</w>
▁실시 간으로</w>
▁시 대가</w>
▁소 년
▁선 배
▁보 험</w>
▁명 백
▁매 수
▁마 스크
▁누 적</w>
▁끝 났
▁그 들을</w>
▁교 회
▁과태 료</w>
▁공유 하고</w>
렸 지만</w>
등 급
▁현 황을</w>
▁주최 하는</w>
▁존 경
▁재 직
▁임 시</w>
▁연 다</w>
▁엔 터테인먼
▁앞 으로는</w>
▁부 러
▁미 루
▁꼽 히는</w>
▁긍정 적으로</w>
▁검 은
▁강화 하는</w>
▁감 당
편 으로</w>
라 고요</w>
급 여
고 와</w>
검 사
가 운</w>
▁찾아 가는</w>
▁주 무
▁입 국
▁위치 해</w>
▁연구 개발</w>
▁식 재
▁스트레 스를</w>
▁수 산
▁분석 을</w>
▁보고 서</w>
▁대표 를</w>
▁끝 날</w>
▁고객 들이</w>
플 릭
원 장은</w>
기 엔</w>
▁회 계</w>
▁청소년 들이</w>
▁이 들에게</w>
▁요구 하고</w>
▁어린이 들이</w>
▁시 내</w>
▁손 쉽
▁생 겼다</w>
▁방문 을</w>
▁대 회는</w>
▁글로 벌
▁개발 이</w>
▁같 아서</w>
현 의</w>
치 기</w>
지역 에서</w>
였 는데</w>
나 이
게 이
강 을</w>
▁증 폭
▁잉 글
▁동영 상을</w>
r a
0 9</w>
멘 터
드 리고</w>
▁형 사</w>
▁한국 교
▁지 지를</w>
▁종합 적으로</w>
▁이슈 가</w>
▁이메 일</w>
▁이 종
▁완벽 하게</w>
▁송 금
▁서 양
▁서 식
▁비 건</w>
▁보여 줄</w>
▁목 사</w>
▁땐 땐</w>
▁도와 주
▁국토 부</w>
▁국정 감
▁구성 되어</w>
▁고려 할</w>
움 에서</w>
▁회 장
▁회 수
▁컨 테이
▁커 다란</w>
▁입장 에서는</w>
▁일 종의</w>
▁순 천
▁수 당</w>
▁서 면으로</w>
▁무 인
▁대중 교통
▁가능 하다는</w>
켰 다</w>
케 스트
능 력</w>
▁환경 에</w>
▁플 래
▁포인 트</w>
▁차 이를</w>
▁임 종
▁속 한</w>
▁생태 계</w>
▁대학 이</w>
▁대 륙
▁기술 과</w>
▁금 방</w>
▁거뒀 다</w>
▁간 접
▁가 리
▁19 80</w>
피 를</w>
품 은</w>
이었 는데</w>
수 원</w>
등 한</w>
▁효율 적</w>
▁할 게요</w>
▁추세 다</w>
▁진행 해</w>
▁주 식을</w>
▁인 증을</w>
▁이 목을</w>
▁아 까</w>
▁세 우
▁많 았고</w>
▁5 4</w>
9 5</w>
0 6</w>
지방 경찰
중소 기업
의 결
위원 의</w>
비 용을</w>
명 에서</w>
루 가</w>
▁활동 하는</w>
▁현 상
▁편 의를</w>
▁타 는</w>
▁출 제
▁출 범</w>
▁챙 겨
▁잠 시
▁자료 가</w>
▁이 뤘
▁범 행을</w>
▁대 장
▁금 천
▁그녀 를</w>
▁걸 고</w>
L ED</w>
인천 광역시</w>
위 탁
심 사를</w>
▁줄 이기</w>
▁이 사</w>
▁아 랍
▁사 찰
▁불러 일으
▁북 측</w>
▁면 에서</w>
▁말 하고</w>
허 가를</w>
업 과</w>
심의 위원회</w>
신 고</w>
생 은</w>
막 이</w>
느 냐는</w>
▁확인 하는</w>
▁파 주
▁지 분을</w>
▁주 한미
▁전 국의</w>
▁상품 은</w>
▁사이 트</w>
▁부 르는</w>
▁각 자의</w>
활 성
층 에서</w>
위원 이</w>
여 명</w>
개 혁</w>
▁확인 이</w>
▁학교 가</w>
▁토 지</w>
▁탈 락
▁지 사의</w>
▁중 증
▁제 출</w>
▁성 장이</w>
▁삼성바이오 로직
▁비롯 하여</w>
▁방 위
▁바 꿔</w>
▁뭔 가</w>
▁명 절</w>
▁메이 크
▁그곳 에</w>
▁구 로
▁가능 하고</w>
▁현 황</w>
▁헬 스
▁치 솟
▁첨부 하여</w>
▁제도 다</w>
▁접 할</w>
▁의 장</w>
▁요 리</w>
▁예 상</w>
▁업체 에</w>
▁암 암</w>
▁쌍 용
▁수상 했다</w>
▁선 을</w>
▁부 족</w>
▁반영 한</w>
▁마 땅
▁똑 같은</w>
▁걸 리는</w>
9 9</w>
작 업을</w>
음 과</w>
둥 이</w>
되었 던</w>
곳 의</w>
▁해 결</w>
▁한 가
▁편리 하게</w>
▁줄 이는</w>
▁주 신</w>
▁원 합니다</w>
▁여 는</w>
▁싶 어
▁쉽 고</w>
▁선보 일</w>
▁비핵 화를</w>
▁모은 다</w>
▁막 대한</w>
▁김동 연</w>
▁관악 구</w>
▁공동 주택</w>
쾌 한</w>
음 의</w>
속 을</w>
법 의</w>
대 책을</w>
개 사</w>
▁행 위</w>
▁장 소</w>
▁자랑 하는</w>
▁자 매
▁문제 와</w>
▁대 회를</w>
▁단 위</w>
T BC</w>
장 애</w>
안 에는</w>
미 국</w>
과 정을</w>
▁홀 로</w>
▁행 위
▁취 지로</w>
▁추진 하기</w>
▁청와 대는</w>
▁진 화
▁손쉽 게</w>
▁살아 가는</w>
▁부 의
▁법 조
▁대법원 장이</w>
▁달 콤
▁다양 하게</w>
▁나타나 고</w>
▁기 사가</w>
▁기 뻐
▁가능 해</w>
위 험
보 호</w>
방 은</w>
▁효과 적인</w>
▁키 우는</w>
▁축구 대표
▁청 원
▁전 력</w>
▁적발 됐다</w>
▁잇 는</w>
▁이끌 어</w>
▁이 성
▁실 용
▁벤 투</w>
▁박 지
▁미 뤄
▁맺 은</w>
▁동 행
▁검 거
8 8</w>
췄 다</w>
진 한</w>
▁협력 해</w>
▁통 상</w>
▁지 낸</w>
▁임직 원</w>
▁임 기</w>
▁싶 다는</w>
▁성 격이</w>
▁선정 한</w>
▁비영 리
▁메이 저
▁먹 으면</w>
▁리 스크
▁답 답
▁고 충
e d</w>
점 검</w>
이 기에</w>
실 장은</w>
대 회가</w>
공 유
▁판 단</w>
▁청 취
▁전 원
▁전 산
▁작품 은</w>
▁네 덜
▁나 이</w>
▁관광객 들이</w>
▁개선 에</w>
▁감 사의</w>
중 국</w>
에 다</w>
생 산</w>
나 를</w>
나 가
▁홈페이 지를</w>
▁편의 점</w>
▁청 약
▁처 벌</w>
▁정기 적으로</w>
▁자신 에게</w>
▁앞 서
▁시작 되는</w>
▁사용 되는</w>
▁배 포
▁물 질
▁무 용
▁모르 겠어요</w>
처 에</w>
일 로부터</w>
운 데</w>
스 카
▁휴 게
▁했 어</w>
▁합리 적인</w>
▁타 격을</w>
▁처 리를</w>
▁지속 될</w>
▁지 정을</w>
▁조 짐
▁자신 들이</w>
▁자 회
▁인 식을</w>
▁예상 보다</w>
▁영 장
▁어렵 습니다</w>
▁신 문
▁설 계</w>
▁불 투
▁물 건이</w>
▁나 무</w>
▁경쟁 력이</w>
▁1 30</w>
편 에</w>
자동 차
이었 어</w>
원 들은</w>
생 태
다 시피</w>
공 연</w>
▁패 러
▁지역 주민
▁지 장이</w>
▁제기 되고</w>
▁있었 어</w>
▁이탈 리아
▁어 느
▁시 점
▁단 기
▁기 획</w>
▁같 네요</w>
▁가 방을</w>
▁8 5</w>
회의 에</w>
합 의
포 럼</w>
▁한 꺼
▁최고 경영
▁주변 의</w>
▁전반 적으로</w>
▁원 인</w>
▁왔 는데</w>
▁신 생
▁속 도
▁드러 난</w>
▁농 기
▁금 요일</w>
▁200 1</w>
했 었다</w>
진 으로</w>
루 를</w>
독 립
는 지는</w>
관리 법</w>
▁허 가</w>
▁조 율
▁재활 용
▁이바 지
▁유 형
▁왜 곡
▁영 입
▁부총 리</w>
▁보 이며</w>
▁무엇 인가요</w>
▁들어 온</w>
▁도착 할</w>
▁도 심
▁기업 인</w>
B A</w>
) ·</w>
히 지</w>
전 기
보 수</w>
▁휴 가
▁황 교
▁취 할</w>
▁추진 한</w>
▁책 임</w>
▁직원 들의</w>
▁유지 하는</w>
▁여 수
▁어 릴</w>
▁성 황
▁섬 유
▁부회 장이</w>
▁봅 니다</w>
▁방침 을</w>
▁독립 운동
▁대목 이다</w>
▁뉴 스</w>
▁노 후</w>
▁내 리고</w>
▁나라 를</w>
▁금감 원은</w>
▁금 지</w>
▁교육 의</w>
▁고 민이</w>
▁개 그
▁가 입</w>
영 화</w>
구청 장이</w>
▁휴 식을</w>
▁환 자
▁패 널
▁커피 를</w>
▁전 년
▁이후 에는</w>
▁이외 의</w>
▁올 리고</w>
▁언제 든지</w>
▁억 제
▁신선 한</w>
▁시 원한</w>
▁상 장</w>
▁사진 과</w>
▁사람 들과</w>
▁블라 디
▁로 봇</w>
▁높아 질</w>
▁김 씨</w>
▁관계 자가</w>
▁공유 하는</w>
▁경 유
청 사</w>
기업 에</w>
갑 니다</w>
▁정 도는</w>
▁저 질
▁입 건
▁연 설
▁약 을</w>
▁순 위</w>
▁부드러 운</w>
▁밝혀 졌다</w>
▁동 맹
▁동 네</w>
▁결정 에</w>
6 8</w>
축구 연맹</w>
책 이</w>
째 를</w>
제 에서</w>
정책 에</w>
▁한꺼 번에</w>
▁제공 된다</w>
▁정신 을</w>
▁이어 져</w>
▁시 범</w>
▁수 령
▁분 담
▁막 아
▁남아 있
▁가 산
7 1</w>
리 다</w>
는 게</w>
기 보다는</w>
▁페이스북 에</w>
▁태 어난</w>
▁집 이</w>
▁위험 한</w>
▁요 인이</w>
▁오프라 인</w>
▁실 적
▁소 장
▁마이 크로
▁듯 하다</w>
▁들 여</w>
▁뉴 스
▁교육 은</w>
▁공무 원은</w>
▁경기도 에서</w>
▁결과 로</w>
▁4 9</w>
학생 이</w>
하 겠
평 가를</w>
수 행
세 와</w>
검 토
▁철 회
▁임 차
▁임 원</w>
▁이 중
▁예 쁘
▁연 말</w>
▁시 기를</w>
▁네이 버</w>
▁깔 끔
▁거 리를</w>
협 정</w>
팅 이</w>
의 료</w>
음 식
예 산</w>
수 입
리 트
력 발전
됐 기</w>
담 당</w>
▁파 주</w>
▁청년 들이</w>
▁지자 체가</w>
▁중 이던</w>
▁주어 진다</w>
▁주 거</w>
▁제공 해</w>
▁자 격이</w>
▁입 장이</w>
▁이 밖에</w>
▁우려 도</w>
▁어렵 고</w>
▁손 님이</w>
▁성폭 행</w>
▁사람 도</w>
▁들여 다
▁다 해</w>
▁규정 하고</w>
▁감 동을</w>
9 2</w>
훈 이</w>
행 사를</w>
하 가</w>
렸 는데</w>
기관 인</w>
▁현 금
▁파 일을</w>
▁체계 적으로</w>
▁진행 되며</w>
▁진 로
▁전통 시장</w>
▁전 에는</w>
▁재 해
▁잠 깐</w>
▁예 비</w>
▁알 겠습니다</w>
▁상 응
▁범 행</w>
▁바라 요</w>
▁모델 로</w>
▁도 의</w>
▁느 낀</w>
▁관리 하여야</w>
▁고 교
▁K B</w>
으 려고</w>
움 으로</w>
민 을</w>
나 고</w>
경 원</w>
▁차지 한</w>
▁전 송
▁아 닐</w>
▁실시 했다</w>
▁사랑 의</w>
▁바 다</w>
▁미 친</w>
▁만 든다</w>
▁냉 장
▁남 자는</w>
▁기자회견 에서</w>
▁권 장
카 드를</w>
절 이</w>
사회 복지
마 켓
▁플라 스틱</w>
▁티켓 을</w>
▁처리 할</w>
▁주장 하고</w>
▁졸 업</w>
▁제기 했다</w>
▁제 임
▁저지 른</w>
▁음식 물
▁유 망
▁운 동이</w>
▁생각 하지</w>
▁분석 해</w>
▁보 전
▁뭐 가</w>
▁기본 적으로</w>
▁기다 리는</w>
7 4</w>
탄 소</w>
의 의</w>
여 자
렸 다는</w>
개 사가</w>
▁처벌 을</w>
▁증 시</w>
▁정신 건강
▁정규 직</w>
▁전 면
▁입 장에서</w>
▁위험 을</w>
▁센터 의</w>
▁서 둘
▁받 으면</w>
▁들어 서</w>
▁대학 의</w>
▁국방 부는</w>
▁구 의</w>
▁개 를</w>
▁K BO</w>
마 크</w>
디자 인
그룹 의</w>
▁케이 팝
▁출연 한</w>
▁추진 해</w>
▁집 은</w>
▁적 어</w>
▁일상 생활
▁인사 들이</w>
▁용산 구</w>
▁빨 라
▁보 유</w>
▁미래 에</w>
▁목 적을</w>
▁때 문</w>
▁도시 의</w>
▁더 해</w>
▁늘 리는</w>
▁길 에</w>
▁근로 시간</w>
▁공 장을</w>
전문 가</w>
을 수록</w>
셨 나요</w>
부 터
부 산
개 소</w>
▁환경 부</w>
▁프로그램 으로</w>
▁책 이</w>
▁좋 다고</w>
▁정보 공
▁웨 이
▁연계 해</w>
▁식 약
▁사건 으로</w>
▁사 안
▁북한 을</w>
▁발 매
▁받았 다고</w>
▁바 쁜</w>
▁미 용
▁마련 하고</w>
▁동 료</w>
▁기자 간담
▁그러 한</w>
해주 고</w>
융 합
상 담</w>
만 명을</w>
되 기를</w>
기관 에서</w>
▁확대 될</w>
▁학생 과</w>
▁크 기</w>
▁취약 한</w>
▁출 퇴
▁음 성
▁연 계</w>
▁아이 폰</w>
▁세 금</w>
▁비정규 직</w>
▁불 필
▁부 상으로</w>
▁마련 할</w>
▁로 스
▁런 던
▁도 민의</w>
▁김 부
▁그 날</w>
▁고려 한</w>
▁결정 된</w>
e c
0 3</w>
학생 들이</w>
이 죠</w>
실 적</w>
수 다</w>
렘 방</w>
대 회에서</w>
▁창 립
▁중 대한</w>
▁입 주</w>
▁위 로
▁운영 되고</w>
▁연 결</w>
▁시설 물</w>
▁바이 오</w>
▁바꾸 는</w>
▁댓 글</w>
▁노 조가</w>
▁국민 들의</w>
7 3</w>
주 도</w>
일 지</w>
오 를</w>
들 고</w>
고 등학교</w>
▁친구 는</w>
▁청 렴
▁짐 작
▁주시 겠어요</w>
▁절 차에</w>
▁의 원과</w>
▁양 질의</w>
▁상황 은</w>
▁사유 를</w>
▁문제 점을</w>
▁못 하면</w>
▁뛰어 넘
▁드 디어</w>
▁꼽 았다</w>
▁겪 은</w>
▁게 스트
▁가 짜
▁가 요</w>
콘 서
지역 을</w>
스 틱
본부 장</w>
마 의</w>
로 드
내 용
결 과가</w>
▁토 로
▁탄 핵
▁출 생
▁지 사</w>
▁제공 한</w>
▁워싱 턴</w>
▁업체 의</w>
▁양 호
▁생 물
▁봄 봄</w>
▁복 구
▁미 치지</w>
▁되 찾
▁구매 한</w>
▁괴 롭
▁공부 하는</w>
▁거 리에</w>
투 를</w>
크 에</w>
은 이</w>
살 이</w>
미 터</w>
더 라고요</w>
경 의</w>
검 찰
▁폭 으로</w>
▁출 산</w>
▁입 소
▁여 자가</w>
▁생산 하는</w>
▁모 은</w>
▁말 도</w>
▁누 릴</w>
▁노 선</w>
▁5 3</w>
i v
조 로</w>
인 들과</w>
연 은</w>
야 구</w>
실 장</w>
수 급
마 트
대 통
▁포 스
▁포 르
▁중 재
▁제공 하기</w>
▁저소득 층</w>
▁입 장</w>
▁일어나 는</w>
▁위 기</w>
▁오늘 도</w>
▁영 국의</w>
▁여러 분이</w>
▁앱 을</w>
▁실 력이</w>
▁스 프
▁목 사가</w>
▁만 드
▁독 자
▁답 을</w>
▁노력 할</w>
▁넷 플릭
▁근 데</w>
▁걱 정이</w>
▁감사 하겠습니다</w>
6 9</w>
측 의</w>
앞 으로</w>
르 기</w>
기간 에</w>
계 에서는</w>
▁푸 틴</w>
▁포함 되어</w>
▁즐 겨</w>
▁주 기</w>
▁종 일</w>
▁장 소에</w>
▁우 린</w>
▁열 람
▁시 흥
▁소프트 웨어</w>
▁성 향
▁사용 료</w>
▁부 당한</w>
▁박원 순</w>
▁많 아요</w>
▁될 지</w>
▁노 숙
▁내 려</w>
▁과 학</w>
▁공 격을</w>
▁경기도 농업기술
T F</w>
현 은</w>
페 이</w>
이 탈
와 서</w>
아 라
▁축 제를</w>
▁지 루
▁명확 히</w>
▁메 일</w>
▁기 성
▁교육 에</w>
▁고위 급</w>
학 년
출 한</w>
주시 겠어요</w>
였 으며</w>
에 야</w>
숙 한</w>
수 익
셨 어요</w>
등 에</w>
▁후 속
▁해 체
▁해 주는</w>
▁타 임
▁참석 할</w>
▁참석 하는</w>
▁자신 감을</w>
▁이사 장은</w>
▁어 때</w>
▁손흥 민이</w>
▁속 에는</w>
▁불확실 성이</w>
▁박물 관</w>
▁문화 재</w>
▁내용 과</w>
▁남 편</w>
▁고 도
▁결 성
1 8
출 납
업체 의</w>
시 장과</w>
문 제를</w>
는 지에</w>
국 민</w>
▁휴대 폰</w>
▁청 구</w>
▁챔피언 스
▁점 심</w>
▁전통 적인</w>
▁전국 에</w>
▁저 작
▁재 차</w>
▁인스타 그램
▁이메 일을</w>
▁의 하면</w>
▁연임 할</w>
▁어렵 다고</w>
▁시민 의</w>
▁떨어 질</w>
▁당 첨
▁다음 으로</w>
▁고 장</w>
P S</w>
플 루
플 러
트 로
진 다면</w>
직 원</w>
그 러
▁홍보 를</w>
▁하 드
▁폭 력
▁최 대의</w>
▁참가 하는</w>
▁지방자치 단체</w>
▁지 갑
▁중 이에요</w>
▁중 의</w>
▁식 당
▁성 북
▁뷰 티</w>
▁목 적이</w>
▁로 버
▁대 회가</w>
▁늘 면서</w>
▁구성 해</w>
▁교 사가</w>
( -</w>
위원 회와</w>
위 인</w>
연 대</w>
산 에서</w>
분 과</w>
나 와</w>
까 지
▁취업 자</w>
▁접수 한</w>
▁장 악
▁자 산</w>
▁일어 날</w>
▁위안 부</w>
▁여 동
▁속 에서도</w>
▁선 적
▁법 정</w>
▁번 호를</w>
▁메 인</w>
▁등장 하는</w>
▁단 계</w>
▁노 사</w>
▁갈 등</w>
▁간담 회를</w>
▁F TA</w>
이 에서</w>
분 석
니 는</w>
▁판 정을</w>
▁지 내고</w>
▁죽 은</w>
▁제주 도
▁전체 적으로</w>
▁인 식</w>
▁소 리
▁마 라
▁떨어 졌다</w>
▁널 널</w>
▁김 명
▁금액 은</w>
▁강 행
e t
O U</w>
희 망
었 으며</w>
시 하는</w>
세 계</w>
변 호
방 과</w>
▁확 립
▁헝 가
▁해 보
▁프로그램 이다</w>
▁통 화</w>
▁인사청 문
▁용 의
▁양 도
▁알려 지면서</w>
▁시 위
▁수 습
▁솔 로</w>
▁무 척</w>
▁당 국
▁놀라 운</w>
▁나타 냈다</w>
▁깨 닫
▁계약 이</w>
▁건강 보험
▁개 편</w>
7 6</w>
피 가</w>
업 소</w>
소 장</w>
부 르
▁회 원들이</w>
▁형 식으로</w>
▁한 창
▁평 소
▁판단 해</w>
▁치 고</w>
▁참여 하여</w>
▁조사 할</w>
▁조별 리그</w>
▁전달 했다</w>
▁이외 에도</w>
▁의결 을</w>
▁위 법
▁아 카데
▁아 세
▁수 확
▁소개 하고</w>
▁성황 리에</w>
▁삼 아</w>
▁사무 실</w>
▁바 라</w>
▁메르 스</w>
▁맺 고</w>
M S</w>
201 6</w>
쳐 서</w>
조 사에</w>
일 러
보조 금</w>
마 이
광 고
▁하 도
▁편 입
▁전 주
▁자발 적으로</w>
▁원 산
▁심 화
▁송 치
▁문 건</w>
▁몰 려</w>
▁돼 서</w>
▁급격 한</w>
▁교 회가</w>
지 난
자 금을</w>
연구 원이</w>
본부 장은</w>
물 질
구 속</w>
▁합 병
▁한 화</w>
▁체 계를</w>
▁지원 대상
▁이후 로</w>
▁이미 지가</w>
▁이 었다</w>
▁예 쁜</w>
▁아래 와</w>
▁신속 히</w>
▁스 파
▁부 서의</w>
▁미 지
▁마 드리
▁내용 으로</w>
▁교 수의</w>
▁가 평
이 므로</w>
년 마다</w>
객 들이</w>
▁한 복
▁프로 세
▁투자 자</w>
▁주최 한</w>
▁약 한</w>
▁수 록
▁속 도로</w>
▁샘플 을</w>
▁분 명</w>
▁병 원을</w>
▁베 를
▁받았 던</w>
▁레 드
▁디스플 레이</w>
▁농 산물</w>
▁노조 는</w>
▁강제 징
▁감안 해</w>
▁5 8</w>
현 장</w>
투 표
이었 으나</w>
사 회에</w>
▁휴대전 화</w>
▁파 워
▁콘 셉
▁커 플
▁채 널</w>
▁아이 들은</w>
▁쉬 는</w>
▁손 으로</w>
▁발언 이</w>
▁나타 날</w>
▁나오 면</w>
▁구 급
▁곳 도</w>
I P</w>
저 가</w>
션 에</w>
▁협 상에</w>
▁하나 를</w>
▁표 를</w>
▁평범 한</w>
▁트위 터</w>
▁택 배
▁커 커</w>
▁제 이
▁의미 한다</w>
▁위 험</w>
▁올 릴</w>
▁예 전에</w>
▁속 속</w>
▁설치 해</w>
▁노무 현</w>
▁김 희
▁국토 부는</w>
하우 스</w>
언 이</w>
서 에는</w>
서 야</w>
로 에서</w>
드 럽
나 갈</w>
공 급
검 사를</w>
▁폐 지</w>
▁중국 인</w>
▁재 적
▁인 생을</w>
▁이뤄 진다</w>
▁역 사가</w>
▁언제 든</w>
▁안 고</w>
▁선 수를</w>
▁매 장
▁돌아 온</w>
▁도 덕
▁데 에</w>
▁그곳 에서</w>
▁강 의를</w>
▁J TBC</w>
o T</w>
7 9</w>
안 정
시간 은</w>
▁후보 자</w>
▁특 례
▁태권 도</w>
▁출 장
▁주민 들은</w>
▁자 금이</w>
▁이해 찬</w>
▁양 육
▁아 나
▁소 통</w>
▁성 인
▁상 속
▁방식 의</w>
▁모 자
▁많 지만</w>
▁만나 서</w>
▁등 이다</w>
▁기독 교</w>
▁금메 달을</w>
▁구축 을</w>
▁6 8</w>
▁5 9</w>
화 폐</w>
석 으로</w>
상 황</w>
면 은</w>
▁차 로</w>
▁이해 관계
▁아닌 가</w>
▁실 감
▁신 체</w>
▁시스템 이</w>
▁스타 벅
▁선 박</w>
▁상 실
▁사회 에서</w>
▁들 었어요</w>
▁돌 봄
▁국무 부</w>
▁개인 정보
▁강 사
▁5 6</w>
캐 피
주 의를</w>
밖 에도</w>
라 인</w>
라 를</w>
니 스</w>
군 기
강 에</w>
▁호텔 에</w>
▁허 위</w>
▁컨설 팅</w>
▁중심 에</w>
▁정 말로</w>
▁자 체를</w>
▁외 면
▁예방 을</w>
▁어 렸을</w>
▁시 점에</w>
▁시 기가</w>
▁소 홀
▁부 드럽
▁본 사</w>
▁발표 된</w>
▁무 릎
▁농림 축산
▁공 산
▁고 양</w>
i n</w>
혁 신</w>
철 을</w>
납 니다</w>
규 제</w>
▁활 약을</w>
▁확대 되고</w>
▁플랫폼 을</w>
▁택 시를</w>
▁참가 자들이</w>
▁조 세
▁적용 할</w>
▁위반 한</w>
▁예 배
▁부 모</w>
▁벌어 졌다</w>
▁벌 이는</w>
▁발표 할</w>
▁구 의
N A</w>
7 8</w>
적 이라는</w>
사 고를</w>
내 용을</w>
구 인</w>
고 있다</w>
▁해 안
▁하나 님이</w>
▁평화 의</w>
▁최 적의</w>
▁지원 한</w>
▁지나 면</w>
▁중소기업 이</w>
▁의 거</w>
▁음 료
▁위 주의</w>
▁업계 에서는</w>
▁수 정</w>
▁소 관
▁상 정
▁리 얼
▁담 배
▁개정 안이</w>
▁개 관
▁가족 들과</w>
타 이
석 에서</w>
▁후보 를</w>
▁행복 하게</w>
▁합 동</w>
▁테 스트</w>
▁크 다고</w>
▁초 대</w>
▁체결 했다</w>
▁중 점
▁중 개
▁줄어 드는</w>
▁전략 이</w>
▁적 힌</w>
▁외 환
▁소비 자들의</w>
▁상태 에</w>
▁법 원은</w>
▁미래 의</w>
▁미 성
▁면 접</w>
▁대한 항공
▁달 한다</w>
▁눈 빛
▁결혼 을</w>
▁거 라</w>
▁갔 습니다</w>
S A</w>
훈련 을</w>
해 지
시 한</w>
▁현 상을</w>
▁학생 은</w>
▁카 운
▁체험 할</w>
▁작업 에</w>
▁자료 의</w>
▁이루 는</w>
▁이 른다</w>
▁연 봉
▁신 축
▁식 물
▁설립 된</w>
▁선정 해</w>
▁샘 플</w>
▁보 통
▁다 를</w>
▁능 력</w>
▁나 지</w>
▁기간 은</w>
▁가까 워
o m
현 재</w>
음 은</w>
어 졌다</w>
시행 하여야</w>
봐 도</w>
보 드</w>
공 원
▁휴 가를</w>
▁회 의가</w>
▁확대 할</w>
▁현 장의</w>
▁한 미</w>
▁추진 에</w>
▁청 탁
▁첫 째</w>
▁일제 히</w>
▁일 정한</w>
▁이 태
▁완 전</w>
▁영 국
▁선수 의</w>
▁산 불</w>
▁보 게</w>
▁방 북</w>
▁맥 주</w>
▁마 침
▁리 그
▁동아 리</w>
▁다큐 멘터
▁뉴 질
통신 은</w>
층 으로</w>
천 이</w>
대 체</w>
내 지</w>
▁확산 되고</w>
▁해 산
▁항 공</w>
▁합 창
▁팀 은</w>
▁정상회담 에서</w>
▁정보 화
▁시작 한다</w>
▁손 해를</w>
▁소 형</w>
▁빈 번
▁번 의</w>
▁바람 을</w>
▁모델 이</w>
▁되 는지</w>
▁동 의</w>
▁도입 한</w>
▁냄새 가</w>
▁기록 하고</w>
▁구 경
▁교 도
▁관 점에서</w>
▁계 시
▁결정 하는</w>
▁건 물을</w>
▁가족 은</w>
▁가 지는</w>
크 에서</w>
조 와</w>
열 을</w>
미세먼 지</w>
념 을</w>
▁흐름 이</w>
▁황교 안</w>
▁혁신 을</w>
▁항공 기</w>
▁페스티 벌
▁추 적
▁처리 하기</w>
▁지 체
▁지 상</w>
▁재 현
▁작 년에</w>
▁유 치</w>
▁언론 이</w>
▁알 레
▁아 메
▁쉴 쉴</w>
▁성 수
▁상 주
▁비 율
▁받았 고</w>
▁매 뉴
▁리더 십
▁뜨 거
▁되었 고</w>
▁단체 에</w>
▁내 일
▁기관 에</w>
▁계획 이라고</w>
8 6</w>
층 은</w>
부 장</w>
되었 을</w>
▁회담 을</w>
▁정 권</w>
▁인 민
▁우 호
▁용 이
▁요 금을</w>
▁법 원의</w>
▁모양 의</w>
▁메 일로</w>
▁드 론</w>
▁단 단
▁너 희
▁교육 부는</w>
▁검 증</w>
▁L ED</w>
하 다며</w>
자 료
신청 서를</w>
교육 청이</w>
거래 가</w>
▁확인 해보
▁평 화를</w>
▁펼 치는</w>
▁최 적
▁총 리의</w>
▁운 용</w>
▁요청 이</w>
▁얻 는</w>
▁억 울
▁어머니 가</w>
▁안 방
▁심 장
▁수행 하기</w>
▁5 7</w>
O C</w>
8 2</w>
피 스</w>
시 킨다</w>
사 회가</w>
돌 이</w>
기준 에</w>
관 들이</w>
곡 을</w>
▁프랑 스
▁추 후</w>
▁주 체
▁정 기</w>
▁자 고</w>
▁인터넷 을</w>
▁이벤 트
▁이끌 고</w>
▁의 식을</w>
▁원내 대표</w>
▁아직 까지</w>
▁소 매
▁생 명을</w>
▁새 마을
▁비용 의</w>
▁봐 요</w>
▁법 제
▁밝 혀</w>
▁못 한다</w>
▁돋보 이는</w>
▁독 일의</w>
▁독 립</w>
▁날 씨
▁과 제
▁과 기
▁경기북 부
▁경기도 의회</w>
▁가벼 운</w>
2 000</w>
팔 렘방</w>
지 에는</w>
정책 의</w>
시 민</w>
배 우</w>
가 치가</w>
▁환경 에서</w>
▁포 괄
▁평 창
▁코 리아</w>
▁캠 퍼
▁자 에게</w>
▁영화 에</w>
▁연 극</w>
▁언제 쯤</w>
▁실시 하여야</w>
▁스마트폰 을</w>
▁서비 스는</w>
▁서 부
▁뿐 이다</w>
▁법 안</w>
▁무 사
▁몰 래</w>
▁맞 춘</w>
▁동 성
▁대 주
▁그 중
▁감사 드립니다</w>
협의 체</w>
바 이</w>
로 드</w>
구청 장은</w>
개월 이</w>
가 도</w>
▁활발 하게</w>
▁촬영 한</w>
▁직 원의</w>
▁지정 할</w>
▁조 작</w>
▁잡 을</w>
▁인 하</w>
▁이벤 트가</w>
▁육 성을</w>
▁승 리</w>
▁붙잡 혔다</w>
▁모 집</w>
▁명 품</w>
▁김 광
▁관 중
▁공기 청정
▁개최 하는</w>
▁7 2</w>
▁6 3</w>
제 도를</w>
이었 다고</w>
색 의</w>
다 는데</w>
▁핀 테크</w>
▁클래 식</w>
▁좋아 서</w>
▁장 관을</w>
▁작 은
▁원 전</w>
▁어 때
▁얘 기가</w>
▁소 수
▁소 리</w>
▁살아 남
▁살 짝</w>
▁보고 를</w>
▁바 가</w>
▁멤버 들이</w>
▁만 만
▁대상 에</w>
▁달 했다</w>
▁관계 없이</w>
▁과 제</w>
▁검 은</w>
하 네요</w>
차 별</w>
아 웃
미 널
문 학
듭 니다</w>
▁해수 욕
▁치료 가</w>
▁촬영 을</w>
▁체결 한</w>
▁자 존
▁임 상
▁일 로</w>
▁인정 한</w>
▁이 병
▁여 파로</w>
▁어울 리는</w>
▁알 렸다</w>
▁상 세
▁살 아</w>
▁못 해서</w>
▁매 번</w>
▁마 르
▁두 는</w>
▁동 물</w>
▁꾸준 한</w>
해 달라고</w>
합 창
하 듯</w>
품 으로</w>
평 생
지역 으로</w>
셨 으면</w>
문 재
당 시</w>
▁태 어
▁출동 한</w>
▁쪽 은</w>
▁쪽 에</w>
▁좋 게</w>
▁접근 이</w>
▁전문 적인</w>
▁입 맛
▁인 사가</w>
▁않았 을</w>
▁아직 은</w>
▁아 트
▁선고 받았다</w>
▁상 고
▁부총 리는</w>
▁보고 서에</w>
▁미얀 마</w>
▁디 저
▁동 장은</w>
▁나 뉘
▁기획 예산
▁공 청
▁가 슴</w>
A E</w>
9 6</w>
화 폐
철 이</w>
대표 가</w>
▁학생 을</w>
▁하 고자</w>
▁펼 칠</w>
▁정 교
▁전시 회</w>
▁자 부
▁쏠 린다</w>
▁시 기</w>
▁성 분이</w>
▁상승 세를</w>
▁사라 진</w>
▁불 리
▁분 산
▁베이 징</w>
▁리 모델
▁나 랑</w>
▁길 게</w>
▁귀 추가</w>
▁경 로
▁경 력이</w>
▁결과 다</w>
화 학
집 에서</w>
어 로
발 이</w>
거 리는</w>
▁확 산</w>
▁조 종
▁인 력이</w>
▁용 역
▁염 두에</w>
▁여성 가족
▁사업 비</w>
▁사 태</w>
▁받아들 여
▁달러 를</w>
▁단 백
▁김 혜
▁근본 적인</w>
▁광주 시</w>
▁공급 하는</w>
▁걸 로</w>
▁강동 구</w>
▁감독 과</w>
▁9 5</w>
a m
투 어</w>
제 조
정책 이</w>
전 부터</w>
대 응
▁한국 인
▁크 리
▁콘텐츠 가</w>
▁차량 의</w>
▁지키 는</w>
▁인터 뷰</w>
▁요구 에</w>
▁어때 요</w>
▁뿌 리
▁부 서</w>
▁본격 화
▁벨 기에</w>
▁방 식</w>
▁반영 해</w>
▁등장 했다</w>
▁대한 항공</w>
▁놓 은</w>
▁넣 은</w>
▁김 의
▁그 쳤다</w>
▁공무 원을</w>
▁공 휴
터 에서</w>
출 이</w>
지 난</w>
증 으로</w>
전 용
에너 지
리 티</w>
나 에서</w>
▁휴 가</w>
▁혼자 서</w>
▁출 품
▁제출 을</w>
▁점검 하고</w>
▁일본 을</w>
▁운 행</w>
▁오늘 날</w>
▁양 이</w>
▁실질 적</w>
▁설치 를</w>
▁사용 료를</w>
▁목 적</w>
▁머 리가</w>
▁말 해
▁됐 고</w>
▁높아 진</w>
▁깨 달
▁교육 과</w>
▁계속 되고</w>
▁강 구
행 정</w>
팀 과</w>
총 이</w>
쪽 의</w>
시 리
두 가</w>
눈 에</w>
나 가는</w>
규 정</w>
▁화웨 이</w>
▁해 줄</w>
▁하 다가</w>
▁평생 교육
▁처 한</w>
▁주 축
▁조 회
▁전 해</w>
▁의 정
▁약속 했다</w>
▁생각 했다</w>
▁때 의</w>
▁단 말
▁너 한테</w>
▁경기북 부</w>
e t</w>
체 제</w>
주 간</w>
성 장을</w>
봉 사</w>
리 오</w>
르 며</w>
감 으로</w>
▁화장 실</w>
▁추억 을</w>
▁증가 로</w>
▁주장 한</w>
▁저 한테</w>
▁이 겨
▁음주운 전</w>
▁요 청</w>
▁영등 포구</w>
▁양성 평
▁수도 권
▁세 상</w>
▁분야 별</w>
▁분석 도</w>
▁백화 점</w>
▁방 을</w>
▁문 자</w>
▁많 기</w>
▁극 심한</w>
▁개 가</w>
쪽 이</w>
와 도</w>
기업 과</w>
가 들의</w>
▁환 승
▁확인 되지</w>
▁확 산을</w>
▁초 청</w>
▁지 붕
▁중 지
▁전문가 들의</w>
▁임 신
▁아 웃
▁시행 할</w>
▁스티 븐</w>
▁스타 일
▁소 폭</w>
▁생 일
▁분위기 다</w>
▁도 의
▁대응 을</w>
▁기록 이</w>
▁고 기
▁개최 할</w>
o o
T O</w>
재 생</w>
노 인
▁합 법
▁할 리우
▁참 석</w>
▁줘 줘</w>
▁주 의를</w>
▁주 십시오</w>
▁오 전에</w>
▁심의 하기</w>
▁수상 한</w>
▁수 주
▁사 기
▁마련 을</w>
▁공 항에</w>
▁걸 렸다</w>
▁간 사</w>
O S</w>
역 사
공 을</w>
곳 에서</w>
▁회담 이</w>
▁표 명
▁탈 퇴
▁추가 적인</w>
▁추 측
▁중 이며</w>
▁중 이라고</w>
▁주도 하는</w>
▁신용 카드</w>
▁소통 을</w>
▁버 스가</w>
▁떨어 지고</w>
▁동 대문
▁농 업</w>
▁넘 겨진</w>
▁공정 위</w>
▁격 차가</w>
E C</w>
호텔 에서</w>
한 테
여 행을</w>
심 은</w>
미 로</w>
린 다는</w>
령 에</w>
됐 는데</w>
대 리
니 의</w>
공간 을</w>
▁한국 당이</w>
▁한 동안</w>
▁피 부에</w>
▁페널 티
▁티 켓</w>
▁책 정
▁장소 로</w>
▁읽 는</w>
▁월 요일에</w>
▁우 려</w>
▁여 당</w>
▁쇼 핑</w>
▁생 일</w>
▁배경 을</w>
▁문화 예술</w>
▁면 허
▁뜨 겁
▁감소 했다</w>
학 자</w>
하 고도</w>
차 전에서</w>
오 가</w>
업체 에</w>
반 도
바 람
▁후보 자가</w>
▁핸드 폰
▁한 식</w>
▁초 등학교
▁지 주
▁정 비</w>
▁저 기</w>
▁잡 는</w>
▁자 문을</w>
▁이 낙
▁운영 과</w>
▁실 시</w>
▁발생 하면</w>
▁바닥 에</w>
▁드 물
▁둘러싸 고</w>
▁단 위
▁과반 수의</w>
▁경 주
▁거 쳐야</w>
▁갖 는다</w>
▁199 8</w>
9 8</w>
차 도</w>
자 다</w>
밀 하게</w>
력 도</w>
▁확보 하고</w>
▁프랜차이 즈</w>
▁탄탄 한</w>
▁증 진
▁주 의가</w>
▁조 화를</w>
▁정 수
▁적용 되는</w>
▁자녀 를</w>
▁이어 지
▁수요 를</w>
▁선생 님이</w>
▁생각 할</w>
▁봤 을</w>
▁목표 다</w>
▁동남 아</w>
▁더욱 더</w>
▁경제 부총
▁경고 했다</w>
▁건축 물</w>
▁감 수
해 볼</w>
포 럼
즈 와</w>
조 에서</w>
재 와</w>
자 본
인터 넷</w>
의 무
방 위
국 장이</w>
▁확대 에</w>
▁허 락
▁행사 에서</w>
▁한 류의</w>
▁추 첨
▁차별 화된</w>
▁짓 고</w>
▁지난해 보다</w>
▁저 하
▁일방 적으로</w>
▁인 간</w>
▁우선 적으로</w>
▁우리 도</w>
▁아니 하다</w>
▁신 기
▁승 부
▁세 우고</w>
▁벌어 지는</w>
▁방안 도</w>
▁마련 된다</w>
▁동 호
▁늘어나 면서</w>
▁깨끗 한</w>
▁19 70</w>
8 9</w>
청소 년</w>
이었 다는</w>
연구 원은</w>
스럽 다</w>
거 를</w>
▁후보 로</w>
▁확 률이</w>
▁협의 하여</w>
▁주택 을</w>
▁여 유가</w>
▁양 산
▁아 내</w>
▁숨 졌다</w>
▁빨 간
▁방법 에</w>
▁먹 지</w>
▁농림축산 식품
▁기억 에</w>
▁규 명
I C</w>
C EO</w>
토 론
적 이
불 을</w>
간 을</w>
▁흔 적이</w>
▁커 지는</w>
▁캠 핑
▁측면 이</w>
▁차 에</w>
▁진 주
▁지원 사업</w>
▁지 시를</w>
▁정 하고</w>
▁잘 하는</w>
▁일본 인</w>
▁이곳 을</w>
▁유 대
▁요즘 은</w>
▁옷 옷</w>
▁연 금
▁부 상</w>
▁무 대에서</w>
▁맑 은</w>
▁말 했습니다</w>
▁도시 재생
▁대 회에</w>
▁근 처</w>
▁국 악
▁과 세
▁공무 원들이</w>
▁갔 어요</w>
신 청</w>
산업 단
만 원에</w>
마 케
리 조
니 를</w>
능 력을</w>
▁행복 을</w>
▁하나 다</w>
▁폭 넓
▁커 버
▁질 을</w>
▁중국 산</w>
▁전략 적</w>
▁자유 로운</w>
▁임 신</w>
▁일으 킨</w>
▁이루어 진</w>
▁이낙 연</w>
▁이 의
▁위 의</w>
▁여름 철</w>
▁시 청</w>
▁설명 하고</w>
▁생 성
▁사회적 경제
▁붙 어</w>
▁배 운</w>
▁기 금을</w>
▁구 청</w>
▁건 립</w>
▁6 4</w>
절 차</w>
우 와</w>
스 턴
설 에</w>
드라 마</w>
▁특 화
▁테 크
▁탄력 근로
▁처음 부터</w>
▁중 복
▁주 유
▁잦 은</w>
▁장 병
▁자체 적으로</w>
▁자율주 행
▁이 혼
▁여 건이</w>
▁승 리가</w>
▁붉 은</w>
▁민주평화 당</w>
▁민 정수
▁맛 볼</w>
▁기존 에는</w>
▁골 프</w>
▁거래 소</w>
e s</w>
협 동
해주 시면</w>
컨 설
줄 게</w>
주 의가</w>
사 노
등 록</w>
드 려요</w>
▁회 장을</w>
▁하 러</w>
▁지 위를</w>
▁자 제
▁자 라
▁여 가
▁시민 단체</w>
▁소비 자의</w>
▁분 양</w>
▁부 부
▁동 두
▁논 란</w>
▁관객 들이</w>
▁걱정 하지</w>
▁개인 정보</w>
9 4</w>
해 서도</w>
품 과</w>
보 전
미 니
▁크 루
▁진단 했다</w>
▁지난해 부터</w>
▁전 원이</w>
▁장 소가</w>
▁에너 지를</w>
▁안전 관리</w>
▁신 도시</w>
▁스타 디
▁불 참
▁분야 를</w>
▁방송 인</w>
▁물 량이</w>
▁문 건을</w>
▁모 르고</w>
▁떨어 뜨
▁교육 부가</w>
D C</w>
해주 시
일자 리
발 표
바 다
리 즘
들 보다</w>
▁현 행
▁합 니까</w>
▁한 류가</w>
▁팬 들을</w>
▁콘서 트를</w>
▁카 드로</w>
▁축 제는</w>
▁집행 유
▁집 값</w>
▁재 능
▁장 벽
▁있으 신가요</w>
▁입 점
▁위원 을</w>
▁원 인은</w>
▁운전 자가</w>
▁연구 가</w>
▁야 외</w>
▁시 위를</w>
▁수 의
▁삶 에</w>
▁사업 장</w>
▁변경 할</w>
▁발 라
▁되 어야</w>
▁국가 대표
▁골 든
해 보고</w>
품 에</w>
인 증
인 구</w>
와 이
소 유
생 명
분 부터</w>
고속 도로</w>
고 사</w>
▁협 의가</w>
▁펀 드</w>
▁패스트 트랙</w>
▁체험 을</w>
▁차 질이</w>
▁찍 고</w>
▁지속가능 한</w>
▁지방 세</w>
▁저 출산</w>
▁슬 로
▁세 련
▁사용 하여</w>
▁북 부</w>
▁물론 이고</w>
▁모양새 다</w>
▁마 쳤다</w>
▁담 았다</w>
▁노 회
▁노 선
▁남 겼다</w>
▁공항 에서</w>
▁계획 에</w>
▁겨 우</w>
회의 는</w>
참 여</w>
운 을</w>
외 국
연 구</w>
쇼 핑</w>
셀 로
비 리</w>
변 을</w>
밸 리</w>
는데 다</w>
기준 은</w>
값 을</w>
▁표 기
▁취 한</w>
▁중요 합니다</w>
▁조 건으로</w>
▁있었 으나</w>
▁이어 지면서</w>
▁열 쇠
▁역 사와</w>
▁에어 컨
▁서 대문구</w>
▁살해 한</w>
▁띈 다</w>
▁떠 나는</w>
▁등 급
▁누 락
▁높아 졌다</w>
▁급 식
▁금 연
▁개최 하고</w>
▁강 렬한</w>
▁가능 하게</w>
▁가 능</w>
▁IC T</w>
u n
피 해</w>
적 이지</w>
사 랑</w>
박 을</w>
▁흐 르는</w>
▁트 로
▁토 마
▁캐릭 터
▁지 니
▁중소 벤처기업
▁정상 적으로</w>
▁젊은이 들이</w>
▁이 해</w>
▁우리나 라는</w>
▁요 인으로</w>
▁요 구</w>
▁스 테
▁사람 들도</w>
▁비상 대책
▁불 합
▁부족 해</w>
▁면 담
▁메시 지가</w>
▁득 점
▁나 눴
▁기 계</w>
▁과거 에</w>
▁가능 성에</w>
▁K TX</w>
▁6 6</w>
9 1</w>
9 00</w>
욕 을</w>
에 스
범 위
로 워
과 장이</w>
가 서</w>
▁편 리한</w>
▁특 허</w>
▁축 적
▁중 단</w>
▁조정 할</w>
▁정 황을</w>
▁이 밖에도</w>
▁애 로
▁알아 야</w>
▁시작 된다</w>
▁숨 지고</w>
▁매 력이</w>
▁등 재
▁두 되</w>
▁다 문화</w>
▁나 경원</w>
▁교 류가</w>
▁공 표
회 사가</w>
형 에</w>
지방자치 법</w>
언 을</w>
사 항에</w>
격 으로</w>
가 기</w>
▁확보 할</w>
▁프로 듀
▁포 트
▁이메 일로</w>
▁아래 로</w>
▁반 해</w>
▁돼 야</w>
▁도 약
▁기 대</w>
▁금 속
▁감 추
▁가볍 게</w>
▁가 파
P G</w>
지역 은</w>
주 지</w>
장 려
사 진
디 가</w>
▁확대 해</w>
▁추천 한</w>
▁지난 달
▁지 은</w>
▁중 순
▁주 행
▁주 면</w>
▁적 당
▁장 애</w>
▁인간 이</w>
▁움직 이는</w>
▁아이 들에게</w>
▁반발 이</w>
▁만족 도가</w>
▁땅 을</w>
▁대법원 장</w>
▁공식 적으로</w>
▁것 인데</w>
▁걸 어</w>
▁거주 하고</w>
▁감독 을</w>
▁V R</w>
▁P D</w>
▁F A</w>
A R</w>
해야 만</w>
차 게</w>
인 지를</w>
육 성
위원 회
우 며</w>
너 스</w>
급 여</w>
과 와</w>
▁활 력을</w>
▁증거 가</w>
▁주문 이</w>
▁주관 부서의</w>
▁저 와</w>
▁일주 일에</w>
▁인 적
▁이상 한</w>
▁이 론
▁우 체
▁예 보
▁수 천
▁선 고</w>
▁보 복
▁법 안이</w>
▁범 위
▁먹 은</w>
▁뒤 에는</w>
▁궁금 합니다</w>
▁군 산
▁구성 하고</w>
▁공개 적으로</w>
차 전</w>
전 에는</w>
적 이었다</w>
여 성</w>
수 지</w>
부 모
면 과</w>
라 스</w>
는 다면</w>
느냐 에</w>
교 류</w>
▁힘들 다</w>
▁환 호
▁학교 는</w>
▁폴 더
▁평생 학습
▁참 모
▁종 이
▁위 치</w>
▁운 전</w>
▁어 머니</w>
▁불 량
▁부 패
▁복 용
▁문제 다</w>
▁못 했어요</w>
▁매력 적인</w>
▁뜻 으로</w>
▁대부 분은</w>
▁담 보
▁높 다고</w>
▁개발 하고</w>
▁강제징 용</w>
i g
환경 이</w>
운 송
엔 날
아 와</w>
백 이</w>
만 달러</w>
도 지
나 라</w>
금 지</w>
▁행정 부가</w>
▁페스티 벌</w>
▁지역 사회
▁전 격</w>
▁인근 에서</w>
▁음 주</w>
▁위해 서다</w>
▁완료 되면</w>
▁어 제
▁시 에는</w>
▁수립 하여</w>
▁방송 에서</w>
▁민 관
▁문 자
▁모습 에</w>
▁맞 나요</w>
▁도 망
▁국 비</w>
▁관리 할</w>
▁경험 과</w>
▁경기도 를</w>
E CD</w>
9 7</w>
셨 습니다</w>
보 지</w>
발 전에</w>
무 장
관 련
▁현대 차</w>
▁포 장</w>
▁티 셔
▁처 리가</w>
▁채 무
▁중 구가</w>
▁재 건축</w>
▁자전거 를</w>
▁잇 달아</w>
▁입 법</w>
▁원 천
▁완 전
▁여성 은</w>
▁않 자</w>
▁아이 스크
▁서울 을</w>
▁생기 면</w>
▁박 병
▁미국 으로</w>
▁남 지</w>
▁난 다</w>
▁깊 게</w>
▁기 분</w>
▁그렇 군요</w>
▁거 주</w>
▁8 4</w>
장 들이</w>
자 로부터</w>
월 말
반 의</w>
미디 어</w>
▁확대 하는</w>
▁해결 하는</w>
▁일 정에</w>
▁이르 기까지</w>
▁우즈베키스 탄</w>
▁어디 서
▁양 성</w>
▁수 혜
▁성 남</w>
▁서 식의</w>
▁사우디 아라
▁비 주
▁보호 하기</w>
▁민 감한</w>
▁높아 지는</w>
▁너 도</w>
▁그녀 에게</w>
▁규정 된</w>
▁군 사</w>
▁각 국의</w>
9 3</w>
하 셔야</w>
졌 는데</w>
업 체를</w>
라 와</w>
▁후보 의</w>
▁필 수</w>
▁편안 한</w>
▁전 하는</w>
▁임 원
▁유 독</w>
▁우 연히</w>
▁역 할</w>
▁아이 들</w>
▁소 재로</w>
▁선수 는</w>
▁사업 자</w>
▁밖 에서</w>
▁민 원이</w>
▁모르 겠다</w>
▁머 리
▁맛 맛</w>
▁만들 어야</w>
▁도 착</w>
▁당 시
▁달 이</w>
▁단 기</w>
▁나라 에서</w>
▁기대 했다</w>
▁기 타
▁귀 사의</w>
▁감 각
회의 가</w>
정 도</w>
자 산</w>
오 염</w>
업 자</w>
방 지
들 만</w>
고 등학교
▁확 정</w>
▁파 급
▁토트 넘
▁취 업을</w>
▁조 기에</w>
▁전문 성을</w>
▁재판 이</w>
▁읽 어
▁의미 로</w>
▁연 이어</w>
▁여 권</w>
▁시나 리오
▁뷰 티
▁눈 으로</w>
▁나 옵니다</w>
▁김 학
▁기술 의</w>
▁관계 에</w>
▁6 2</w>
▁20 30</w>
l e</w>
함 은</w>
하 긴</w>
지 거나</w>
시 즌
사업 자</w>
마 는</w>
교 의</w>
▁합의 했다</w>
▁창 원</w>
▁적용 된</w>
▁요청 하는</w>
▁솔직 히</w>
▁소 식에</w>
▁세 웠다</w>
▁사랑 이</w>
▁벌 금</w>
▁리 조
▁독 려
▁남북 정상회담
▁개인 적인</w>
u r
8 7</w>
복 무
란 이</w>
강 의</w>
▁효 과</w>
▁현대 중공
▁참 사</w>
▁이어 진다</w>
▁유 가족
▁올라 온</w>
▁업 체를</w>
▁않았 어</w>
▁실 리
▁시 일</w>
▁수업 에</w>
▁분석 됐다</w>
▁부 지</w>
▁미 드
▁라 운
▁대 가로</w>
▁극 극</w>
▁그 들에게</w>
▁걸 친</w>
▁걱 정</w>
형 문화
현지 시각</w>
돈 을</w>
난 을</w>
금 리를</w>
▁휴 식
▁팬 들에게</w>
▁진행 되었다</w>
▁정책 실
▁재 료
▁있으 므로</w>
▁은 평
▁요 소가</w>
▁아내 가</w>
▁신 도
▁서 면</w>
▁사례 는</w>
▁모 여
▁막 판</w>
▁들어 오는</w>
▁동 양
▁돕 고</w>
▁다 저
▁낯 선</w>
▁기 사</w>
▁금융당 국이</w>
▁금 액</w>
▁권 력
▁구 단</w>
▁과거 의</w>
▁고 구
▁개 소
▁같 은데요</w>
8 1</w>
환 을</w>
화 해</w>
탄 이</w>
조 선</w>
월 과</w>
서 울</w>
룬 다</w>
동 으로</w>
▁혐의 에</w>
▁한 계를</w>
▁평 화와</w>
▁평 소에</w>
▁축 제의</w>
▁준비 해</w>
▁전망 도</w>
▁적용 한</w>
▁있었 기</w>
▁어 떤
▁아끼 지</w>
▁스 태
▁세 대</w>
▁선 별
▁사 례</w>
▁불 꽃
▁보 이지만</w>
▁민 생
▁때문 이라는</w>
▁땅 에</w>
▁대표이 사</w>
▁노하우 를</w>
▁끝 으로</w>
▁그룹 의</w>
▁결 심
증 과</w>
서 만</w>
래 의</w>
그룹 은</w>
▁표현 을</w>
▁특별 법</w>
▁태 평
▁찍 어</w>
▁진 실
▁전 력이</w>
▁적 게</w>
▁장 점을</w>
▁요 건을</w>
▁안팎 의</w>
▁안 정을</w>
▁심사 위원
▁신 제품</w>
▁시간 도</w>
▁수 색
▁소 지
▁성실 히</w>
▁서비 스에</w>
▁상징 하는</w>
▁비중 은</w>
▁부문 에서</w>
▁부 근
▁보 다는</w>
▁법 원에</w>
▁방 이</w>
▁방 안에</w>
▁모 의
▁등장 한</w>
▁동 반</w>
▁도시 를</w>
▁내 륙
▁날 인</w>
▁공정 위는</w>
▁경 연
항 에서</w>
단체 에</w>
교육 법</w>
건설 이</w>
▁키 가</w>
▁커 지면서</w>
▁카메라 를</w>
▁축 하</w>
▁촉구 하는</w>
▁중간 에</w>
▁중 으로</w>
▁주 의</w>
▁주 를</w>
▁제품 과</w>
▁제 고
▁정부 를</w>
▁정 례
▁접근 성이</w>
▁재 산을</w>
▁않 나요</w>
▁설 비
▁사우 디</w>
▁발생 한다</w>
▁미안 하지만</w>
▁모 습</w>
▁맞 서</w>
▁마 포
▁마 련</w>
▁과 징
▁개 봉</w>
▁간 다</w>
▁가정 의</w>
유치 원</w>
시설 과</w>
상 승
보 와</w>
만 명의</w>
가 정
▁코 엑
▁즐 기고</w>
▁용 도로</w>
▁여야 가</w>
▁엘리 베이
▁아프 리카
▁브랜 드를</w>
▁분 할
▁분 실
▁모 스크
▁만 이다</w>
▁드러 나</w>
▁동 계
▁도 대체</w>
▁노래 가</w>
▁낮 아</w>
▁그 릇
▁공 모</w>
▁고객 을</w>
▁건물 은</w>
보 좌
민 족
다 이
뉴 스</w>
고 기를</w>
▁행정안전 부</w>
▁침 체
▁이 룬</w>
▁유 해</w>
▁오 해
▁애 플</w>
▁소 멸
▁성 명을</w>
▁비공 개</w>
▁비 닐
▁방 향</w>
▁무역전 쟁</w>
▁매출 을</w>
▁놓 인</w>
▁나라 에</w>
▁김의 겸</w>
▁고 지
▁계속 되는</w>
▁경기 는</w>
▁강화 할</w>
회의 실에서</w>
해 본다</w>
중 국
예 방
신 다면</w>
버 그</w>
련 의</w>
니 어</w>
▁해명 했다</w>
▁한 눈에</w>
▁판단 한</w>
▁클 러
▁최 다</w>
▁지원 과</w>
▁지역 에서는</w>
▁주목 할</w>
▁조 건이</w>
▁정상 적인</w>
▁저 소득</w>
▁일 선</w>
▁의 장
▁영향 력이</w>
▁업 계는</w>
▁알 고
▁아니 할</w>
▁신 세계
▁스튜 디오
▁수 리</w>
▁색 다른</w>
▁불어 넣
▁발전 할</w>
▁명확 한</w>
▁말 하며</w>
▁대표 적이다</w>
▁당 뇨
▁남 부</w>
▁꿈 이</w>
▁기간 으로</w>
▁그 거</w>
▁공 장에서</w>
P C</w>
일 본
스 키
사 례
백화 점</w>
문 이다</w>
계획 이</w>
계획 의</w>
▁화 성</w>
▁현 황
▁판매 량이</w>
▁통일 부</w>
▁태 어나
▁크 기가</w>
▁지정 하는</w>
▁제 목의</w>
▁전세 계</w>
▁전 무
▁저 항
▁저 번에</w>
▁음악 이</w>
▁예정 이에요</w>
▁영 혼
▁썼 다</w>
▁신 년
▁수사 권</w>
▁성공 할</w>
▁상 인
▁메 신
▁두 산</w>
▁대표 로</w>
▁교 차
▁공 수
천 의</w>
당 인</w>
나 도</w>
기 에도</w>
결 제</w>
▁호 날
▁향 상에</w>
▁한 양
▁품 목
▁파 란
▁통 일</w>
▁취 지의</w>
▁증거 를</w>
▁줄 이
▁줄 고</w>
▁좁 은</w>
▁전환 을</w>
▁유 인
▁움직 임을</w>
▁운영 된다</w>
▁역 설
▁업데이 트
▁씨 를</w>
▁시 점에서</w>
▁섬 섬</w>
▁산 학
▁부회 장</w>
▁백 백</w>
▁방 지</w>
▁믿 을</w>
▁문 이</w>
▁드라마 의</w>
▁됐 다는</w>
▁대 략</w>
▁김 창
▁기반 의</w>
▁거 기</w>
▁가 려고</w>
▁6 1</w>
협 약</w>
행 사가</w>
합 니다만</w>
학 대</w>
트럼 프</w>
점 기</w>
사업 과</w>
방 향</w>
미사 일</w>
되 게</w>
니 스
가 스
▁황 금
▁피 드
▁치 유
▁챔피언스 리그</w>
▁직 업을</w>
▁지 능
▁있는 지를</w>
▁이 달
▁외국 인이</w>
▁어우러 진</w>
▁안 에는</w>
▁신분 으로</w>
▁시 책
▁살 피
▁사항 과</w>
▁부 를</w>
▁벌 금
▁못 하도록</w>
▁명 절
▁만 성
▁동 시</w>
▁대응 이</w>
▁넘 지</w>
▁내 년에는</w>
▁남 다른</w>
▁끝 이</w>
▁과 시
▁감사 담당
호 텔</w>
자 전
어 드
부 즈
보 디
단체 와</w>
공 항을</w>
▁출신 인</w>
▁지역 별</w>
▁주 력</w>
▁좀 처럼</w>
▁이 익이</w>
▁유 예
▁원 유</w>
▁양 극
▁앓 고</w>
▁성장 하고</w>
▁성 과</w>
▁상 시</w>
▁상 가</w>
▁대학 을</w>
▁다 리</w>
▁남 는</w>
▁국가 정보
▁과정 은</w>
▁과 목
▁검 사가</w>
준 을</w>
작 으로</w>
레 가</w>
대 전</w>
교 사</w>
▁코 레
▁추천 을</w>
▁지 리
▁제 로
▁이해 관계가</w>
▁의 지
▁원 해요</w>
▁원 장이</w>
▁올해 의</w>
▁연 료
▁신 조</w>
▁살 던</w>
▁산업 단
▁비타 민</w>
▁보 도</w>
▁바이 어
▁달 린</w>
▁낙 동
▁김 씨의</w>
▁개 성</w>
파 를</w>
점 인</w>
스 레</w>
션 으로</w>
북 한
리 나</w>
▁행정 적</w>
▁해 소를</w>
▁포 털
▁총 장</w>
▁지 식을</w>
▁제출 할</w>
▁이유 에</w>
▁이동 통신</w>
▁예약 이</w>
▁악 용
▁아닐 까</w>
▁쇼핑 몰</w>
▁성희 롱</w>
▁사 육
▁분 당
▁보 냅니다</w>
▁법 안을</w>
▁방 에</w>
▁반 입
▁멀 티
▁맥 락
▁만남 을</w>
▁떡 볶
▁달라 진</w>
▁다음 날</w>
▁다루 는</w>
▁누구 도</w>
▁넘 은</w>
▁김 연
▁개 정을</w>
해 준</w>
체육 관에서</w>
자 들에</w>
비 한</w>
부 도</w>
고 등
감 도</w>
▁화 제다</w>
▁합의 에</w>
▁판단 하고</w>
▁투 수</w>
▁최고경영 자</w>
▁참가 할</w>
▁진 전
▁인 종
▁운전 자</w>
▁여러 분</w>
▁에 피
▁야 간</w>
▁신흥 국</w>
▁수립 하고</w>
▁사업 시행
▁사 찰</w>
▁비핵 화와</w>
▁비 율은</w>
▁발 걸
▁묘 사
▁명 에</w>
▁대단 히</w>
▁꿈꾸 는</w>
▁교 류를</w>
P GA</w>
D I</w>
현 실</w>
학 년도</w>
트 랙
총 장</w>
차 적으로</w>
집 행
진 다고</w>
죄 로</w>
으 시
브 가</w>
린 다고</w>
과 학</w>
▁한 번
▁표 지
▁제출 받은</w>
▁전망 을</w>
▁재미 를</w>
▁있어 서다</w>
▁일 대에서</w>
▁인건 비</w>
▁이사 장</w>
▁우 회
▁어우러 져</w>
▁양 국의</w>
▁않 겠다는</w>
▁수 백</w>
▁속 의</w>
▁선 행
▁샐 러
▁배 를</w>
▁발표 하고</w>
▁무 대가</w>
▁몰 입
▁들어 와</w>
▁도 자
▁대 성
▁단 행
▁날 카
▁꼬 집
▁금리 인
▁교 환</w>
▁결과 적으로</w>
▁것 만</w>
▁가 요
▁가 라
하여 서는</w>
하 기에는</w>
은 지</w>
였 으나</w>
였 어</w>
었 으면</w>
시 청</w>
▁환 불</w>
▁피 할</w>
▁프 라이
▁최 상
▁체 류
▁지 는</w>
▁종 이</w>
▁자 이
▁있 다
▁일본 과</w>
▁위 대한</w>
▁온실 가스</w>
▁엄 청</w>
▁신 동
▁시설 에</w>
▁성 도
▁분야 는</w>
▁분석 하고</w>
▁배송 이</w>
▁방문 했다</w>
▁발전 과</w>
▁라 오
▁들 면</w>
▁느끼 게</w>
▁기업 으로</w>
▁기 름
포 의</w>
통신 이</w>
치 료</w>
채 가</w>
벤 션
문화 예술
마 에</w>
두 는</w>
달 이</w>
공 사
경찰 서에</w>
▁활발 히</w>
▁칭 찬
▁치 매</w>
▁진출 한</w>
▁주 소
▁종 량
▁정신 이</w>
▁장 시간</w>
▁있 겠습니다</w>
▁입 는</w>
▁인천 국제
▁인 물이</w>
▁이 듬
▁의 도가</w>
▁오 렌
▁역사 상</w>
▁업체 는</w>
▁야 구</w>
▁손 꼽
▁서 서</w>
▁상 을</w>
▁삼 성이</w>
▁사립유치 원</w>
▁북 핵</w>
▁방문 하여</w>
▁대법 원이</w>
▁높 여</w>
▁논의 할</w>
▁광 범위
▁고민 을</w>
▁고마 워</w>
▁7 3</w>
M C</w>
회 장이</w>
판 매</w>
진흥 원이</w>
월 말</w>
심 에</w>
될 지</w>
균 형
가 게</w>
▁확인 하기</w>
▁확보 가</w>
▁해 지
▁표현 한</w>
▁판 교
▁투 수
▁촉 발
▁차 관</w>
▁질 문이</w>
▁중 도
▁인 수</w>
▁영 업을</w>
▁알려주 시면</w>
▁아시안 게임
▁쌓 아
▁신고 한</w>
▁신 문은</w>
▁사실 에</w>
▁반발 하고</w>
▁막 고</w>
▁라 디오</w>
▁동원 해</w>
▁노 력</w>
▁나누 어</w>
▁나 갔
▁김 선
▁거기 서</w>
▁가 지가</w>
▁199 7</w>
P O</w>
종 은</w>
신 에</w>
신 문</w>
보 훈
물 질이</w>
▁탁월 한</w>
▁커 진</w>
▁출 간
▁징 계를</w>
▁정 성
▁있 다가</w>
▁일제 강
▁이 산
▁이 견이</w>
▁이 강
▁요 금</w>
▁아래 의</w>
▁심 하게</w>
▁신청 하여야</w>
▁시장 에서는</w>
▁성 범죄</w>
▁사이 버</w>
▁비 율을</w>
▁부작 용이</w>
▁모르 겠어</w>
▁맨 맨</w>
▁뒤 따
▁근로 자의</w>
▁과 장
▁고 대</w>
▁개최 를</w>
▁S UV</w>
활 동이</w>
페 스티
제 작
절 차를</w>
일 러</w>
스트 가</w>
스 런</w>
변 경</w>
대 로
경찰 서</w>
▁확보 하기</w>
▁특징 을</w>
▁통 학
▁통 증이</w>
▁집 권</w>
▁존재 하는</w>
▁전 임
▁전 달</w>
▁재 벌
▁잡 지</w>
▁잃 고</w>
▁옮 겨</w>
▁오 가는</w>
▁실 형을</w>
▁신 설</w>
▁생 겨</w>
▁부 처</w>
▁배 달</w>
▁방탄소년 단</w>
▁발표 가</w>
▁마침 내</w>
▁놀 러</w>
▁나오 면서</w>
▁금감 원</w>
▁국내 에서는</w>
▁공부 하고</w>
▁강조 하는</w>
▁6 7</w>
회 관에서</w>
창 조
월드 컵</w>
원 의
바이 오</w>
급 식
공무 원의</w>
▁흥미 로운</w>
▁판단 에</w>
▁트 럭
▁콜 라
▁주민 참여
▁조속 히</w>
▁저 번</w>
▁이스라 엘
▁원활 하게</w>
▁오 케스트
▁엄청 나게</w>
▁수 면
▁불필 요한</w>
▁부산 에서</w>
▁보 급</w>
▁버튼 을</w>
▁방문 이</w>
▁발언 은</w>
▁민 감
▁독 점
▁대학 에서</w>
▁다 녔
▁김 준
▁기업 들은</w>
▁균 형</w>
▁계열 사</w>
▁1 60</w>
IS T</w>
향 에</w>
포 스트</w>
판 에서</w>
적 이라고</w>
일 본</w>
운영 을</w>
야 구
실 험
도 까지</w>
금 액</w>
▁함께 한</w>
▁필요 해</w>
▁평가 하는</w>
▁판단 되는</w>
▁컨 디
▁캠페 인</w>
▁증 시가</w>
▁종 목</w>
▁장소 에서</w>
▁자신 만의</w>
▁입 양
▁육 박
▁업무 가</w>
▁아나 운
▁비교 하면</w>
▁보 상</w>
▁민 족</w>
▁모 이는</w>
▁디자 인이</w>
▁대 량</w>
▁다 룬</w>
▁노 란
▁교통 사고</w>
▁1 10</w>
8 3</w>
폭 력
조 원을</w>
보 육
문화 의</w>
맞 은</w>
강 남
▁포 즈를</w>
▁포 용
▁탓 이다</w>
▁최소 한의</w>
▁직 권
▁일 부는</w>
▁이번 엔</w>
▁야 당</w>
▁안방 극
▁수 상</w>
▁산 출
▁사람 에</w>
▁매 각</w>
▁로버 트</w>
▁김 모</w>
▁관측 도</w>
▁고용노동 부</w>
▁개정 안은</w>
▁개발 해</w>
▁199 9</w>
협 력을</w>
허 가
줄 이</w>
자 격
아파 트</w>
미 널</w>
류 는</w>
되 길</w>
동 물
공 학
공 직
겠 고</w>
▁하 죠</w>
▁피해 자의</w>
▁프리미 어
▁트 리
▁취소 할</w>
▁지 지</w>
▁중 동</w>
▁정신 질환
▁임 산
▁인 인</w>
▁의 회
▁위탁 하여</w>
▁월 요
▁요 금이</w>
▁연장 할</w>
▁연구 개발
▁연 천
▁언론 은</w>
▁양 의</w>
▁아닌 지</w>
▁보 훈
▁법원행정 처</w>
▁모집 한다</w>
▁드 루킹</w>
▁관리 하고</w>
▁공급 을</w>
▁건 전
▁개 회
타 가</w>
카 드
처 와</w>
주 관
정 통
장 에서는</w>
부 처</w>
보고 서를</w>
드 린</w>
답 을</w>
▁휘 발
▁한국 어
▁테 스트를</w>
▁탈 출
▁추진 된다</w>
▁청 도
▁처 방
▁창출 을</w>
▁죽 음을</w>
▁있었 는지</w>
▁인 상에</w>
▁이 화
▁이 모
▁여성 들의</w>
▁얼굴 에</w>
▁슬 픔
▁들어 서는</w>
▁대 안
▁너 랑</w>
▁기 내
▁귀여 운</w>
▁교 사
▁고속 도로</w>
▁간 절
플 러스</w>
초 에</w>
청 사에서</w>
주차 장</w>
조 치가</w>
제 도가</w>
익 은</w>
브 라
버 스를</w>
균 이</w>
▁후 회
▁행 동이</w>
▁투자 자들이</w>
▁초 고
▁진행 을</w>
▁종사 자</w>
▁정 산
▁유 력</w>
▁유 네
▁영 원
▁언제 까지</w>
▁속 하는</w>
▁선 적</w>
▁사법 농단</w>
▁법령 에</w>
▁방송 되는</w>
▁박 용
▁맡 는다</w>
▁마 시는</w>
▁군사 적</w>
▁국민 적</w>
▁구매 를</w>
▁개최 되었다</w>
효 가</w>
통 일
생 명</w>
도 도</w>
급 식</w>
▁할 까요</w>
▁피 부를</w>
▁토 요
▁침 묵
▁징 역
▁주관 한</w>
▁전 망</w>
▁있었 을</w>
▁인 적</w>
▁영 역
▁언론 의</w>
▁식 민
▁사회적 경제</w>
▁맛 과</w>
▁로이 터
▁도 로를</w>
▁농 민
▁그림 은</w>
지 나</w>
적 일</w>
우 로</w>
산 업을</w>
말 이</w>
▁호 평을</w>
▁하 우
▁킨 텍
▁최 선의</w>
▁총 리
▁진 실을</w>
▁재 학</w>
▁자 로</w>
▁열 광
▁업무 의</w>
▁약속 한</w>
▁써 야</w>
▁수 송
▁소 방</w>
▁보 관</w>
▁밝히 고</w>
▁바이 러
▁민간 인</w>
▁무 늬
▁마련 돼</w>
▁마 침</w>
▁당 국의</w>
행 위가</w>
주 인</w>
웨 이
여 명을</w>
불 이</w>
보 안
달러 를</w>
개 와</w>
감 사</w>
▁흥 미를</w>
▁패러 다
▁진 단을</w>
▁주문 했다</w>
▁자유 를</w>
▁있었 으면</w>
▁예상 하고</w>
▁얻 기</w>
▁시각 이</w>
▁시 선이</w>
▁승 차
▁샤 워
▁생활 에</w>
▁방 학</w>
▁모니터 링
▁라이 브</w>
▁등록 을</w>
▁내 보
▁기념 해</w>
▁개인 적으로</w>
▁8 2</w>
해 하는</w>
합 의</w>
중 을</w>
인 들</w>
우 리는</w>
스트 는</w>
고 로</w>
결 과에</w>
▁판매 하고</w>
▁컨 퍼런
▁추천 해</w>
▁조성 에</w>
▁적 고</w>
▁유니 폼
▁알 리기</w>
▁아버 지의</w>
▁싶 어서</w>
▁수 월
▁소송 에서</w>
▁배제 할</w>
▁배우 들이</w>
▁배 후
▁무엇 입니까</w>
▁마 크
▁르 노
▁들 었어</w>
▁대중 교통</w>
▁다 리를</w>
▁그룹 이</w>
▁구 간</w>
▁경기도 청</w>
▁1 12</w>
통 화
자 원</w>
올 해</w>
드 릴까요</w>
▁참석 한다</w>
▁쪽 에서</w>
▁집중 할</w>
▁정 황
▁정 권이</w>
▁일 일이</w>
▁이뤄 져야</w>
▁열 대
▁아이디 어</w>
▁실 례
▁시급 한</w>
▁시 술
▁성 격을</w>
▁산업 단지</w>
▁빠 르고</w>
▁분 기
▁방탄소년 단의</w>
▁발 목을</w>
▁박 상
▁몰 라
▁모두 를</w>
▁돌아 갈</w>
▁도시 로</w>
▁날짜 를</w>
▁나 눌</w>
▁근 대
▁괜찮 은</w>
▁관객 들의</w>
▁공 매
▁고 무
환 자</w>
해주 셔서</w>
질 지</w>
종 일</w>
▁한반 도의</w>
▁펼쳐 졌다</w>
▁청와 대의</w>
▁짓 는</w>
▁지 분
▁재미있 게</w>
▁인식 하고</w>
▁연 상
▁어 긋
▁양 식
▁아 레
▁성 능
▁볼 턴</w>
▁무 장
▁많 다고</w>
▁똑 같이</w>
▁되 자</w>
▁당 내</w>
▁단 속</w>
▁농 작
▁넉 넉
▁그 날
▁고 창
▁가 전
▁G S</w>
a y</w>
할 게</w>
하 므로</w>
이 사
유공 자</w>
았 기</w>
사항 은</w>
거 든</w>
▁쪽 이</w>
▁제출 된</w>
▁정 규</w>
▁적발 된</w>
▁자동 차를</w>
▁인 재</w>
▁용 인</w>
▁여기 에서</w>
▁앞 으로의</w>
▁시간 당</w>
▁순 환
▁생각 하면</w>
▁분 명한</w>
▁반박 했다</w>
▁뜻 이</w>
▁높아 지면서</w>
▁남 쪽</w>
▁귀 를</w>
▁공 이</w>
▁고객 님</w>
▁검토 를</w>
M F</w>
A R
해주 시기</w>
츠 를</w>
징 수
조 직</w>
우 리가</w>
실 래요</w>
신 과</w>
수 사</w>
병 원
려 진</w>
기 초
근 이</w>
▁행 사의</w>
▁특 사
▁토론 을</w>
▁캐릭 터를</w>
▁출시 한</w>
▁집 회를</w>
▁제임 스</w>
▁전 국이</w>
▁이 룰</w>
▁이 가</w>
▁원 하지</w>
▁원 에</w>
▁영 구
▁역 전
▁앞세 워</w>
▁아마 존</w>
▁실 수
▁시즌 을</w>
▁성 취
▁사태 를</w>
▁법 안
▁밀 려
▁말 이야</w>
▁떠 났
▁동 기
▁기 자</w>
▁겪 었다</w>
▁간 주
▁9 9</w>
▁3 50</w>
u s
주 시면</w>
적 이며</w>
재 활
일 수록</w>
울 이</w>
순 위</w>
보 상
방 지</w>
▁프로그램 의</w>
▁출 연</w>
▁초 과</w>
▁제작 된</w>
▁정 유
▁있 겠지만</w>
▁유 료
▁요청 에</w>
▁실 수로</w>
▁신 경을</w>
▁숲 숲</w>
▁순 순</w>
▁수준 이다</w>
▁선발 된</w>
▁선 택</w>
▁생 계
▁블룸 버그
▁불가피 한</w>
▁부 양
▁법 이</w>
▁무 단
▁매 운</w>
▁리 버
▁든 든
▁돌 봄</w>
▁대한민 국이</w>
▁농 식품
▁날 로</w>
▁그 럼
▁고 유
▁감 정이</w>
▁가 시면</w>
▁가 구가</w>
할 수록</w>
하 느라</w>
처 분
사 진을</w>
보고 서</w>
반 도</w>
되었 다고</w>
대한 민
능 력이</w>
▁특 성에</w>
▁채널 을</w>
▁진 지
▁진 열
▁직 원은</w>
▁제 발</w>
▁전망 하고</w>
▁위치 에</w>
▁원 으로</w>
▁않 거나</w>
▁실시 해</w>
▁승 진
▁설 명이</w>
▁상품 의</w>
▁부 추
▁버 티
▁물 가
▁꼼꼼 히</w>
▁김 승
▁긴 밀한</w>
▁기대 할</w>
▁그 동
▁교육 청</w>
▁경제 성장
▁검토 할</w>
▁가능 하다고</w>
하이 닉
재 단은</w>
인 한</w>
업체 인</w>
소 리</w>
간 은</w>
▁흡 연
▁현 금으로</w>
▁행 보를</w>
▁해 를</w>
▁편 이</w>
▁잡 아</w>
▁자신 과</w>
▁원 장</w>
▁외 의</w>
▁영 하</w>
▁쓰레 기
▁실질 적으로</w>
▁비 극
▁브 로
▁붙 여
▁부위원 장이</w>
▁발 부
▁미성 년
▁매 도
▁막 걸
▁대상 이다</w>
▁기록 할</w>
▁기대 되는</w>
▁구 에</w>
▁교육 지원
▁가맹 점
I S</w>
회 장은</w>
해 의</w>
학 기</w>
표 에</w>
카 를</w>
직 이</w>
연 맹
야 가</w>
민 간
래 가</w>
들 까지</w>
공 사의</w>
▁한 하여</w>
▁하 기로</w>
▁하 겠다는</w>
▁토 요일에</w>
▁키 우고</w>
▁콜 롬
▁증 진을</w>
▁주변 에서</w>
▁조직 을</w>
▁제 안</w>
▁정 하지</w>
▁전문 가를</w>
▁작 가는</w>
▁일 시</w>
▁신 인
▁수 익</w>
▁손 실을</w>
▁성장 하는</w>
▁사업 자가</w>
▁비행 기를</w>
▁바 꿨
▁무 거운</w>
▁메모 리</w>
▁되었 어요</w>
▁내 일은</w>
▁기 금</w>
▁계속 될</w>
▁결 제가</w>
탄 의</w>
이 어야</w>
압 이</w>
당 국이</w>
▁활용 하여</w>
▁형 평
▁캐 스
▁치 명
▁처리 하는</w>
▁지키 고</w>
▁자 사</w>
▁이해 하는</w>
▁이어 갔다</w>
▁이번 에도</w>
▁의 한다</w>
▁않 으며</w>
▁싱 글</w>
▁수원 시</w>
▁상 태</w>
▁살 이</w>
▁사이 버
▁방송 에</w>
▁발 행</w>
▁박 수를</w>
▁모두 에게</w>
▁매 장에서</w>
▁뜨 겁게</w>
▁됐 습니다</w>
▁동 생
▁도 쿄</w>
▁데 리고</w>
▁대법 관</w>
▁다 수
▁남 을</w>
▁그 해</w>
▁궁금 한</w>
▁국 공
▁구조 가</w>
▁과태 료를</w>
▁고 생
S NS</w>
I D</w>
행 복
팀 에서</w>
최 저
체 인</w>
즈 로</w>
주 셔서</w>
주 면</w>
웠 어요</w>
에게 만</w>
배 에</w>
레 는</w>
공 개</w>
▁팽 팽
▁파악 됐다</w>
▁초 에</w>
▁지 침
▁조성 하고</w>
▁제시 하는</w>
▁자 유</w>
▁잉글 랜드</w>
▁일 들이</w>
▁인정 하고</w>
▁이슬 람
▁이스라 엘</w>
▁우려 했다</w>
▁외 모
▁연 평균</w>
▁씨 와</w>
▁신 인</w>
▁서 귀
▁상 습
▁사 모
▁벗 어
▁방지 하기</w>
▁박 종
▁맡 게</w>
▁다 툼
▁뉴욕 타임
▁납 입
▁기 조
▁균 형을</w>
▁규정 함으로써</w>
▁공 원
▁공 감을</w>
▁결 산
▁개선 될</w>
▁강 릉</w>
▁가능한 지</w>
회 사의</w>
있 던</w>
일 에도</w>
으 려는</w>
업 계가</w>
돌 봄
단 장</w>
공 이</w>
▁해 제</w>
▁팔 당
▁치 른</w>
▁주 제를</w>
▁정 당</w>
▁접 경
▁적 정</w>
▁자리 잡
▁임 금을</w>
▁이용 하고</w>
▁유 류
▁오 빠
▁얻 어
▁수립 하여야</w>
▁성매 매</w>
▁상관 없
▁부산 광역시</w>
▁보험 료</w>
▁날 은</w>
▁까 닭
▁그러 면서</w>
▁국가 인권
▁구 독
▁공 적
▁경 험</w>
이 닝</w>
여 건</w>
스 테이
사 자</w>
분 석</w>
년 대
▁확보 해</w>
▁플 로
▁추천 하는</w>
▁찾아 볼</w>
▁증 상을</w>
▁중요 하게</w>
▁주장 한다</w>
▁주 인이</w>
▁조성 하는</w>
▁조 재
▁정 원</w>
▁입 시</w>
▁인 재를</w>
▁의원 들의</w>
▁의견 도</w>
▁오 스트
▁실무 협
▁소 지가</w>
▁선 언</w>
▁서 서
▁불 고</w>
▁보 도를</w>
▁박 영
▁뮤지 컬
▁무역전 쟁이</w>
▁목 록
▁만만 치</w>
▁둔 화</w>
▁남 측</w>
▁나서 야</w>
▁기온 은</w>
▁구성 하되</w>
▁구 할</w>
▁공직 선거
▁거 대</w>
함 으로</w>
특 위</w>
영 상
란 을</w>
기 적인</w>
관리 하여야</w>
겨 져</w>
▁회 장과</w>
▁현실 적으로</w>
▁하 시는</w>
▁일 상</w>
▁이 행</w>
▁양 국이</w>
▁아쉬 운</w>
▁스페 인
▁수 비</w>
▁수 단으로</w>
▁선정 했다</w>
▁생산 을</w>
▁사 과를</w>
▁빠 질</w>
▁바 깥
▁모 릅니다</w>
▁매 체</w>
▁떠올 랐다</w>
▁대응 할</w>
▁넣 어
▁남아 있는</w>
▁나 노
▁끝 내</w>
▁기준 금리</w>
▁기 초</w>
▁강화 해</w>
e a
종 으로</w>
산업 단지</w>
사 다</w>
마 켓</w>
락 이</w>
농 업</w>
▁홍 영
▁해 군</w>
▁편 의</w>
▁파 리</w>
▁최소 한</w>
▁총 선</w>
▁청 도</w>
▁정 도를</w>
▁전달 하는</w>
▁이루어 져</w>
▁유 적
▁우 세
▁요 인
▁오늘 의</w>
▁열 정
▁역 량</w>
▁엄격 한</w>
▁어떨 까요</w>
▁야 간
▁아니 었다</w>
▁시리 즈</w>
▁서둘 러</w>
▁생활 이</w>
▁상당 수</w>
▁부모 의</w>
▁부 정</w>
▁부 부</w>
▁민주노 총</w>
▁문 서를</w>
▁말 씀</w>
▁대대 적인</w>
▁대 결
▁당 당
▁내 의</w>
▁그것 도</w>
▁국 외
▁건 물의</w>
▁강 정
▁각 기</w>
▁〈 〈</w>
함 께</w>
하 셔서</w>
타 워
적 으로도</w>
위 탁</w>
업체 들이</w>
박 이</w>
▁후 배
▁현 실</w>
▁합 쳐</w>
▁한 옥
▁캄 보디
▁총 리</w>
▁자 에</w>
▁우리나라 가</w>
▁염 려
▁역 을</w>
▁아르헨티 나</w>
▁시 리아</w>
▁소 문이</w>
▁딸 을</w>
▁돌아 왔다</w>
▁공 장이</w>
▁고 가</w>
일 에서</w>
인 데도</w>
울 루</w>
여 대</w>
렉 스</w>
대 회는</w>
군 에서</w>
경 비
▁후 손
▁황 의
▁프 로</w>
▁친구 들을</w>
▁주 어진</w>
▁적 었다</w>
▁저녁 을</w>
▁재 취
▁장소 는</w>
▁작용 할</w>
▁인프라 를</w>
▁인 턴
▁이상 은</w>
▁이 천
▁유관 기관</w>
▁운영 해</w>
▁엔 지니
▁시행 을</w>
▁셔 틀
▁선정 돼</w>
▁서서 히</w>
▁서비 스의</w>
▁사업 과</w>
▁브랜 드가</w>
▁보내주 신</w>
▁방송 이</w>
▁띄 는</w>
▁급 하게</w>
▁그것 에</w>
▁공 부</w>
▁계 정을</w>
▁결 렬
▁7 1</w>
효 과를</w>
층 과</w>
움 의</w>
왕 이</w>
사 용</w>
버 스
▁휴 양
▁회 피
▁형 이</w>
▁해 킹
▁하나 님께서</w>
▁펼 친다</w>
▁진 료</w>
▁자 회사</w>
▁이야 기는</w>
▁오 페
▁않 기로</w>
▁수 면</w>
▁소 모
▁산 하
▁사각 지
▁부탁 합니다</w>
▁보인 다고</w>
▁보 상을</w>
▁방탄소년 단이</w>
▁바꾸 고</w>
▁무 죄를</w>
▁노회 찬</w>
▁년 간</w>
▁관련 해서는</w>
▁검 색</w>
▁같 다고</w>
▁각 국</w>
화 학</w>
현 직</w>
합 을</w>
처 의</w>
의 식을</w>
영 과</w>
변 이</w>
박물 관</w>
동 아
답 니다</w>
답 게</w>
교 는</w>
▁해 촉
▁할머니 가</w>
▁폭 행을</w>
▁통과 한</w>
▁케이 블
▁축 소</w>
▁질 병</w>
▁지 진이</w>
▁주변 을</w>
▁절 차
▁전 도
▁열 리
▁시 속</w>
▁술 에</w>
▁송 영
▁손 잡고</w>
▁설치 한다</w>
▁선거 제도</w>
▁반 성
▁메시 지</w>
▁매 장을</w>
▁단 체를</w>
▁다니 고</w>
▁나와 서</w>
▁나 가</w>
▁기본 계획</w>
▁관람 객이</w>
▁견 제
▁개발 과</w>
▁강 도</w>
G M</w>
티 가</w>
추 홀
전 쟁</w>
오 면서</w>
었 으나</w>
양 호</w>
설 비</w>
류 에</w>
곡 이</w>
계 좌
경기 에서</w>
감 시
▁화 재로</w>
▁형태 를</w>
▁투 표</w>
▁탄력근로 제</w>
▁타 협
▁출시 된</w>
▁청 주</w>
▁진 료를</w>
▁주인 공</w>
▁재 산</w>
▁이어 서</w>
▁이 때
▁앞장 서
▁않았 기</w>
▁안심 하고</w>
▁신혼 부
▁숫 자가</w>
▁선거 에서</w>
▁민 속
▁미 쳤
▁문 서
▁리 포
▁드러 났
▁당 시의</w>
▁담 배를</w>
▁남 성의</w>
▁기술 은</w>
▁금 리를</w>
▁겨냥 한</w>
▁것 임을</w>
티 를</w>
촉 진
조 사에서</w>
재 에</w>
수 수</w>
부 대</w>
까 지로</w>
군 사
▁핵 무
▁한 유
▁파악 할</w>
▁친구 의</w>
▁취 지다</w>
▁지키 지</w>
▁줄어들 고</w>
▁제 어
▁정 서
▁자 택
▁일어 나</w>
▁외 에는</w>
▁영수 증을</w>
▁언급 하며</w>
▁스 펙
▁선보 이고</w>
▁받 고자</w>
▁문화 유
▁더 해져</w>
▁답 변</w>
▁다 각
▁네트워 크를</w>
▁끄 는</w>
▁꾸 며
▁기준 은</w>
▁계 양
▁개성 공단</w>
▁각별 한</w>
형 과</w>
학 에</w>
커 가</w>
세 이
레이 션</w>
러 가</w>
경 찰</w>
경 과</w>
▁환 자를</w>
▁한 자리에</w>
▁진 전이</w>
▁지역 과</w>
▁주민 과</w>
▁종 류가</w>
▁조성 된</w>
▁정책 과</w>
▁의무 가</w>
▁육 군</w>
▁완료 된</w>
▁옮 기
▁열 기가</w>
▁어쩌 면</w>
▁알 아</w>
▁아시아나 항공
▁손 님</w>
▁세 트</w>
▁설치 가</w>
▁생 략
▁비 전을</w>
▁보여 줬다</w>
▁버닝 썬</w>
▁방식 은</w>
▁못 했다는</w>
▁모 른
▁되 어서</w>
▁돌아 올</w>
▁돌아 오는</w>
▁대 입
▁골 드
▁199 6</w>
칭 을</w>
조 치
워 야</w>
시험 을</w>
법 규
만 으로는</w>
기업 인</w>
기 반</w>
공무 원이</w>
경기 도
가 락</w>
▁합 작
▁캠 프</w>
▁정신 적</w>
▁일 요일</w>
▁이용 을</w>
▁이사 장이</w>
▁이루어 질</w>
▁유 망</w>
▁위원 회에서</w>
▁우려 되는</w>
▁영업이 익이</w>
▁알려 지지</w>
▁아 스
▁불 구속</w>
▁변 상
▁발 급</w>
▁받았 어요</w>
▁바뀌 는</w>
▁메 이</w>
▁마음 껏</w>
▁뒤 에도</w>
▁데이 비
▁단 축</w>
▁늦 어
▁늘어 났
▁기록 해</w>
▁구 로구</w>
▁과기 정통
▁경쟁 률을</w>
▁검토 한</w>
v N</w>
학 규</w>
타 당
카 페
질 수록</w>
저 감
이 용</w>
애 를</w>
션 의</w>
복 이</w>
르 면서</w>
디 스플
▁확보 에</w>
▁증 거</w>
▁준비 할</w>
▁준비 되어</w>
▁좋아 하지</w>
▁오 신</w>
▁엑 스
▁없 으니</w>
▁엄마 는</w>
▁어 딘
▁시 각</w>
▁스트 리
▁스웨 덴</w>
▁선 착
▁삼성 물
▁변경 이</w>
▁미드 필
▁막 는</w>
▁때 로는</w>
▁도민 들이</w>
▁대기 오염
▁농업 기술
▁노동 자가</w>
▁김영 철</w>
▁기술 로</w>
▁공간 에</w>
▁F C</w>
▁CN N</w>
o r</w>
행 위
하시 나요</w>
하 진</w>
여 개의</w>
아 웃</w>
다 리</w>
교육 의</w>
개 는</w>
▁해양 수산
▁해 상에서</w>
▁한 글</w>
▁콘서 트
▁컨 소시
▁커 리
▁청 소</w>
▁진상 규
▁지속 되고</w>
▁중요 하다는</w>
▁중 반
▁자 원을</w>
▁있 음에도</w>
▁익숙 한</w>
▁이 마
▁의사 결
▁위 기가</w>
▁연습 을</w>
▁언젠 가</w>
▁아 리
▁수 당을</w>
▁세 르
▁서 식</w>
▁문 학</w>
▁메뉴 를</w>
▁매뉴 얼
▁맞 았다</w>
▁들 지</w>
▁꽃 꽃</w>
▁그러 니</w>
▁국 회를</w>
▁구매 하는</w>
▁개 막</w>
▁강 의</w>
▁가 스</w>
하 니까</w>
표 준
커 를</w>
자 금
인 구가</w>
이 니까</w>
워 하는</w>
슨 이</w>
면 서
남 북
기 사</w>
▁한 시
▁파 격
▁캠 프
▁친구 들은</w>
▁집 회</w>
▁진 진</w>
▁지 냈
▁증 정
▁주 춤
▁이해 하기</w>
▁유럽 의</w>
▁유 익
▁와이 파
▁압박 을</w>
▁안 드
▁실 무</w>
▁신 발
▁시 가
▁서 포
▁비 판</w>
▁분야 가</w>
▁부장판 사</w>
▁바르 셀로
▁미안 해요</w>
▁높 여
▁노력 하는</w>
▁금 요일에</w>
▁교 회를</w>
▁공 지
퍼센 트</w>
지 구
정 원</w>
시간 으로</w>
스타 일</w>
비 용이</w>
밥 을</w>
바 닥
모 든</w>
라 리</w>
기업 으로</w>
고 기
▁효율 성을</w>
▁호흡 을</w>
▁편안 하게</w>
▁컨 트
▁지시 했다</w>
▁지 사
▁주관 으로</w>
▁정부 에서</w>
▁정 원
▁작품 이다</w>
▁이슬 람</w>
▁영 역을</w>
▁업무협 약을</w>
▁안전 성</w>
▁안 다</w>
▁안 건을</w>
▁실 험</w>
▁선수 들은</w>
▁비 디오</w>
▁북미 정상회담</w>
▁봤 어요</w>
▁밴 드</w>
▁면 제</w>
▁만나 게</w>
▁때 와</w>
▁들어 선</w>
▁담 배</w>
▁단체 의</w>
▁느껴 지는</w>
▁나 름
▁교수 와</w>
▁거 지</w>
▁개발 하는</w>
▁가 방</w>
▁가 늠
▁7 7</w>
▁199 4</w>
자동 차가</w>
월드 컵
우 주
언 론
션 과</w>
쁩 니다</w>
비 행
부 족
번 의</w>
담 한</w>
거 야</w>
▁했 으며</w>
▁햄 버
▁타 결
▁출 하
▁창 립</w>
▁진 압
▁진 단</w>
▁지정 하여</w>
▁조언 했다</w>
▁작성 하고</w>
▁이 시
▁의심 되는</w>
▁음식 에</w>
▁유력 한</w>
▁오 바
▁예정 돼</w>
▁예방 접
▁연말 까지</w>
▁없었 고</w>
▁어디 에서</w>
▁양 보
▁아버 지
▁빠 졌다</w>
▁불투 명
▁불이 익을</w>
▁맞 아요</w>
▁드 레
▁당 했다</w>
▁당 부
▁느 낀
▁논의 했다</w>
▁넘어 서
▁기자 들과</w>
▁국가 에서</w>
▁국가 를</w>
▁걸 림
할 까</w>
집 은</w>
으 므로</w>
모 니
년 은</w>
공 단이</w>
▁향 이</w>
▁프로젝 트가</w>
▁탄 력을</w>
▁컨설 팅
▁전 자</w>
▁자율주 행</w>
▁있었 으며</w>
▁입 상
▁이어 갈</w>
▁이 윤
▁이 순
▁운 항
▁예산 안</w>
▁어두 운</w>
▁싼 싼</w>
▁성추 행</w>
▁상품 에</w>
▁부분 에서</w>
▁받았 다는</w>
▁무 리가</w>
▁내 정
▁그렇 지만</w>
▁강 북
▁가능 해요</w>
통 은</w>
워 드</w>
신 다</w>
먼 트</w>
대 회
노 인</w>
게 까지</w>
▁향 상</w>
▁폭 력</w>
▁투자 하는</w>
▁터 져</w>
▁지급 을</w>
▁중 학교
▁중 계
▁재 고가</w>
▁입 사
▁완 료</w>
▁예 매
▁연구 에</w>
▁없었 어요</w>
▁아래 에</w>
▁심 판
▁스위 스</w>
▁서비 스로</w>
▁생산 이</w>
▁산업 을</w>
▁바 빠
▁명 령을</w>
▁마련 하는</w>
▁러시아 의</w>
▁러시아 가</w>
▁돌아 가는</w>
▁단속 을</w>
▁노동 자들이</w>
▁내 부에</w>
▁내 기</w>
▁나 간</w>
▁기다 려</w>
▁국민청 원</w>
▁구속영 장이</w>
▁감사 드린다</w>
▁M C</w>
캠 프</w>
증 진
움 은</w>
사 례</w>
교육 이</w>
강 이</w>
▁협 력이</w>
▁현 안
▁평 창</w>
▁펼 친</w>
▁투 쟁
▁태 풍이</w>
▁추 운</w>
▁최 저</w>
▁참가 했다</w>
▁지적 을</w>
▁중 요</w>
▁종 결
▁전달 할</w>
▁적 혀</w>
▁자 활
▁일 요
▁어 젯
▁야 기
▁알 기</w>
▁신청 하면</w>
▁시너 지</w>
▁스트레 스</w>
▁세계 가</w>
▁사랑 에</w>
▁박 차를</w>
▁미 추홀
▁대행 한다</w>
▁대 중</w>
▁다 시
▁높 을</w>
▁권한 이</w>
▁국제 적</w>
▁국 산</w>
▁공개 된다</w>
▁건 수가</w>
▁가맹 점</w>
▁가 톨
후 보
현 장에서</w>
임 한</w>
수 탁
수 처리
상공 회의
벨 트</w>
미 와</w>
문재 인</w>
면 허
디 지
되었 는데</w>
당 으로</w>
끄 럽
구 민
▁휴대 폰
▁핸드 폰</w>
▁피아 노</w>
▁품 고</w>
▁코스 닥</w>
▁친 근
▁초청 해</w>
▁채 로</w>
▁차 관이</w>
▁중 점을</w>
▁전쟁 을</w>
▁적용 하는</w>
▁저렴 하게</w>
▁장면 은</w>
▁이 대
▁위원 회를</w>
▁영 장을</w>
▁시스템 은</w>
▁부진 한</w>
▁번 호
▁반 갑
▁밀 접한</w>
▁따라 야</w>
▁동 부
▁더 했다</w>
▁다 리가</w>
▁눈 높
▁낮 게</w>
▁구속 된</w>
▁계획 은</w>
▁건강 하게</w>
▁거 다</w>
티 스</w>
청 장</w>
천 만원</w>
자 들도</w>
영화 제</w>
스 와의</w>
사회 적</w>
면 세
령 은</w>
려 도</w>
란 시
나 눔
공 원에서</w>
▁환 수
▁홈 홈</w>
▁포기 하지</w>
▁폐 기</w>
▁투자 유
▁증가 에</w>
▁즐거 움을</w>
▁전 하고</w>
▁잠 이</w>
▁있 죠</w>
▁일어 났다</w>
▁이 산화
▁안 보</w>
▁상당 수가</w>
▁북 쪽</w>
▁무게 를</w>
▁무 렵</w>
▁목표 는</w>
▁모습 과</w>
▁대한민 국
▁대 안을</w>
▁다 릅니다</w>
▁높 지</w>
▁넥 센</w>
▁김 학의</w>
▁구축 하고</w>
▁공부 할</w>
▁공 사는</w>
▁걷 는</w>
▁199 5</w>
▁19 60</w>
▁1 40</w>
항 만
학 원</w>
포인 트</w>
측 에</w>
증 명
죄 가</w>
앞 으로도</w>
아 이</w>
림 의</w>
들 께서</w>
담 보
근로 자</w>
▁호기 심을</w>
▁형 식
▁하 에</w>
▁판단 이다</w>
▁파 장이</w>
▁특 수</w>
▁차례 로</w>
▁중 견
▁적 도</w>
▁인 구의</w>
▁영화 제</w>
▁역 역</w>
▁악 영
▁수 납
▁소 형
▁소 위</w>
▁빼 고</w>
▁빅 뱅
▁부산 시</w>
▁베 테
▁범 위가</w>
▁발표 하는</w>
▁등 산
▁군 은</w>
▁국 국</w>
▁경찰 청</w>
▁거 라는</w>
▁가 자</w>
▁7 6</w>
행 사
하시 기</w>
재 해</w>
자 리</w>
우 기</w>
여 름</w>
약 한</w>
수 출
빈 이</w>
병 원이</w>
박람 회</w>
만 히</w>
리 안</w>
되 는지</w>
공 화
고 에서</w>
겠 다며</w>
▁확정 됐다</w>
▁학생 들과</w>
▁투자 자들의</w>
▁캘리포 니아
▁취약계 층</w>
▁체 육</w>
▁책 의</w>
▁정보 는</w>
▁잠시 만</w>
▁이렇 다</w>
▁연계 한</w>
▁알 코
▁설 비</w>
▁선물 로</w>
▁서 기는</w>
▁사 서</w>
▁비밀 을</w>
▁부 유
▁본 선</w>
▁물 류</w>
▁몰 라</w>
▁목 포
▁모니터 링</w>
▁런 던</w>
▁들어 왔
▁도로 가</w>
▁대 규모
▁대 가</w>
▁능 력
▁꺼 내
▁금 리가</w>
▁규정 하는</w>
▁구 름이</w>
▁고객 은</w>
▁고 혈
▁고 립
▁경기 침
▁개정 안</w>
▁강 세를</w>
▁가르 쳐</w>
S T</w>
D A</w>
해 선</w>
천 을</w>
조 정</w>
일 반
운 동이</w>
에 미
민 원
문 제
대학 원</w>
권 익
개 선을</w>
▁핸드 폰을</w>
▁항소 심</w>
▁한 겨
▁트 레
▁콘서 트가</w>
▁지난해 에</w>
▁정 밀
▁이재 용</w>
▁위촉 된</w>
▁원 동
▁여 건을</w>
▁약 간의</w>
▁압수수 색</w>
▁쏟아 졌다</w>
▁신고 했다</w>
▁시 도</w>
▁스 리
▁숨 을</w>
▁손흥 민은</w>
▁성 립
▁사용 자의</w>
▁사업 계획
▁보냈 습니다</w>
▁변 수가</w>
▁문제 도</w>
▁문 의</w>
▁메 뉴</w>
▁만 약에</w>
▁두 산
▁당 의</w>
▁늘 리
▁내놓 고</w>
▁김 관
▁기반 이</w>
▁기 사는</w>
▁근로 자가</w>
▁관 하여는</w>
▁공화 당</w>
▁공 기가</w>
▁가 짜</w>
u t
6 000</w>
학생 을</w>
트 인</w>
총 은</w>
준 은</w>
주의 의</w>
서 류를</w>
사회 적
령 의</w>
래 는</w>
념 이</w>
▁환 전
▁한국 노
▁하나 님</w>
▁특별 감
▁집 값이</w>
▁지역 주
▁지 고</w>
▁제도 적</w>
▁전 원</w>
▁장 점이다</w>
▁월 드</w>
▁요청 합니다</w>
▁없 거나</w>
▁않 을
▁식품 의약
▁스타트 업
▁스 킨
▁수준 인</w>
▁선보 이며</w>
▁사람 입니다</w>
▁번 씩</w>
▁물 건</w>
▁문 의가</w>
▁무 릎</w>
▁모 를</w>
▁말씀 해</w>
▁말 했다고</w>
▁던 진</w>
▁담겨 있다</w>
▁단계 에서</w>
▁나타 난다</w>
▁꽃 을</w>
▁그 야말로</w>
▁국민 일
▁공무 원으로</w>
▁건 네
▁개정 안을</w>
▁가능 할까요</w>
하 죠</w>
청 구
주 들이</w>
원 자
였 을</w>
사이 트</w>
병 원에</w>
뱅 크</w>
문화 가</w>
로 지</w>
단 계
구 민</w>
▁컴퓨 터를</w>
▁충 무
▁직 업</w>
▁지난해 에는</w>
▁정책 은</w>
▁전체 적인</w>
▁자 기가</w>
▁위험 에</w>
▁월 요일</w>
▁연 대
▁에피 소
▁싶 은데요</w>
▁실 장은</w>
▁숨 지게</w>
▁설치 돼</w>
▁생 긴다</w>
▁상승 한</w>
▁사로잡 았다</w>
▁보내 준</w>
▁발 명
▁달콤 한</w>
▁금융 위기</w>
▁권 리</w>
▁공연 에</w>
▁공 제
▁가 려면</w>
) ”</w>
키 는</w>
취 약
직 의</w>
증 에</w>
있 고</w>
업 계의</w>
상 품을</w>
사령 부</w>
딩 을</w>
독 한</w>
끼 를</w>
금 액을</w>
그 라
▁했 기</w>
▁풍 성한</w>
▁포 스트
▁폐기 물
▁파 견</w>
▁치 는</w>
▁첫 날</w>
▁지금 부터</w>
▁중 남
▁줄 여
▁자 문</w>
▁인 접
▁인 생의</w>
▁월 스트
▁왕 세
▁양 측이</w>
▁써 써</w>
▁선언 했다</w>
▁상 처가</w>
▁비 하
▁본 질
▁미 소를</w>
▁맞물 려</w>
▁말 부터</w>
▁드 림
▁대신 해</w>
▁다 할</w>
▁뇌 물
▁극 단</w>
▁국가 와</w>
▁국 어</w>
▁가능 하다면</w>
▁K IA</w>
e n</w>
1 5
카 메
재 해
자 리를</w>
의 견
은 은</w>
요 양
실 질
소 인</w>
발 로</w>
루 는</w>
▁횡 령</w>
▁표현 이</w>
▁포 항</w>
▁탄 핵</w>
▁출 전</w>
▁체 결</w>
▁첨부 된</w>
▁진 천
▁지키 기</w>
▁지방자치 단체가</w>
▁줬 다</w>
▁제한 이</w>
▁제 휴
▁점 심을</w>
▁전 날
▁적용 을</w>
▁일어나 고</w>
▁이집 트</w>
▁이용 에</w>
▁이 씨는</w>
▁용 기를</w>
▁외 곽
▁예고 했다</w>
▁연 체
▁어 색
▁안전 에</w>
▁실 수를</w>
▁송 부
▁생각 은</w>
▁빈 곤
▁비 디오
▁방문 객
▁받아들 일</w>
▁믿 는</w>
▁매 달
▁때 만</w>
▁녹 지
▁기술 개발
▁공개 해</w>
▁공간 에서</w>
▁계 신</w>
▁견 적
후 의</w>
학 회</w>
포 지
타 는</w>
초 를</w>
중 의</w>
의 전
윤 리
유 로</w>
시설 은</w>
봉 을</w>
면 에는</w>
메 시
망 에</w>
롭 지</w>
▁흘러 나
▁홍보 대
▁해소 하기</w>
▁한국 영
▁커 지자</w>
▁질 이</w>
▁조용 히</w>
▁장 비
▁입 학</w>
▁영 향</w>
▁언론 들은</w>
▁시스템 에</w>
▁스 키
▁사이 트를</w>
▁사무 실에</w>
▁불가능 하다</w>
▁보 존</w>
▁배우 가</w>
▁배경 에</w>
▁무 상으로</w>
▁때문 이었다</w>
▁되 게</w>
▁대 두
▁다 닐</w>
▁나왔 습니다</w>
▁나 눔</w>
▁그 들</w>
▁7 4</w>
플 랫
지난 해</w>
원 장이</w>
업체 와</w>
소 송</w>
대 회에</w>
대 교</w>
께 서는</w>
기 온이</w>
▁투 기
▁콘 퍼런
▁지난 주에</w>
▁주장 도</w>
▁주 간</w>
▁좋아 하고</w>
▁입 었다</w>
▁일 정으로</w>
▁이유 도</w>
▁열 정을</w>
▁역 동
▁안타까 운</w>
▁안전 사고</w>
▁실 태를</w>
▁시작 했습니다</w>
▁세 대가</w>
▁서울 은</w>
▁서울 로</w>
▁살 기</w>
▁명 목으로</w>
▁마련 에</w>
▁들어 간다</w>
▁되 기도</w>
▁대 접
▁담당 하고</w>
▁단 지
▁교육 감이</w>
▁관리 와</w>
▁관 객</w>
▁공연 과</w>
▁공 용
▁결 론이</w>
201 5</w>
타 로</w>
줘 요</w>
자 보호
인 데요</w>
으로 서는</w>
약 의</w>
비 아
발 생</w>
내 야</w>
기술 이</w>
▁프로젝 트에</w>
▁표 출
▁포 지
▁평 택</w>
▁팔 을</w>
▁판 로
▁최종 적으로</w>
▁청 약</w>
▁집 권
▁지켜 보
▁지 도를</w>
▁주 장에</w>
▁제한 하는</w>
▁전자 상
▁잠 정</w>
▁이 끈</w>
▁음 란
▁유 치를</w>
▁위 상을</w>
▁올라 왔다</w>
▁여름 에</w>
▁없었 지만</w>
▁언 어</w>
▁어려 웠
▁안 의</w>
▁시 의
▁시 기는</w>
▁손 학규</w>
▁살펴 보고</w>
▁본 인
▁민 원</w>
▁명 단을</w>
▁먹 으러</w>
▁마 스터
▁뜨겁 다</w>
▁드 릴까요</w>
▁눈 앞
▁김 장
▁금 요
▁구제 역</w>
▁관객 이</w>
▁경 비</w>
▁강력 히</w>
▁가능 성</w>
▁B TS</w>
정 부와</w>
스 턴</w>
수 당을</w>
부 서에</w>
만 대</w>
날 을</w>
▁호 남
▁팬 들과</w>
▁투자 에</w>
▁캠페 인을</w>
▁카 타
▁점 포
▁장르 의</w>
▁자리 로</w>
▁이 원
▁의 무</w>
▁와 중에</w>
▁연루 된</w>
▁싶 다고</w>
▁수 행</w>
▁수 시</w>
▁소비 가</w>
▁성 접
▁살 인</w>
▁무 덤
▁드러 낸</w>
▁대다 수</w>
▁단 일</w>
▁늘어 났다</w>
▁그러 던</w>
▁권 역
▁광화 문</w>
▁건 국
▁개 시
▁8 8</w>
D S</w>
짐 에</w>
주택 을</w>
조 리
시설 로</w>
보 장</w>
백 만</w>
모 비
도시 로</w>
계 층</w>
결 제
▁확대 와</w>
▁협 상의</w>
▁현실 이다</w>
▁행 안
▁할리우 드</w>
▁패 배
▁팀 에</w>
▁추 석
▁차 관
▁주 소</w>
▁조 사는</w>
▁조 립
▁전체 에</w>
▁전 쟁이</w>
▁자연 스러운</w>
▁자격 증을</w>
▁이 지
▁아 빠</w>
▁숙 명
▁세 상이</w>
▁세 상에서</w>
▁상품 으로</w>
▁산업 에</w>
▁무사 히</w>
▁말 합니다</w>
▁마 운
▁로 그
▁대상 에서</w>
▁당연 한</w>
▁국토교통 부가</w>
▁과거 에는</w>
▁과거 사
▁골키 퍼</w>
▁거짓 말
i r
협 회는</w>
했 음에도</w>
위 권</w>
오 늘</w>
속 에서</w>
상 도</w>
봉 투
범 이</w>
레 인</w>
단체 를</w>
나이 티
▁홍영 표</w>
▁향 하는</w>
▁한국 어로</w>
▁학 식과</w>
▁특 정한</w>
▁친 화
▁참석 하고</w>
▁진출 이</w>
▁제 외</w>
▁입 시
▁이 웃</w>
▁위치 하고</w>
▁영 어가</w>
▁에이 전
▁센 터는</w>
▁상황 과</w>
▁상승 했다</w>
▁보 시면</w>
▁발의 한</w>
▁밖 밖</w>
▁마음 의</w>
▁달 려</w>
▁늘 리고</w>
▁놀 랍
▁내려 진</w>
▁내 로</w>
▁구 금
▁고마 워요</w>
▁고 품
▁가 도</w>
L G</w>
피 해가</w>
제 인</w>
율 과</w>
써 부터</w>
베 르
범 위</w>
배 출
미 르</w>
만큼 은</w>
농 가</w>
기업 들이</w>
경 영</w>
▁협 의회</w>
▁파 일</w>
▁투 기</w>
▁찾아 온</w>
▁차량 은</w>
▁지시 한</w>
▁재 조
▁이사 회</w>
▁이뤘 다</w>
▁원칙 을</w>
▁열 차</w>
▁역 사의</w>
▁없 다며</w>
▁아동 의</w>
▁신뢰 가</w>
▁순 위를</w>
▁성 범죄
▁선택 하는</w>
▁서울중앙지 법</w>
▁비 빔
▁불편 이</w>
▁부모 님
▁복 무
▁보 니까</w>
▁변 신
▁미 만의</w>
▁마 리가</w>
▁들어 설</w>
▁돌입 했다</w>
▁달 간</w>
▁다 시는</w>
▁다 른
▁뉴욕 에서</w>
▁노동 자의</w>
▁구 성을</w>
▁고 기를</w>
▁개최 됐다</w>
▁감 정</w>
▁가라 앉
사고 로</w>
버 스가</w>
되었 다는</w>
단 법인</w>
기 반
군 수</w>
▁힘 쓰
▁핵심 이다</w>
▁프로젝 트는</w>
▁코 미디
▁침 입
▁측 정</w>
▁초 록
▁중 화
▁중 대
▁주 재</w>
▁주 었다</w>
▁작품 의</w>
▁작품 으로</w>
▁일 간
▁이끌 었다</w>
▁응 모
▁엔터테인먼 트</w>
▁없었 다는</w>
▁악 취
▁수입 이</w>
▁수익 이</w>
▁소상공 인
▁선 전
▁사용 된</w>
▁사로잡 는다</w>
▁보 충
▁믿 는다</w>
▁미 군
▁몰 고</w>
▁마 실</w>
▁땅 땅</w>
▁되 살
▁덕 분
▁다가 오는</w>
▁광 복
▁광 명
▁공개 모
▁고양 이</w>
▁I P</w>
▁7 8</w>
F I
혜 택
하 지도</w>
지 라도</w>
시스템 에</w>
방 으로</w>
들 기</w>
단체 는</w>
기 독
고 용</w>
▁화 면</w>
▁현실 화
▁펼쳐 지는</w>
▁트위 터에</w>
▁토 크
▁타 입
▁카페 에서</w>
▁출석 한</w>
▁최우 수</w>
▁조례 의</w>
▁조 정을</w>
▁재적 위원</w>
▁읽 을</w>
▁일 명</w>
▁일 대에</w>
▁일 과</w>
▁인정 했다</w>
▁이동 하는</w>
▁온 갖</w>
▁영 상은</w>
▁여 부는</w>
▁아 토
▁아 들을</w>
▁식 중
▁승용 차</w>
▁소재 한</w>
▁세 금
▁사 들
▁부적 절한</w>
▁반 등
▁동작 구</w>
▁도시 계획
▁누 적
▁내 수</w>
▁나서 서</w>
▁김 일
▁급 한</w>
▁그림 이</w>
▁그러 므로</w>
▁경 매
▁강조 하고</w>
일 간의</w>
어 에서</w>
시 대의</w>
보 존
병 원에서</w>
간 다는</w>
가 던</w>
▁현실 이</w>
▁하 기도</w>
▁커뮤니 케이
▁진출 에</w>
▁즐 겁
▁일 요일에</w>
▁여 사가</w>
▁없 는지</w>
▁식 당에서</w>
▁속 초
▁병역 거
▁벌 써부터</w>
▁번 거
▁방 과</w>
▁무 소
▁면세 점</w>
▁동 물을</w>
▁댄 스
▁길 어
▁기무 사</w>
▁기념 촬
▁그런 지</w>
▁계획 입니다</w>
▁가져 올</w>
▁1 500</w>
T E</w>
희 는</w>
인 식</w>
원 전</w>
신 문은</w>
번 째로</w>
림 은</w>
▁효과 는</w>
▁회 사와</w>
▁혼 잡
▁혈 액
▁하루 를</w>
▁하락 세를</w>
▁청와 대와</w>
▁직 무</w>
▁주 저
▁제 약</w>
▁장애 인의</w>
▁자 격</w>
▁이용 하면</w>
▁음식물 류</w>
▁유 감
▁오 산
▁여름 방
▁알려 야</w>
▁안전 관리
▁아름다 움을</w>
▁실현 을</w>
▁수 의</w>
▁상 금</w>
▁삶 삶</w>
▁베네수엘 라</w>
▁범죄 를</w>
▁박 스</w>
▁문 서</w>
▁들 었는데</w>
▁돈 으로</w>
▁대비 한</w>
▁대 강
▁논란 은</w>
▁내 걸
▁납부 하여야</w>
▁광주 시는</w>
▁것 이라며</w>
▁개혁 을</w>
▁각 급</w>
▁가져 오
항 과</w>
하 자면</w>
추 어</w>
처 분을</w>
지 부</w>
인 드</w>
스 마트
변 에</w>
받 기</w>
년 간의</w>
내 용</w>
경제 의</w>
▁흰 색</w>
▁회 복</w>
▁확인 해
▁풍 성
▁코스 피</w>
▁최 선
▁철 수
▁참가 자들은</w>
▁참가 자</w>
▁증가 해</w>
▁종합 적인</w>
▁조 건</w>
▁정 우
▁점 수가</w>
▁전 화가</w>
▁재 료를</w>
▁자료 는</w>
▁있으 세요</w>
▁영 세
▁열 띤</w>
▁여러 분의</w>
▁알 릴</w>
▁아이 는</w>
▁시 카
▁시 연
▁소프트 웨
▁빨 간</w>
▁북한 이탈
▁보 아</w>
▁보 류
▁발견 한</w>
▁받아 서</w>
▁박람 회</w>
▁몰 리는</w>
▁만 하다</w>
▁돈 은</w>
▁독 서</w>
▁독 거
▁도 에</w>
▁대 치
▁담당 자</w>
▁다양 하고</w>
▁기재 부</w>
▁교육 감</w>
▁고 의
▁거 니</w>
▁o f</w>
했 거나</w>
중 심
어 스</w>
소득 이</w>
드 루킹</w>
니 스트</w>
▁현 역</w>
▁학 원</w>
▁포인 트를</w>
▁태 국
▁케이 블</w>
▁청 사</w>
▁조직 의</w>
▁제 보
▁있으 니까</w>
▁임 무를</w>
▁일시 적으로</w>
▁일 상을</w>
▁이동 이</w>
▁은행 이</w>
▁유지 하기</w>
▁유 착</w>
▁우 크
▁우 대
▁오 르고</w>
▁예방 하기</w>
▁안 락
▁신 재생
▁시험 이</w>
▁설치 되어</w>
▁사례 로</w>
▁부모 님이</w>
▁모바 일
▁도민 들의</w>
▁대법 원은</w>
▁답변 이</w>
▁기술 적</w>
▁기 피
▁괜찮 아요</w>
▁과 제가</w>
▁과 일</w>
▁공 기</w>
▁가난 한</w>
▁가 정을</w>
T C</w>
S C
O R
M P</w>
해보 세요</w>
해보 면</w>
프 리
증 후
여 년</w>
신 문
볼 게요</w>
보 유
문 제가</w>
량 한</w>
기 금
구 성
▁후보 자의</w>
▁허 리
▁한 일</w>
▁통신 원이</w>
▁통 계</w>
▁측 에서</w>
▁전 력을</w>
▁인 계
▁운영 이</w>
▁우리 와</w>
▁오 류가</w>
▁어 떡
▁양 평
▁아버 지는</w>
▁시행 한다</w>
▁시 장과</w>
▁빌 려</w>
▁불 불</w>
▁번째 는</w>
▁바 뀔</w>
▁문 자를</w>
▁무 리한</w>
▁목소 리도</w>
▁말 했어요</w>
▁대부 분을</w>
▁당신 도</w>
▁달라 질</w>
▁놓 여</w>
▁남녀 노
▁기쁨 을</w>
▁국민연 금이</w>
▁공유 할</w>
▁결정 적인</w>
▁같 이
▁L H</w>
투자 증권</w>
지 휘
인터 넷
위원 장을</w>
다 리
군 수
▁헝가 리</w>
▁필요 는</w>
▁축 구를</w>
▁추 출
▁채 취
▁착수 했다</w>
▁지 진</w>
▁조직 이</w>
▁전 두
▁자아 냈다</w>
▁이 끌</w>
▁을 지
▁위 장
▁여 자는</w>
▁없 이는</w>
▁업 계가</w>
▁아랍 에미
▁신 곡</w>
▁선수 들을</w>
▁생산 한</w>
▁사 유</w>
▁불법 촬
▁발 병
▁미 팅
▁모 래
▁말 아야</w>
▁따 져
▁단 어를</w>
▁내놓 았다</w>
▁내 수
▁내 달</w>
▁낮 고</w>
▁낙 태
▁근 절
▁거 점
▁거 센</w>
o c
창 업</w>
지 법</w>
지 급
전 통
임 은</w>
업 으로</w>
양 과</w>
신 도시</w>
물 인</w>
들 께</w>
▁힘들 어</w>
▁횡 단
▁활성 화와</w>
▁홈런 을</w>
▁펼쳐 질</w>
▁침 대</w>
▁징수 할</w>
▁증 빙
▁조치 로</w>
▁제공 합니다</w>
▁제 정</w>
▁접근 할</w>
▁입 원</w>
▁여 부와</w>
▁엔 진</w>
▁에어 컨</w>
▁없었 다고</w>
▁않 겠
▁아쉬 움을</w>
▁시행 하고</w>
▁시민 들에게</w>
▁빛 나는</w>
▁방 역
▁박 탈
▁미 팅</w>
▁무 선
▁못 했지만</w>
▁멤버 들의</w>
▁말 하면</w>
▁동 일</w>
▁동 방
▁도 매
▁누군 가</w>
▁누구 보다</w>
▁나가 겠다</w>
▁곡 을</w>
▁것 이기</w>
▁건 의</w>
▁각 광
▁6 9</w>
호 에서</w>
현 과</w>
티 브</w>
토 지
찬 이</w>
인 공
유 럽</w>
오 던</w>
신 고를</w>
수수 료</w>
니 와</w>
▁환 급
▁해외 로</w>
▁한 참</w>
▁크리 에이
▁지원 금을</w>
▁지나 지</w>
▁증거 인
▁증가 하면서</w>
▁조치 에</w>
▁제외 하면</w>
▁절 약
▁재 수
▁유 학
▁유 산
▁심 상
▁실 력
▁성 장과</w>
▁선택 이</w>
▁상 파
▁비례 대표
▁멜 로
▁도 주
▁늘 어</w>
▁논의 하는</w>
▁내부 에서</w>
▁내 부의</w>
▁기 승을</w>
▁금융 권</w>
▁국민 에게</w>
▁경기도 시
▁결정 하고</w>
▁개 설</w>
▁9 8</w>
IC T</w>
질 과</w>
중 에서</w>
위원 으로</w>
아 티
시켜 야</w>
기 나</w>
국 회</w>
공 사를</w>
개 정
간 접
간 이</w>
가 치
▁하나 씩</w>
▁평양 에서</w>
▁파 리
▁파 라
▁초과 하는</w>
▁짙 은</w>
▁중요 하지만</w>
▁조언 을</w>
▁제 재가</w>
▁전 부를</w>
▁잡 기</w>
▁작품 에</w>
▁인 생</w>
▁이 라
▁유전 자</w>
▁우려 된다</w>
▁영원 히</w>
▁안정 적</w>
▁신 호를</w>
▁신 형</w>
▁신 라
▁손 이</w>
▁소 재를</w>
▁소 장은</w>
▁사회공 헌
▁사망 자</w>
▁사 내
▁부족 하다는</w>
▁부 대</w>
▁보 강
▁민 원을</w>
▁맞 을</w>
▁맛있 게</w>
▁만 났다</w>
▁달 라는</w>
▁다 자
▁놀 랐
▁노 선을</w>
▁내 신</w>
▁날 로부터</w>
▁김 주
▁금융 위는</w>
▁경험 한</w>
▁겁 니까</w>
▁A P</w>
S T
홀 딩
해 에</w>
티 브
쳤 던</w>
척 이</w>
지 하
인 재
소 리가</w>
생활 에</w>
만 족
기 아
▁확보 했다</w>
▁푸 드
▁타당 성</w>
▁컴퓨 터
▁찾아 와</w>
▁찬 성으로</w>
▁조 화
▁정 도에</w>
▁전문가 와</w>
▁재난 안전
▁장애 가</w>
▁자율 적으로</w>
▁이뤄 지
▁영 남
▁연결 된</w>
▁약속 이</w>
▁알아 보
▁않았 는데</w>
▁아이디 어가</w>
▁쌍 둥이</w>
▁실험 을</w>
▁실 종</w>
▁시 신을</w>
▁스타디 움에서</w>
▁수 목
▁설명 하는</w>
▁선정 한다</w>
▁생 중
▁산불 이</w>
▁빼 돌
▁분 포
▁부모 와</w>
▁부당 하게</w>
▁보내 드리겠습니다</w>
▁문 건
▁말 하기</w>
▁마이 클</w>
▁마을 의</w>
▁마련 이</w>
▁마련 되어</w>
▁떠오 르고</w>
▁득 표
▁되돌 아
▁도로 에서</w>
▁데이 터가</w>
▁나 눈</w>
▁김병 준</w>
▁궁 극
▁구성 하며</w>
▁광 교
▁관여 한</w>
▁겨울 철</w>
▁개념 을</w>
r i
화 되면서</w>
해 와</w>
초 등학교</w>
자 연</w>
인 지
월말 까지</w>
우 지</w>
날 이</w>
광 장</w>
경 험
▁희 망</w>
▁홍콩 에서</w>
▁현대 차
▁하루 가</w>
▁하락 한</w>
▁처 리에</w>
▁제시 하고</w>
▁잔 잔</w>
▁이유 에서다</w>
▁옥 외
▁연 중</w>
▁연 세대</w>
▁여 전
▁심 리적</w>
▁식 의</w>
▁속 도</w>
▁세 트
▁비 무장
▁붙 은</w>
▁불 렀
▁부산 시
▁봤 는데</w>
▁미래 가</w>
▁많 았던</w>
▁동 구</w>
▁대응 에</w>
▁대 관
▁농 가
▁노트 북
▁꿈 은</w>
▁구입 할</w>
▁구 비
▁광 양
▁관련 해서</w>
▁공인 중
▁공 예
▁경 협
▁검토 하여</w>
총 회</w>
진 단</w>
요 구
왕 의</w>
였 기</w>
쓰 레
십 자
비 상
무 늬
들 입니다</w>
더 를</w>
닝 을</w>
구 청</w>
골 이</w>
▁환경 오염
▁혼란 을</w>
▁혼 합
▁협 약</w>
▁행 위에</w>
▁특징 이</w>
▁크 기의</w>
▁카자흐스 탄</w>
▁출 토
▁출 장을</w>
▁추진 될</w>
▁창 업을</w>
▁지 혜
▁주도 한</w>
▁조 처를</w>
▁조 정이</w>
▁전해 진다</w>
▁자영업 자</w>
▁잇따 르고</w>
▁일 었다</w>
▁인테리 어</w>
▁이 익</w>
▁의사 소
▁의 류</w>
▁울 릉
▁연방 준비
▁실태 조사를</w>
▁순 조
▁사이 로</w>
▁부 풀
▁보건복지 부</w>
▁보 이스
▁별 표
▁박 진
▁바 로잡
▁무 슬
▁대통령 에</w>
▁대 동
▁나 라는</w>
▁길 로</w>
▁광주 형</w>
▁공공 기관이</w>
▁고 유의</w>
▁건강 과</w>
▁개선 과</w>
▁가 구의</w>
▁S t
▁S W</w>
▁$ $</w>
항 에도</w>
하였 는데</w>
프로그램 을</w>
지 수가</w>
있 게</w>
인 원</w>
외 교
세 포
설 계
뮤 지
매 체</w>
돈 이</w>
▁회 원이</w>
▁확 대가</w>
▁호소 했다</w>
▁혁신 적인</w>
▁한 복을</w>
▁하락 했다</w>
▁평가 하고</w>
▁팬 미
▁차 가운</w>
▁좌 절
▁정책 으로</w>
▁재 고</w>
▁자녀 의</w>
▁자격 증</w>
▁임 대</w>
▁임 기가</w>
▁인터넷 에</w>
▁유 공
▁우선 순
▁왔 어</w>
▁완성 차</w>
▁영 위
▁아닌 가요</w>
▁수행 한다</w>
▁수업 은</w>
▁소통 하는</w>
▁소 액
▁석 방
▁삼성 의</w>
▁사람 이에요</w>
▁사 과</w>
▁불과 한</w>
▁발 언</w>
▁뮤직비 디오
▁모르 겠
▁맞 습니다</w>
▁떠 났다</w>
▁등 판
▁도봉 구</w>
▁고 난
▁경기 장</w>
▁객 실</w>
▁갑 질</w>
카 가</w>
집 의</w>
준 표</w>
용 의</w>
연 수</w>
언 더
순 환</w>
수요 가</w>
분 리</w>
북 한</w>
거 리에서</w>
▁흥 행</w>
▁형 제
▁파티 를</w>
▁트 래
▁친 한</w>
▁출 자
▁축 제로</w>
▁집 행</w>
▁주 류</w>
▁적용 된다</w>
▁장 치를</w>
▁인프라 가</w>
▁온 몸
▁여성 과</w>
▁에 듀
▁안 을</w>
▁스타 들이</w>
▁속 출
▁생각 한</w>
▁생 기고</w>
▁사무 의</w>
▁부족 으로</w>
▁보 자</w>
▁배경 에는</w>
▁못 지않
▁도입 에</w>
▁데 에는</w>
▁대상 자</w>
▁넘어 섰다</w>
▁나오 자</w>
▁나 고</w>
▁교 회에</w>
▁개최 한다고</w>
c e</w>
E S</w>
토 를</w>
조 사가</w>
오 프</w>
연 수
속 이</w>
산업 에</w>
로 에게</w>
더 스</w>
교 실</w>
공간 이</w>
경 제가</w>
▁휘 두
▁화 를</w>
▁헬 기</w>
▁필요 하면</w>
▁춘 천
▁창의 적인</w>
▁찍 어
▁찍 는</w>
▁제 치고</w>
▁전 주</w>
▁전 임</w>
▁전 년도</w>
▁의 문이</w>
▁위촉 할</w>
▁오 세요</w>
▁오 기</w>
▁영등 포
▁영 세</w>
▁여론 조사</w>
▁어렵 지</w>
▁소개 해</w>
▁서 정
▁빛 이</w>
▁불과 하다</w>
▁법 관</w>
▁민주 당은</w>
▁때 면</w>
▁두 며</w>
▁동일 하게</w>
▁도 서</w>
▁농 촌</w>
▁노력 해야</w>
▁국회의 원
▁공무 원과</w>
▁개 개
p p
해주 실</w>
해 드리겠습니다</w>
하였 으나</w>
하 늘
조 작</w>
오 늘
스 도</w>
상 이다</w>
빨 리</w>
분 한</w>
베 트
돼 서</w>
글로 벌</w>
그 린
공 급</w>
▁한 식
▁하 얀</w>
▁하 려는</w>
▁피 부가</w>
▁패키 지</w>
▁티 저</w>
▁추 격
▁지역 에는</w>
▁중요 성이</w>
▁종 업
▁이동 할</w>
▁오 브</w>
▁역사 적인</w>
▁없 네요</w>
▁알 아요</w>
▁쌓 은</w>
▁시 장으로</w>
▁소속 된</w>
▁삼성전 자의</w>
▁먹 을
▁떠 날</w>
▁뒤 인</w>
▁도 우
▁대한민 국을</w>
▁다 친</w>
▁기대 해본다</w>
▁건강 이</w>
▁E X
M A</w>
B M</w>
협 상</w>
츠 가</w>
총 을</w>
주 실</w>
업체 는</w>
신 문이</w>
시 나요</w>
머 스</w>
는 지도</w>
규 제
가 입
▁히 어로
▁할 머니</w>
▁특징 은</w>
▁치 킨</w>
▁추진 하기로</w>
▁총 장은</w>
▁지속 해서</w>
▁정보 와</w>
▁정보 기술</w>
▁전문가 의</w>
▁재 단</w>
▁자 신</w>
▁자 가
▁일 련의</w>
▁음 원</w>
▁유 성
▁원 고</w>
▁안 착
▁아픔 을</w>
▁아 주
▁시작 을</w>
▁시 켜
▁수입 을</w>
▁솔루 션을</w>
▁삼성전 자와</w>
▁붙 여</w>
▁본 청</w>
▁본 래</w>
▁보 궐
▁법 에</w>
▁벌어 지고</w>
▁문 구가</w>
▁무게 가</w>
▁모 임</w>
▁등장 해</w>
▁내 구
▁남북 정상회담</w>
▁나타 내는</w>
▁국토교통 부는</w>
▁과거 와</w>
▁공개 돼</w>
▁골키 퍼
효 율
환 은</w>
프 란시
코 드</w>
주 식
점 도</w>
작 은</w>
으 려</w>
용 은</w>
약 은</w>
부 가
들 이나</w>
광 주
관 계에</w>
▁화성 시</w>
▁협 회</w>
▁행 동</w>
▁해외 에</w>
▁충 당
▁지적 에</w>
▁좋아 해</w>
▁조 양호</w>
▁제출 했다</w>
▁전 액을</w>
▁재 개발</w>
▁있 겠다</w>
▁입 지를</w>
▁일으 킬</w>
▁음 료</w>
▁워 너
▁옴 부즈
▁예 예</w>
▁엿 볼</w>
▁에 버
▁양천 구</w>
▁않 으면서</w>
▁실종 된</w>
▁신 라</w>
▁시행 된</w>
▁시 정</w>
▁세 력이</w>
▁성 숙
▁생각 했어요</w>
▁산업통상자원 부</w>
▁보 람
▁발견 돼</w>
▁문 턱
▁목 에</w>
▁만남 이</w>
▁마을 을</w>
▁동물 보호
▁대 선
▁국 외</w>
▁경제 협력
▁Y G</w>
▁9 2</w>
지 자
종 에</w>
저 를</w>
명 령을</w>
다 거나</w>
국 악
▁환 자는</w>
▁폭발 적인</w>
▁체 제</w>
▁지도 부가</w>
▁제공 되는</w>
▁잠 실
▁이듬 해</w>
▁응답 자의</w>
▁없 어도</w>
▁신입 사
▁소통 이</w>
▁선거 를</w>
▁새 겨진</w>
▁사 내</w>
▁비 율</w>
▁백 두
▁발 길이</w>
▁받았 지만</w>
▁목 목</w>
▁명예 훼
▁만 큼
▁마케 팅을</w>
▁마을 에</w>
▁디스플 레이
▁드라마 는</w>
▁도와 주는</w>
▁도시 재생</w>
홍 보
카 드로</w>
즈 에</w>
적 입니다</w>
이 긴</w>
월 의</w>
원 입니다</w>
부동 산
복지 법</w>
르 가</w>
단 위</w>
과 정에</w>
▁후보 자는</w>
▁활 약이</w>
▁확 장</w>
▁필리핀 에</w>
▁폭 을</w>
▁펼 쳐</w>
▁친구 에게</w>
▁출 발</w>
▁출 고
▁최 정
▁최 전
▁진상 조사
▁중 립
▁조사 결과</w>
▁제주 도는</w>
▁제 안이</w>
▁정상 의</w>
▁접 한</w>
▁장 의</w>
▁있 기에</w>
▁일 정은</w>
▁위협 을</w>
▁요구 하며</w>
▁염 색
▁여 주
▁싶 을</w>
▁소 설</w>
▁서울 대
▁사 드</w>
▁부 른</w>
▁뭐 라고</w>
▁목 포</w>
▁명확 하게</w>
▁먹 거리</w>
▁도입 이</w>
▁도입 된</w>
▁내용 도</w>
▁국가 에</w>
▁구조 적</w>
▁과 감
▁고민 하는</w>
▁고 문
▁강화 에</w>
C A</w>
파 트
차례 에</w>
저 도</w>
사 실을</w>
부장 관이</w>
레 를</w>
대 구</w>
남 부
강 원도</w>
감 치</w>
▁힘들 어
▁훌 쩍</w>
▁총 리와</w>
▁참 관
▁증 선
▁종 교</w>
▁조 형
▁전달 한</w>
▁전 공</w>
▁자신 감이</w>
▁입 어
▁인지 도가</w>
▁유 나이티
▁안 산</w>
▁시 켜</w>
▁쉬 고</w>
▁사실 도</w>
▁봉사 활동을</w>
▁본 회의</w>
▁보이 면서</w>
▁벚 꽃
▁바라 보고</w>
▁무 력
▁모르 겠지만</w>
▁만 인</w>
▁마련 해야</w>
▁댓글 을</w>
▁대체 할</w>
▁급 감
▁관 절
▁계약 에</w>
▁걷 고</w>
▁건강 하고</w>
▁개그 맨</w>
▁개 입</w>
훈 은</w>
전 형</w>
전 략</w>
일 까</w>
인 력
야 지</w>
승 인</w>
사 회를</w>
비 율</w>
병 으로</w>
금 리가</w>
건 강</w>
▁활동 은</w>
▁확보 하는</w>
▁형성 된</w>
▁해결 에</w>
▁해 고
▁함 으로써</w>
▁포트 폴
▁판단 할</w>
▁출 력
▁추정 하고</w>
▁초 기
▁철 강</w>
▁지방 의</w>
▁정 동
▁적극 적</w>
▁자매 결
▁이 력
▁의 외
▁의 식이</w>
▁우 편
▁역 량
▁여 섯</w>
▁아이 스
▁신 발</w>
▁수 량을</w>
▁손 가락
▁서 술
▁브랜 드의</w>
▁부족 하다</w>
▁바뀌 고</w>
▁문제 점이</w>
▁무 궁
▁명 의로</w>
▁만 화
▁마련 하여야</w>
▁도서 관
▁도 울</w>
▁대응 하기</w>
▁대 조
▁꼬집 었다</w>
▁규칙 에</w>
▁국무위원 장과</w>
▁게 다가</w>
▁같 지</w>
▁강화 하기</w>
▁감 면</w>
S K</w>
K T</w>
1 000</w>
항 은</w>
추 는</w>
차 피</w>
중소 기업</w>
저 널</w>
재정 적</w>
은행 과</w>
에 까지</w>
실 적을</w>
소 재</w>
모 델</w>
관 리가</w>
▁한진 그룹</w>
▁하나 님을</w>
▁하 려면</w>
▁프리미어 리그</w>
▁판 사</w>
▁키 울</w>
▁커 서</w>
▁출석 해</w>
▁출 석</w>
▁청소년 의</w>
▁지 친</w>
▁중간 선거
▁주 둔
▁제 일
▁장학 금</w>
▁인 연이</w>
▁의 류
▁은행 에</w>
▁요 소를</w>
▁완 화를</w>
▁없 지</w>
▁신한 금융
▁수용 할</w>
▁분식 회계</w>
▁부분 이다</w>
▁부분 도</w>
▁방 지를</w>
▁발견 했다</w>
▁바 꾼</w>
▁민 사
▁못 했다고</w>
▁메뉴 가</w>
▁메 가
▁뜻 깊
▁동 서
▁답 이</w>
▁논란 의</w>
▁군 이</w>
▁국무장 관이</w>
▁광주 시
▁공공 기관의</w>
▁계좌 로</w>
▁결정 은</w>
▁가 꾸
u l
h a</w>
e m
축 구</w>
체 제를</w>
철 수</w>
자 리
연 락
세 권</w>
라이 언
금 액이</w>
경 제를</w>
▁협 박
▁학 기</w>
▁포르 투
▁포 스코</w>
▁퍼포먼 스를</w>
▁토 론</w>
▁초콜 릿
▁체 제를</w>
▁처 분</w>
▁지원 은</w>
▁줄 줄이</w>
▁주인공 이</w>
▁전 신
▁전 술
▁자 산을</w>
▁응답 이</w>
▁옷 이</w>
▁언 어를</w>
▁액 션</w>
▁악영 향을</w>
▁아파 트를</w>
▁쏟아 져</w>
▁스카 이
▁순 위에</w>
▁성장 한</w>
▁성 균
▁새 만
▁삶 과</w>
▁부 진이</w>
▁밝히 지</w>
▁발 탁
▁발 이</w>
▁바이 올
▁문화 관광
▁모집 에</w>
▁나오 기</w>
▁기록 하는</w>
▁교육 감
▁관계 로</w>
▁공모 를</w>
찌 감치</w>
직 에</w>
제 도
이었 으며</w>
운 반</w>
업 계는</w>
습 이</w>
셔 널
사 실</w>
받 게</w>
만 명
교육 과</w>
▁휩 쓸
▁활동 과</w>
▁학생 들</w>
▁표 했다</w>
▁표 정으로</w>
▁포함 되지</w>
▁특 검</w>
▁추진 하여야</w>
▁초등 학생</w>
▁초대 형</w>
▁처음 에</w>
▁지방 보조금</w>
▁지 각
▁증가 가</w>
▁주 먹
▁전형 적인</w>
▁이틀 간</w>
▁외 식
▁연구 위원은</w>
▁연결 해</w>
▁업체 와</w>
▁애플리케이 션</w>
▁시작 될</w>
▁스토 리
▁슈퍼 주
▁수 련
▁소 개</w>
▁셋 째</w>
▁생태 계를</w>
▁사실 과</w>
▁사 귀
▁불 에</w>
▁부적 절
▁보 장</w>
▁무 분
▁맞추 어</w>
▁만 듭니다</w>
▁독 보
▁달 할</w>
▁기 차
▁국 립</w>
▁과도 하게</w>
▁공개 하지</w>
▁결 제를</w>
▁게임 이</w>
▁t vN</w>
▁N C</w>
▁8 7</w>
S J</w>
G V</w>
7 000</w>
201 4</w>
회 말</w>
축 을</w>
증 진을</w>
아무 개</w>
사 실
물 질을</w>
모 닝
년 만에</w>
구 매</w>
▁힙 합</w>
▁프 라
▁펼쳐 진</w>
▁펀 드
▁퍼 레이
▁투자 한</w>
▁청와 대에서</w>
▁진출 할</w>
▁지역 구</w>
▁제시 할</w>
▁제 도의</w>
▁전 보다</w>
▁적 어
▁저 가</w>
▁장 으로</w>
▁일부 러</w>
▁의미 하는</w>
▁안 건의</w>
▁선 두
▁생각 해
▁상 륙
▁분 쟁</w>
▁벌 여</w>
▁방 으로</w>
▁민주 당의</w>
▁마 켓
▁리 듬
▁드 문</w>
▁드 리고</w>
▁됩 니까</w>
▁됐 어요</w>
▁노 사가</w>
▁노 르
▁남편 은</w>
▁남북 관계</w>
▁꿈 과</w>
▁기울 이고</w>
▁기억 을</w>
▁국민 을</w>
▁교 실</w>
▁U S
▁4 000</w>
o s
푸 드</w>
토 의</w>
자 라는</w>
일 랜드</w>
이라 면서</w>
으 론</w>
위원 을</w>
우 면</w>
실 천
새 로운</w>
사 로부터</w>
민 들의</w>
기 한이</w>
군 으로</w>
▁하늘 을</w>
▁푸 른</w>
▁표 정을</w>
▁취 해</w>
▁출 자</w>
▁직원 에게</w>
▁중 순</w>
▁좋 았다</w>
▁제기 돼</w>
▁입 구에</w>
▁이루어 지는</w>
▁의 심</w>
▁유명 하다</w>
▁여 비를</w>
▁않 겠다</w>
▁쓰레 기를</w>
▁쓰 이는</w>
▁시 그
▁설명 해</w>
▁석 탄
▁생 리
▁배 수
▁바다 를</w>
▁바 퀴
▁미 니</w>
▁명 으로</w>
▁마찬가 지
▁도모 하기</w>
▁누 설
▁김 미
▁규정 은</w>
▁귀 찮
▁권 익
▁국방 부가</w>
▁국 회의</w>
▁게시 판에</w>
▁걸 어서</w>
i a</w>
P A</w>
G B</w>
회 째를</w>
하 게도</w>
총 괄
유 럽
속 으로</w>
서비 스가</w>
생 과</w>
블 록
부 장이</w>
법 률
명 하게</w>
▁흉 기로</w>
▁확정 되면</w>
▁판 사는</w>
▁투자 와</w>
▁퇴 근</w>
▁클 리
▁카카 오</w>
▁촬영 이</w>
▁초과 할</w>
▁초 부터</w>
▁차 별</w>
▁집중 하는</w>
▁지하철 을</w>
▁지 어
▁즐 겨
▁주민 들에게</w>
▁자 생
▁자 리는</w>
▁있어 서는</w>
▁일본 군</w>
▁인천 시</w>
▁위원 에게</w>
▁운 행이</w>
▁우리나라 에서</w>
▁요구 된다</w>
▁와 인</w>
▁십 자
▁수익 률이</w>
▁센터 장은</w>
▁성남 시</w>
▁석 석</w>
▁상 시
▁상 가
▁사랑 하고</w>
▁뿌 듯
▁비영 리</w>
▁브리핑 에서</w>
▁분명 하다</w>
▁미안 해</w>
▁독 창
▁도착 하면</w>
▁도입 해</w>
▁느껴 진다</w>
▁녹 음
▁노력 해</w>
▁넥 센
▁급격 하게</w>
▁귀 가
▁경 고</w>
▁건강 보험</w>
▁8 6</w>
▁1 70</w>
주 일</w>
졌 어</w>
전 선
적 과</w>
자 원을</w>
으 신</w>
여 고</w>
압 의</w>
수 련
상태 에</w>
마 드</w>
리그 에서</w>
류 로</w>
등 급을</w>
구 역을</w>
겠 지</w>
▁환 율
▁환 상
▁해당 되는</w>
▁평 일</w>
▁페 르
▁투 명한</w>
▁태 도가</w>
▁탈 북
▁카 테
▁침 수
▁촛 불
▁중소기업 을</w>
▁중 동
▁전 락
▁재 확인
▁작품 들이</w>
▁자 원</w>
▁있는 가</w>
▁일 자</w>
▁인 물</w>
▁옆 에서</w>
▁알려 주는</w>
▁안전 과</w>
▁시 도가</w>
▁설치 하여야</w>
▁서울 시장</w>
▁사진 으로</w>
▁사이 트에</w>
▁사랑 과</w>
▁빚 어
▁박 찬
▁미 생
▁못 한다는</w>
▁모습 도</w>
▁마 카
▁라 인</w>
▁동 창
▁날 씨</w>
▁낙 후
▁나가 서</w>
▁김 포</w>
▁김 은
▁김 윤
▁그 라운
▁국무총 리가</w>
▁괜찮 아</w>
▁관리 주
▁공개 할</w>
▁강경 화</w>
▁강 성
▁9 00</w>
▁8 3</w>
O N</w>
한 가요</w>
탕 을</w>
운 다</w>
사 나</w>
만 명에</w>
다 양
농 구</w>
▁확 대로</w>
▁향 상과</w>
▁해 병
▁한 껏</w>
▁하 실</w>
▁피 하기</w>
▁피 로
▁품 질이</w>
▁표현 하는</w>
▁판 결</w>
▁최 장</w>
▁총 력을</w>
▁체감 할</w>
▁직원 들에게</w>
▁조 국</w>
▁점유 율</w>
▁전 동
▁적 시
▁자 세를</w>
▁일 원에서</w>
▁인 접한</w>
▁월스트 리트
▁왔 을</w>
▁옛 날
▁예 수</w>
▁연예 인</w>
▁앉 아서</w>
▁아 사
▁시민 사회
▁숙 박</w>
▁소 독
▁선정 할</w>
▁선언 한</w>
▁샌 프란시
▁상 한
▁상 공
▁사회공 헌</w>
▁사 안에</w>
▁보 았습니다</w>
▁매 체는</w>
▁따 르
▁도 청</w>
▁도 래
▁대출 이</w>
▁다 중
▁다 뤄
▁넘 을</w>
▁넘 긴</w>
▁꽃 이</w>
▁김 도
▁기다려 야</w>
▁기관 과</w>
▁경상 북도</w>
▁개 시</w>
▁같 다는</w>
▁강 제로</w>
▁갈 라
▁1 1
효 과</w>
행 위에</w>
플루 엔
처 에서</w>
중 이다</w>
운동 의</w>
왔 어요</w>
봤 는데</w>
병 에</w>
드리 도록</w>
과 에서</w>
▁후원 하는</w>
▁행사 에서는</w>
▁해 온</w>
▁피해 는</w>
▁토로 했다</w>
▁콘 크
▁채 권</w>
▁차 원
▁지 수가</w>
▁증 여
▁주목 하고</w>
▁주 관</w>
▁점 과</w>
▁전달 하고</w>
▁전 한다</w>
▁잡 힌</w>
▁잘 하고</w>
▁일 원
▁이루어 지고</w>
▁윌 리
▁워 킹
▁오사 카</w>
▁애 국
▁아 들의</w>
▁아 기</w>
▁실패 한</w>
▁순 위가</w>
▁소유 한</w>
▁세 포
▁선거 제</w>
▁상태 였다</w>
▁살 면서</w>
▁사무 실을</w>
▁비난 을</w>
▁블로 그
▁블랙 핑
▁분야 로</w>
▁방식 에</w>
▁발굴 해</w>
▁밀 어붙
▁미국 산</w>
▁맞 춤</w>
▁마 리</w>
▁랜 드
▁도 민이</w>
▁데 서</w>
▁끌 려
▁기 관은</w>
▁구 사
▁걸 었다</w>
▁8 1</w>
▁1 2
4 000</w>
프 로</w>
품 안전
캠퍼 스</w>
처 벌
처 로</w>
지 출
줄 게요</w>
웠 고</w>
왔 지만</w>
시 도</w>
소 리를</w>
브 랜드</w>
부 평
대상 자</w>
농 도</w>
▁횡 령
▁회의 록을</w>
▁한국 당은</w>
▁포 털</w>
▁평생 교육</w>
▁튼 튼
▁통 화를</w>
▁터 라</w>
▁코 치
▁출범 한</w>
▁참석 하여</w>
▁집 무
▁직권 남
▁좋 지만</w>
▁자원 봉사</w>
▁일 찌감치</w>
▁인정 될</w>
▁인 상으로</w>
▁음악 에</w>
▁운영 되는</w>
▁운동 은</w>
▁오 프
▁아파 트가</w>
▁아니 하는</w>
▁수 년간</w>
▁소 망
▁선거 에</w>
▁서귀 포
▁서 대문
▁빌 딩
▁부 천</w>
▁방송 통신
▁목표 가</w>
▁명 단에</w>
▁면접 을</w>
▁리 콜</w>
▁둔 화
▁되었 다고</w>
▁대변 인이</w>
▁담당 자가</w>
▁난 이
▁기 부</w>
▁금융 투자
▁귀 가</w>
▁공연 장</w>
▁경영 권</w>
▁건물 에</w>
▁199 2</w>
▁19 50</w>
a r</w>
V R</w>
후 가</w>
표 는</w>
평 이</w>
판 에는</w>
청 와
조합 이</w>
임 에</w>
어 링</w>
안 보</w>
스럽 고</w>
세 종
색 과</w>
밤 에</w>
명 씩</w>
루 의</w>
동 물</w>
단체 장</w>
▁확실 하게</w>
▁호 르
▁형태 가</w>
▁학 계</w>
▁편 성</w>
▁투자 해</w>
▁촉진 하기</w>
▁촉 진</w>
▁차 는</w>
▁집중 하고</w>
▁적 당한</w>
▁저 자는</w>
▁재 능을</w>
▁장 마
▁이 보다</w>
▁원활 히</w>
▁올라 와</w>
▁영 장</w>
▁연 출</w>
▁양 쪽</w>
▁신 문</w>
▁승 리의</w>
▁세계 로</w>
▁서 면
▁상 의
▁사법 행정
▁사 흘</w>
▁사 흘
▁비 자</w>
▁병 역</w>
▁베 스트
▁박 해
▁무분 별
▁뛰 는</w>
▁돌아 와</w>
▁달러 의</w>
▁놀 이</w>
▁날 에</w>
▁금 품을</w>
▁광 장에서</w>
▁관 람</w>
▁고려 대</w>
▁경력 단
▁경 사노
▁검은 색</w>
▁간편 하게</w>
▁7 9</w>
▁198 8</w>
S S</w>
B K</w>
희 의</w>
특 보가</w>
창 한</w>
쪽 은</w>
주시 길</w>
의 원
았 으나</w>
사업 법</w>
부 로부터</w>
만 달러
녀 가</w>
너 가</w>
과 제</w>
▁희 귀
▁확 충</w>
▁협 업을</w>
▁헌 신
▁하 겠다고</w>
▁털어 놨다</w>
▁택 배</w>
▁타 격
▁출신 으로</w>
▁진행 이</w>
▁정책 적</w>
▁입법 예
▁임 기
▁인 원</w>
▁인 디
▁이란 의</w>
▁이 석
▁이 득
▁운 행을</w>
▁우려 하는</w>
▁영 웅
▁양 해
▁수 량이</w>
▁소 셜</w>
▁성장 세를</w>
▁선거 가</w>
▁사용 하면</w>
▁사용 하기</w>
▁부 품을</w>
▁보건 소</w>
▁변경 을</w>
▁벤 치
▁베트남 에서</w>
▁버 리고</w>
▁명 품
▁메 인
▁딸 의</w>
▁단체 는</w>
▁단계 적으로</w>
▁낙 관
▁국민 건강
▁구 인
▁관객 들은</w>
at ion</w>
1 6
희 정</w>
학교 를</w>
킴 이</w>
작 가</w>
운 용</w>
용 과</w>
아 시
시 나</w>
수 술
북 한이</w>
보 관
만 원에서</w>
룸 에서</w>
등 은</w>
느냐 가</w>
국 립
▁항 암
▁투자 할</w>
▁투 표를</w>
▁최저임 금이</w>
▁지지 율이</w>
▁줘 야</w>
▁제한 할</w>
▁제 도는</w>
▁점 용
▁자기 소
▁자 진
▁의료 기기</w>
▁유네 스코</w>
▁예상 치</w>
▁예 로</w>
▁열 정이</w>
▁여기 에는</w>
▁양 측</w>
▁애니메이 션</w>
▁아파 서</w>
▁시설 과</w>
▁수 석</w>
▁성 장에</w>
▁사업 추
▁비핵 화에</w>
▁비 밀</w>
▁비 로
▁부작 용을</w>
▁복 구</w>
▁배 분
▁방 한
▁밤 을</w>
▁밝히 면서</w>
▁밝히 는</w>
▁바다 에</w>
▁바뀌 었다</w>
▁미국 과의</w>
▁몰라 요</w>
▁모두 의</w>
▁며 칠
▁망 가
▁뜻 한다</w>
▁뜻 하는</w>
▁떠오 른</w>
▁드 리는</w>
▁대신 에</w>
▁다녀 온</w>
▁느꼈 다</w>
▁김 제
▁급증 하고</w>
▁규 격
▁국 정</w>
▁구 정
▁구 석
▁교 정
▁공고 하여야</w>
▁공격 수</w>
▁고 전
▁경기 농
▁가슴 이</w>
특별 위원회</w>
처 리를</w>
장 관</w>
의 회가</w>
은 의</w>
용 역</w>
연 금
되 나요</w>
기 에
교 부
가 공
▁현 수
▁하 니까</w>
▁파 운
▁카 풀</w>
▁차 트</w>
▁진 로</w>
▁직원 들은</w>
▁직 장을</w>
▁종 부
▁이름 과</w>
▁유니폼 을</w>
▁유 소
▁양호 한</w>
▁약 화
▁알 파
▁시민 들은</w>
▁시 신이</w>
▁송 도
▁세련 된</w>
▁설명 할</w>
▁선고 했다</w>
▁살 려</w>
▁비판 하는</w>
▁비용 으로</w>
▁부장판 사는</w>
▁복 사
▁보호 하고</w>
▁먹 기</w>
▁말 하지</w>
▁말 았다</w>
▁만 의</w>
▁마 리
▁등장 한다</w>
▁될 까</w>
▁더 블
▁대중 의</w>
▁대 외</w>
▁나가 야</w>
▁김 형
▁기여 함을</w>
▁기 량을</w>
▁근거 를</w>
▁그 리는</w>
▁경험 할</w>
▁경 호
▁감 싸
회 도</w>
했 음을</w>
해 준다</w>
졌 으나</w>
장 이나</w>
인 이나</w>
사 이</w>
병 원은</w>
맛 이</w>
데이 터</w>
그 래
가 격을</w>
▁했 는지</w>
▁한 일
▁학교 와</w>
▁하나 님
▁하 는데요</w>
▁폭염 으로</w>
▁취소 하고</w>
▁출발 해</w>
▁총 수
▁증 대
▁줘 서</w>
▁주 차</w>
▁조금 이라도</w>
▁적 법
▁잔 디
▁입 지</w>
▁임진 왜
▁임명 한다</w>
▁이용 자의</w>
▁의원 들은</w>
▁원 정
▁원 상
▁우 위를</w>
▁여행 은</w>
▁여론 을</w>
▁업 종</w>
▁싱가포르 에서</w>
▁신청 했다</w>
▁신 축</w>
▁승 부를</w>
▁세 이
▁성 형
▁사 정으로</w>
▁붉 은
▁봉 투
▁변화 의</w>
▁물 었다</w>
▁못 합니다</w>
▁드 론
▁동 안의</w>
▁돌아 다니
▁도착 해</w>
▁덜 어
▁다 변
▁남 기고</w>
▁기 소</w>
▁그렇 다고</w>
▁그녀 와</w>
▁관계 기관</w>
▁과 감한</w>
▁공 립
▁계획 하고</w>
▁견 디
▁같 았다</w>
▁가수 들이</w>
▁9 4</w>
8 000</w>
3 000</w>
확 인</w>
행 은</w>
평생 교육
체 스터</w>
책 으로</w>
인 증</w>
월 드</w>
양 은</w>
부 지사</w>
부 산</w>
봉 투</w>
민 원</w>
공 정
▁훼 손</w>
▁홍 준표</w>
▁행동 에</w>
▁한국전 쟁</w>
▁팀 장
▁텍 사
▁태양 광
▁태 블
▁침 해</w>
▁직 결
▁지 식</w>
▁줄 여</w>
▁정보 화</w>
▁전화 로</w>
▁전 성
▁적 정한</w>
▁이 념
▁운 수
▁왔 던</w>
▁예 민
▁여 당이</w>
▁업무 와</w>
▁앉 아
▁쌓 인</w>
▁습 득
▁스캔 들</w>
▁센 터를</w>
▁세 워</w>
▁상황 에서도</w>
▁버 스는</w>
▁배우 들의</w>
▁방향 이</w>
▁발 견</w>
▁받아들 이지</w>
▁무역분 쟁</w>
▁만들어 낸</w>
▁당 이</w>
▁달 리는</w>
▁늦 어도</w>
▁늘어 나</w>
▁내세 운</w>
▁나 이에</w>
▁그러 니까</w>
▁국토 부가</w>
▁감소 하는</w>
케 이</w>
져 요</w>
전 지</w>
임 금
아 리
번 째
기 소</w>
관 에서는</w>
▁훈 훈
▁현저 히</w>
▁해결 해야</w>
▁평가 는</w>
▁퇴 직</w>
▁타 면</w>
▁크리스 티
▁최근 의</w>
▁총 무
▁체 력
▁짧 게</w>
▁지역 주민</w>
▁죽 을</w>
▁조합 원</w>
▁전 염
▁재판 에서</w>
▁인터넷 으로</w>
▁이 젠</w>
▁이 관
▁음식 점</w>
▁외 신
▁연 도
▁아이 들과</w>
▁아 아</w>
▁스 미
▁속 으로</w>
▁색 이</w>
▁새 로
▁방문 하고</w>
▁발휘 할</w>
▁모아 지고</w>
▁모 임을</w>
▁명 문
▁메이저 리그</w>
▁마스크 를</w>
▁동 향을</w>
▁동 생</w>
▁단 계에</w>
▁누군 가가</w>
▁내 면</w>
▁날카 로운</w>
▁그려 진</w>
▁관 건
▁공시 가격</w>
▁공감 대를</w>
▁경 희
▁강 사</w>
▁감 축</w>
▁가 지게</w>
▁9 7</w>
▁& &</w>
통 에</w>
지역 이</w>
절 로</w>
에 셋
수 석
셔 널</w>
세 대가</w>
박 근
묘 한</w>
레 저
대 장</w>
다 고도</w>
▁현대 모비
▁하 동
▁표 표</w>
▁팔 레
▁특 이한</w>
▁택 지
▁컨 셉
▁철저 하게</w>
▁주한미 군</w>
▁전 역에서</w>
▁적 격
▁장례 식
▁의 구
▁웹 웹</w>
▁요구 되는</w>
▁예정 이어서</w>
▁연동 형</w>
▁업데이 트</w>
▁어르 신</w>
▁아티 스트</w>
▁시 티
▁시 위가</w>
▁시 위</w>
▁생각 했습니다</w>
▁사우 스
▁브 루
▁붕 괴</w>
▁분 리</w>
▁번 역</w>
▁밝혔 지만</w>
▁받 던</w>
▁박 사
▁리 스트
▁돕 는다</w>
▁도지 사에게</w>
▁대표 팀은</w>
▁달러 로</w>
▁다 수가</w>
▁늘 려</w>
▁나 온
▁기대 에</w>
▁기 저
▁군 수</w>
▁구분 하여</w>
▁괜찮 습니다</w>
▁과 제로</w>
▁공 소
▁곳 의</w>
▁계 승
▁경 주</w>
▁개발 된</w>
▁감 리
c h
한 화</w>
텔레 콤
쳤 고</w>
채 널
쪽 에는</w>
지 주</w>
울 을</w>
영 어
상 인</w>
분 까지</w>
법 에서</w>
방 문</w>
리 라는</w>
▁후 임
▁한국 에서도</w>
▁평가 에</w>
▁팬 이</w>
▁통 계를</w>
▁측 면</w>
▁청년 이</w>
▁줄 어</w>
▁준비 에</w>
▁주장 하며</w>
▁정신 과</w>
▁점 포</w>
▁전통 을</w>
▁저질 렀
▁잠 수
▁인권 침
▁이바지 함을</w>
▁웃 고</w>
▁운 전을</w>
▁영 변</w>
▁업무 상</w>
▁아니 냐</w>
▁시 세
▁쇼 트
▁소 각
▁서울 이</w>
▁상 생</w>
▁상 대가</w>
▁사진 에</w>
▁비 준
▁분 기</w>
▁부담 으로</w>
▁부 터</w>
▁벽 에</w>
▁배 부
▁발굴 하고</w>
▁발 송</w>
▁물 가</w>
▁맞 서
▁로드 맵
▁뉴 스를</w>
▁농 가</w>
▁나 선
▁기 자는</w>
▁그렇 다</w>
▁그 로</w>
▁권 력을</w>
▁국가 보훈
▁공 소시
▁곤 충
▁경기 지
▁것 이어서</w>
▁개발 했다</w>
▁가 는데</w>
▁20 25</w>
해 지면</w>
프로 젝
퇴 직
카 페</w>
충 전
액 에</w>
식 간에</w>
시키 며</w>
생 들의</w>
반 은</w>
반 에</w>
렸 으며</w>
랜 드의</w>
교육 에</w>
공 학과</w>
겨 운</w>
▁회계 연도</w>
▁활 짝</w>
▁현지 인들이</w>
▁합 리적</w>
▁표 정이</w>
▁파 일
▁테 슬
▁친구 들
▁초 상
▁체 계</w>
▁찬 성</w>
▁질 환</w>
▁지 휘</w>
▁지 식과</w>
▁지 내는</w>
▁주 체가</w>
▁주 장은</w>
▁저희 에게</w>
▁저 감
▁재 검토
▁장 성
▁인상 과</w>
▁음악 과</w>
▁유 로
▁영 암
▁엔 진
▁승 강
▁상승 을</w>
▁산 사
▁분 주
▁미만 인</w>
▁마련 하기</w>
▁뚫 고</w>
▁똑 같
▁돼 지</w>
▁대 개</w>
▁낭 비
▁나 무를</w>
▁구성 하여</w>
▁고민 하고</w>
▁경상 남도</w>
▁것 과는</w>
▁검증 된</w>
▁개입 한</w>
▁가 지로</w>
▁C h
혜 원</w>
페이 스</w>
투 자가</w>
전 쟁
음 악</w>
시 대
버 린</w>
로이 드</w>
랑 이</w>
놀 이를</w>
개 소를</w>
▁현실 에</w>
▁합 산
▁하 남
▁피해 자들이</w>
▁평가 에서</w>
▁판매 할</w>
▁촉 촉
▁첨 부</w>
▁처리 한다</w>
▁창 작</w>
▁진 보</w>
▁지 어</w>
▁주민 을</w>
▁조 회</w>
▁정 권의</w>
▁절 대로</w>
▁일으키 는</w>
▁일 입니다</w>
▁의약 품</w>
▁위 성
▁우 아
▁용 역</w>
▁외 로
▁예방 에</w>
▁영 동
▁업그레이 드
▁얼 른</w>
▁아닌 데</w>
▁신 장
▁숙 련
▁수 위를</w>
▁삽 입
▁사회적 기업</w>
▁불 균
▁부회 장은</w>
▁부 부의</w>
▁모 듈
▁눈 과</w>
▁누리 꾼
▁농어 촌
▁남 성은</w>
▁남 기
▁나머 지는</w>
▁기 관을</w>
▁근무 하고</w>
▁구 민</w>
▁교육과 정을</w>
▁고 추
▁결 승</w>
▁같 은
▁갑작 스러운</w>
▁U U</w>
▁IC O</w>
▁199 1</w>
학 술
하 자고</w>
콘텐 츠</w>
치 료를</w>
인 사</w>
인 민
식 에서는</w>
노동 자</w>
기록 을</w>
공간 으로</w>
경 북
게 끔</w>
가 치를</w>
▁한마 디
▁필요 시</w>
▁포함 하는</w>
▁컨테이 너</w>
▁카 르
▁최 상의</w>
▁차례 에</w>
▁지난해 까지</w>
▁주민 들을</w>
▁조성 할</w>
▁조 치는</w>
▁정부 서울
▁전문가 로</w>
▁이 의</w>
▁이 길</w>
▁유 승
▁운영 위원회</w>
▁어 차피</w>
▁성 경
▁상하 이</w>
▁상 향
▁사이 즈</w>
▁비상 저감
▁부산 에</w>
▁배경 이</w>
▁받았 을</w>
▁물 량을</w>
▁목 요일</w>
▁되었 으면</w>
▁대 량
▁납세 자보호
▁그 치지</w>
▁국제 사회의</w>
▁국 한
▁교 착
▁공식 적인</w>
▁것 만으로도</w>
▁O LED</w>
▁9 1</w>
i m
S R</w>
. ’</w>
했 으니</w>
첨 단</w>
집 으로</w>
전 문</w>
작 업이</w>
이 민
연구 소가</w>
앤 젤
리 즘</w>
년 에도</w>
군기 무
공항 에서</w>
고 령
▁풍 경을</w>
▁폭 락
▁편 한</w>
▁통화 에서</w>
▁크 레
▁중 인데</w>
▁주 행</w>
▁주 석이</w>
▁재활 용</w>
▁재 임
▁장기 적으로</w>
▁있 길</w>
▁인터넷 전문
▁이 적
▁위원 회가</w>
▁원칙 에</w>
▁오르 면서</w>
▁오 세
▁연 도</w>
▁업체 인</w>
▁어머니 는</w>
▁싱 글
▁수 용</w>
▁소득 을</w>
▁소 진
▁샌드 위
▁부인 했다</w>
▁보도 한</w>
▁박 준
▁밑 에</w>
▁면 모를</w>
▁메이크 업</w>
▁렌 터
▁들어가 면</w>
▁덕 에</w>
▁단체 로</w>
▁끝 내
▁그 만</w>
▁국내 에서도</w>
▁구매 하고</w>
▁공 정</w>
▁계 정</w>
▁건 에</w>
▁가계 부
o t
위 기
우 수
시 께</w>
본 명</w>
르 다</w>
료 에</w>
데 스
니 까요</w>
년 여</w>
급 의</w>
가 구가</w>
▁흰 흰</w>
▁한 쪽</w>
▁하 네요</w>
▁표 창</w>
▁포착 됐다</w>
▁처벌 이</w>
▁주문 할</w>
▁종사 하는</w>
▁정도 였다</w>
▁전시 회를</w>
▁인 정</w>
▁이하 인</w>
▁육아 휴
▁여 력이</w>
▁업 계에</w>
▁약 속</w>
▁시작 했어요</w>
▁시작 했고</w>
▁시내 버스</w>
▁시 의</w>
▁스페 셜</w>
▁설립 을</w>
▁선 점
▁사 냥
▁보 살
▁버닝 썬
▁방향 에</w>
▁받았 는데</w>
▁미 달
▁문화체육관광 부</w>
▁무 효
▁말 라고</w>
▁만들어 졌다</w>
▁둘 이</w>
▁되 지만</w>
▁더 운</w>
▁다이어 트</w>
▁내놓 을</w>
▁낡 은</w>
▁깨 고</w>
▁그중 에서도</w>
▁공 헌
▁계 기를</w>
▁것 인가</w>
▁감소 하고</w>
o v
a d
행 과</w>
프 라이
폐기 물
증 권
점 유
은 혜</w>
비 전</w>
받 는다</w>
대 장에</w>
대 응</w>
기 금을</w>
광 장에서</w>
▁회 신</w>
▁확인 해야</w>
▁화 폐
▁화 이
▁혼란 이</w>
▁혐 오
▁항 목
▁한국 식</w>
▁한 류를</w>
▁학습 을</w>
▁표창 을</w>
▁탐 방
▁쾌 적
▁컬 렉
▁카테 고
▁친 절한</w>
▁출연 하는</w>
▁초 미세먼지</w>
▁철 강
▁지적 한</w>
▁중국 어</w>
▁준비 해야</w>
▁주변 에는</w>
▁정상회담 에</w>
▁정보 의</w>
▁접어 들
▁장 점은</w>
▁있으 시면</w>
▁입 지
▁일 산
▁이해 와</w>
▁음 성</w>
▁은행 의</w>
▁은 퇴</w>
▁유 래
▁온 도가</w>
▁연 봉</w>
▁않 더라도</w>
▁안 건</w>
▁식 당이</w>
▁시 점</w>
▁스튜 디오</w>
▁소비 자에게</w>
▁생 일을</w>
▁사무 실에서</w>
▁법 관
▁발 효</w>
▁문 희
▁무엇 보다도</w>
▁대학 은</w>
▁네덜 란드</w>
▁낙 찰
▁나눴 다</w>
▁나 가고</w>
▁길 은</w>
▁교 회의</w>
▁공공 기관
▁경제부총 리</w>
▁겪 을</w>
▁강 사로</w>
▁가짜 뉴
판 으로</w>
컴 퍼
체 육</w>
장 학
성 과
선수 권
마 리</w>
롭 다</w>
더 불
놓 을</w>
▁화 면을</w>
▁하 위</w>
▁컨설 팅을</w>
▁찾아 야</w>
▁지역 이다</w>
▁주도 권을</w>
▁적 혀
▁자이 언
▁있 긴</w>
▁이루어 졌다</w>
▁운영 의</w>
▁온라 인으로</w>
▁오바 마</w>
▁순 식간에</w>
▁수수 료는</w>
▁선 풍
▁상 영</w>
▁사 후</w>
▁사 외
▁비트코 인</w>
▁본부 장은</w>
▁받 으면서</w>
▁반려동 물</w>
▁먹 어</w>
▁머 릿
▁마 두로</w>
▁라이 프
▁동 주민
▁당 시에는</w>
▁다 름
▁노 선이</w>
▁넘 는다</w>
▁넘 나
▁넘 기
▁기술 력을</w>
▁급 변
▁구 형
▁구 입</w>
▁구 단
▁공 군</w>
▁거 둘</w>
▁감 성을</w>
▁가르 치는</w>
▁가 장
피 아
칙 을</w>
총 회에서</w>
지방 재정
정 의
인 치</w>
으 시면</w>
안 타</w>
발 의</w>
맞 춤
드 리는</w>
되 더라도</w>
됐 는지</w>
년 대에</w>
교 섭
고 지
가 락을</w>
▁행 렬
▁한 두</w>
▁표 준</w>
▁출 전한</w>
▁총 괄</w>
▁청소 를</w>
▁집중 호
▁지갑 을</w>
▁지 진
▁중 점</w>
▁중 에서는</w>
▁주 목</w>
▁제한 을</w>
▁점 령
▁전반 을</w>
▁전 담</w>
▁위원 장에게</w>
▁여 비</w>
▁업무 추진
▁약 세를</w>
▁아름답 고</w>
▁시민 과</w>
▁승 점</w>
▁스 코
▁수요 일</w>
▁수비 수</w>
▁세 일
▁세 우는</w>
▁선생 님</w>
▁상태 입니다</w>
▁빚 을</w>
▁비 교</w>
▁블라디 미르</w>
▁블 랙</w>
▁불 리한</w>
▁부문 의</w>
▁보여 요</w>
▁변경 된</w>
▁물어 보
▁못 해요</w>
▁동 화
▁대기업 이</w>
▁닿 지</w>
▁늘 릴</w>
▁넘 쳐
▁건설 을</w>
▁거 북
▁강 수
▁가져 야</w>
중 학교</w>
인 사
이 동
왔 고</w>
어 있는</w>
슨 은</w>
숙 이</w>
보 수
받 고자</w>
마 와</w>
루 에서</w>
난 다는</w>
공 시
▁히 트
▁휠 체
▁햇 빛
▁해 체</w>
▁해 임
▁피해 자를</w>
▁포 천
▁페 인
▁토 너
▁탈 바
▁촉 구하고</w>
▁찍 을</w>
▁지 출</w>
▁중 산
▁조 항이</w>
▁전 면에</w>
▁전 까지는</w>
▁인천 광역
▁이루 어</w>
▁오늘 부터</w>
▁예 측</w>
▁영유 아</w>
▁영 감을</w>
▁없 음을</w>
▁압 박</w>
▁압 력을</w>
▁알 아서</w>
▁수익 성이</w>
▁소개 한</w>
▁선진 국
▁삶 은</w>
▁사이 즈가</w>
▁사법 부</w>
▁변화 는</w>
▁목적 은</w>
▁막 바
▁떠오 르는</w>
▁나서 면서</w>
▁긴장 감을</w>
▁기본 법</w>
▁기록 적인</w>
▁기 지
▁근처 에서</w>
▁구속 됐다</w>
▁공모 전</w>
▁골 고
▁가 뭄
en t</w>
학교 가</w>
하 자마자</w>
축 제가</w>
체 적</w>
질 로</w>
전 인</w>
시 길</w>
스 키</w>
수 인</w>
션 에서</w>
비 에서</w>
복 구
마 당</w>
다 를</w>
▁한국 인의</w>
▁하 향</w>
▁필요 한데</w>
▁투 약</w>
▁출퇴 근</w>
▁참 조
▁착 륙
▁차 이는</w>
▁차 라리</w>
▁줄 곧</w>
▁재 직</w>
▁이미 지
▁온 도</w>
▁영향 은</w>
▁신 발을</w>
▁식품의약 품안전
▁승 객</w>
▁소유 자</w>
▁소 유</w>
▁소 나
▁색깔 이</w>
▁브랜 드로</w>
▁불거 졌다</w>
▁부과 하는</w>
▁부 실</w>
▁범 위는</w>
▁반영 할</w>
▁바람직 하다</w>
▁민주 화
▁몸 의</w>
▁모델 은</w>
▁레 알</w>
▁러시아 와</w>
▁되 풀
▁더불어민주 당이</w>
▁대우 조선
▁대 미</w>
▁놀라 게</w>
▁내 역을</w>
▁납 부한</w>
▁끔 찍
▁김관 영</w>
▁금강 산</w>
▁구멍 이</w>
▁구 가</w>
▁고 발</w>
▁경기도 에는</w>
▁가 정에</w>
▁C GV</w>
해 달라</w>
통 제</w>
지방 법
주 자</w>
자 들
인 지는</w>
련 이</w>
돼 요</w>
골 프</w>
▁환 율</w>
▁학 원
▁하 였습니다</w>
▁폴 리
▁특 혜</w>
▁테 러</w>
▁클 릭
▁총 을</w>
▁지 연</w>
▁중 구의</w>
▁주 어야</w>
▁전시 회가</w>
▁재 건축
▁자세 로</w>
▁입 에</w>
▁임대 료</w>
▁위험 성이</w>
▁왕 복</w>
▁오리 지
▁예 금
▁연구 는</w>
▁어려 웠다</w>
▁아쉬 움이</w>
▁아세 안</w>
▁실 장이</w>
▁세미 나</w>
▁세 상의</w>
▁성 평
▁성 능을</w>
▁설 명</w>
▁선호 도가</w>
▁사이 트
▁사라 지고</w>
▁비 롯</w>
▁불안 한</w>
▁불공 정
▁북 구</w>
▁변 동이</w>
▁박 스
▁밀 어
▁미세먼 지를</w>
▁무언 가를</w>
▁무 혐
▁무 대로</w>
▁모 여서</w>
▁먹 어도</w>
▁머무 는</w>
▁리 스크</w>
▁도와 줄</w>
▁도시 에서</w>
▁당 했다고</w>
▁다 국
▁눈 물이</w>
▁뇌 뇌</w>
▁남 용</w>
▁김정 숙</w>
▁기다려 주세요</w>
▁그렇 습니다</w>
▁국 군기무
▁공무원 에게</w>
▁거짓 말을</w>
▁갔 다가</w>
▁S M</w>
▁9 6</w>
e l</w>
할 만한</w>
한 은</w>
하 십시오</w>
클 래
좋 은</w>
장 관
요 원</w>
았 으면</w>
물 류
모 임</w>
도 로를</w>
근 을</w>
공 사와</w>
개 인
▁현 지의</w>
▁현 금을</w>
▁품 질을</w>
▁판결 에</w>
▁판 교</w>
▁테 니까</w>
▁컨소시 엄
▁지니 고</w>
▁조사 해</w>
▁정체 성을</w>
▁정상 에</w>
▁전환 이</w>
▁재 개</w>
▁자유한국 당의</w>
▁일어나 지</w>
▁이 룬다</w>
▁의 의가</w>
▁오르 며</w>
▁예외 로</w>
▁애 를</w>
▁안내 를</w>
▁아르바이 트
▁수 치가</w>
▁수 시
▁손 잡
▁속 이</w>
▁살 리
▁비 춰
▁부산 시가</w>
▁보 조</w>
▁변 화와</w>
▁박 사는</w>
▁문 체
▁명백 한</w>
▁듣 지</w>
▁드라마 에</w>
▁다 주택
▁노래 는</w>
▁넣 는</w>
▁기대 해</w>
▁기능 은</w>
▁근 대</w>
▁국 경을</w>
▁구청 장과</w>
▁가져 온</w>
s t
201 3</w>
화 했다</w>
컨 대</w>
열 에</w>
시리 즈</w>
센터 로</w>
비 율이</w>
봤 습니다</w>
벽 을</w>
담 이</w>
글 라
군 수는</w>
교육 지원
교 수</w>
▁현 상은</w>
▁피 력
▁프랑 스의</w>
▁품 목</w>
▁폴 란드</w>
▁톡 톡
▁테이 블</w>
▁카메 라가</w>
▁출발 한</w>
▁총 장이</w>
▁청소년 이</w>
▁진 한</w>
▁지급 하지</w>
▁종 전</w>
▁조례 를</w>
▁제 거</w>
▁절 감</w>
▁전 교
▁작 고</w>
▁자발 적</w>
▁있 네요</w>
▁음식 과</w>
▁오 지
▁역 량이</w>
▁에 르
▁써 서</w>
▁실제 로는</w>
▁신 뢰</w>
▁시행 한</w>
▁시 장에게</w>
▁순 찰
▁소셜 미디
▁살아 있는</w>
▁사례 도</w>
▁사고 는</w>
▁부 상이</w>
▁바 른</w>
▁물 량</w>
▁못 했고</w>
▁명 은</w>
▁멈 춰
▁마음 은</w>
▁들어 올</w>
▁동 시
▁동 대문구</w>
▁대 안으로</w>
▁담 임
▁단 장은</w>
▁단 어
▁광화 문
▁관객 을</w>
▁경 력</w>
▁건축 물
▁거 치지</w>
▁개 장
▁L NG</w>
. .</w>
해보 험
해 는</w>
하 를</w>
칩 니다</w>
침 이</w>
추 천
정책 과</w>
인 력을</w>
이 시
운영 하는</w>
아 카데
세 트</w>
보 의</w>
병 은</w>
방 식을</w>
링 이</w>
루 미
도시 의</w>
난 히</w>
것 이</w>
▁희망 이</w>
▁회 사로</w>
▁한 강</w>
▁하 청
▁프로 야구</w>
▁폭넓 은</w>
▁포 럼</w>
▁포 도
▁판 타
▁토론 회</w>
▁토론 이</w>
▁토 큰
▁총 영
▁청 계
▁첨 가
▁척 추
▁창 단
▁주 시고</w>
▁좋 을까요</w>
▁조선 의</w>
▁전 한</w>
▁적용 될</w>
▁인근 의</w>
▁윤 곽
▁유용 한</w>
▁원 격
▁외국 인들이</w>
▁열 차가</w>
▁여 쭤
▁아니 기</w>
▁식 당을</w>
▁수수 료가</w>
▁세미 나
▁세 븐
▁성균 관
▁서울 시와</w>
▁서 버</w>
▁상승 이</w>
▁브리핑 을</w>
▁부모 님은</w>
▁보육 교
▁받 거나</w>
▁반 환</w>
▁미 처</w>
▁물 려
▁목 이</w>
▁모 호
▁매 장에</w>
▁단 절
▁기관 투자
▁광주 시가</w>
▁과 천
▁골고 루</w>
▁곡 으로</w>
▁고 사
▁검토 해</w>
▁갱 신
▁개선 할</w>
▁강 연을</w>
▁감추 지</w>
▁N H</w>
피 아</w>
프 와</w>
폐 소
특 례
택 시</w>
태평 양
클 러
저 우</w>
재 난</w>
유 아
요 금을</w>
시 킨
상황 에</w>
산업 과</w>
비 전
복 합</w>
대사 관</w>
기 능</w>
군 수가</w>
공 개
▁힘 힘</w>
▁흉 기를</w>
▁홈페이 지에서</w>
▁현실 적인</w>
▁행정 부의</w>
▁평양 을</w>
▁충청 남도</w>
▁출 납
▁최저임 금을</w>
▁천 재
▁진술 했다</w>
▁종 로
▁조속 한</w>
▁전 기를</w>
▁자 외
▁인스타 그램</w>
▁이행 하지</w>
▁이뤄 져</w>
▁이렇 듯</w>
▁의 정부</w>
▁용인 시</w>
▁올라 가는</w>
▁올라 가</w>
▁오늘 이</w>
▁어 업
▁실 거래가</w>
▁시험 에</w>
▁시청 률</w>
▁시 점이</w>
▁쉽 다</w>
▁수출 을</w>
▁소개 할</w>
▁성장 세가</w>
▁부 지를</w>
▁부 구청장이</w>
▁봤 어</w>
▁면 이</w>
▁면 밀히</w>
▁막 혀</w>
▁레 전
▁때 다</w>
▁따뜻 하게</w>
▁듣 기</w>
▁도로 에</w>
▁대학 과</w>
▁다큐멘터 리</w>
▁남한 산
▁깔 려</w>
▁극복 하고</w>
▁국정 원</w>
▁구성 하는</w>
▁구성 돼</w>
▁관심 은</w>
▁계엄 령</w>
▁것 입니까</w>
▁개선 하기</w>
▁강조 하며</w>
▁가입 자</w>
현 을</w>
해 수
해 달라는</w>
하였 던</w>
통 제
초 등학교
주 에게</w>
종합 지원
제 도의</w>
인 다는</w>
에 스</w>
사업 자가</w>
본 부의</w>
병 의</w>
버 넌
마 리가</w>
니 깐</w>
기 상
근 무</w>
공무 원은</w>
▁효과 도</w>
▁회 전
▁협의 해</w>
▁플 랜
▁패 널</w>
▁파 업</w>
▁특 화된</w>
▁통 역
▁테 헤
▁첨 예
▁질 문</w>
▁지급 한</w>
▁중장 기</w>
▁재판 부가</w>
▁장기 적인</w>
▁잔 류
▁작용 한</w>
▁인정 하지</w>
▁이 준
▁위 법</w>
▁어머니 의</w>
▁앞 에는</w>
▁수 신
▁소요 될</w>
▁선정 하여</w>
▁선생 의</w>
▁생생 한</w>
▁삭 감
▁보이 는데</w>
▁변 하지</w>
▁미국 인</w>
▁미 쳤다</w>
▁몰 린</w>
▁모르 지만</w>
▁머 리카
▁만 화</w>
▁두 루</w>
▁되어 있
▁되 새
▁대강 당에서</w>
▁대 사가</w>
▁놓 치지</w>
▁논 쟁
▁넘어 선</w>
▁내비 쳤다</w>
▁긴급 한</w>
▁기억 하고</w>
▁기념촬 영을</w>
▁기 회</w>
▁그래 요</w>
▁그곳 은</w>
▁구 별
▁고 기</w>
▁경 비의</w>
▁같 고</w>
▁갖 춰</w>
▁강조 한다</w>
▁갔 을</w>
▁가르 쳐
▁8 9</w>
학교 의</w>
폭 을</w>
취 업
총 연합회</w>
집 과</w>
조 원
이스 에</w>
율 에</w>
시간 의</w>
명 도</w>
동 맹
대 인</w>
공 연을</w>
경제 적</w>
▁흐름 에</w>
▁후보 와</w>
▁획 기적으로</w>
▁현 상</w>
▁평가 할</w>
▁파격 적인</w>
▁카카오 톡
▁참여 하지</w>
▁죄송 합니다만</w>
▁제주 시</w>
▁제공 을</w>
▁전해 져</w>
▁적용 이</w>
▁자 궁
▁임 상</w>
▁이용 해서</w>
▁외 출
▁역 사에</w>
▁여기 저
▁소 아
▁세부 적인</w>
▁성 별</w>
▁섰 다</w>
▁설명 한다</w>
▁상 여
▁보 았다</w>
▁밀 착
▁민주 주의</w>
▁무 형문화
▁무 섭
▁무 상</w>
▁모르 겠습니다</w>
▁띄 게</w>
▁때문 인</w>
▁들 어요</w>
▁다르 지</w>
▁다 투
▁네덜 란
▁기여 하고</w>
▁급 여</w>
▁극 장</w>
▁군 의</w>
▁국제 적인</w>
▁구축 할</w>
▁구 리
▁고조 되고</w>
▁개선 하고</w>
▁C BS</w>
S I</w>
해주 신</w>
태평 양</w>
타 워</w>
킹 이</w>
조 원에</w>
이 전</w>
심 적</w>
시설 물</w>
스 퀘
선 한</w>
사 기</w>
배 우
방 해</w>
들 에서</w>
돌 봄</w>
구 의
구 매
가 구
▁호 전
▁협약 에</w>
▁해 소</w>
▁한 편
▁필요 하지</w>
▁팔 고</w>
▁통계 청이</w>
▁징 수</w>
▁지체 없이</w>
▁지적 한다</w>
▁주 한</w>
▁주 소로</w>
▁정 차
▁적 잖
▁이 뤄</w>
▁유치 에</w>
▁운 반
▁예산 은</w>
▁여론 의</w>
▁어 쨌
▁액 세
▁안팎 에서는</w>
▁안 동
▁싶 지만</w>
▁순 위
▁수익 성</w>
▁세 대를</w>
▁성 관계</w>
▁설문 조사</w>
▁선정 하고</w>
▁석 탄</w>
▁상승 세가</w>
▁사물 인터넷</w>
▁불안 감이</w>
▁벨 기에
▁바라 며</w>
▁바 나
▁믿 지</w>
▁미 끄러
▁맞 는지</w>
▁막 상</w>
▁리 스트를</w>
▁동 생이</w>
▁대북제 재</w>
▁대단 한</w>
▁낮 다</w>
▁남편 의</w>
▁날 에는</w>
▁기 말
▁금지 하는</w>
▁관 장은</w>
▁과 목을</w>
▁공존 하는</w>
▁공연 으로</w>
▁건 은</w>
▁개성 공
▁강력 하게</w>
▁감 성
▁가로 막
▁가 지를</w>
▁M OU</w>
▁198 7</w>
파 는</w>
쳤 습니다</w>
척 을</w>
지 기를</w>
종 과</w>
저 히</w>
장 까지</w>
예 가</w>
무 용
로 스</w>
되었 어요</w>
남 기</w>
기업 은</w>
기 계
국 내</w>
공 유</w>
▁화 면에</w>
▁호텔 은</w>
▁토론 토
▁코스 닥
▁총 수</w>
▁지속 되는</w>
▁주도 하고</w>
▁주 방
▁존재 한다</w>
▁조성 한</w>
▁작성 하여야</w>
▁임 금이</w>
▁일 찍
▁일 괄</w>
▁이 런
▁언제 부터</w>
▁애플 이</w>
▁싸 움을</w>
▁싱 크
▁실리 콘
▁실 습
▁시작 되었다</w>
▁시 도를</w>
▁수 급</w>
▁수 감
▁세종 시</w>
▁선택 해</w>
▁상승 으로</w>
▁삼 고</w>
▁사업 비를</w>
▁사 연을</w>
▁박 유
▁미 미
▁등록 한</w>
▁들 었
▁도 움</w>
▁도 요
▁대 화의</w>
▁다짐 했다</w>
▁낮추 는</w>
▁끝 내고</w>
▁권 리가</w>
▁궁금 증이</w>
▁구 성이</w>
▁고용노동 부가</w>
▁고맙 습니다</w>
▁고객 들의</w>
▁고 취
▁건축 물의</w>
▁갖추 어</w>
▁I oT</w>
회 초</w>
파 크
층 에는</w>
증 진</w>
여 건이</w>
부 품</w>
마 한</w>
론 에</w>
로 선</w>
되 지는</w>
다 보면</w>
내 의</w>
기 구를</w>
구역 의</w>
▁활용 하고</w>
▁확산 될</w>
▁호텔 을</w>
▁포상 금</w>
▁판 사
▁최 강
▁청와 대에</w>
▁찾아 서</w>
▁지원 으로</w>
▁지원 된다</w>
▁장학 금을</w>
▁장 치
▁잘못 을</w>
▁자 긍
▁임시 정부</w>
▁인물 이다</w>
▁이용 자들이</w>
▁이 민</w>
▁이 글
▁위 치가</w>
▁오피스 텔
▁예상 됩니다</w>
▁영 리
▁연구 소</w>
▁얻 게</w>
▁어 지
▁아파 트에</w>
▁아이 템</w>
▁아빠 가</w>
▁아 기가</w>
▁쌓 여</w>
▁싶 었다</w>
▁수술 이</w>
▁손흥 민</w>
▁성동 구</w>
▁사용 되고</w>
▁사 안이</w>
▁비행 기가</w>
▁브 레이
▁불가능 합니다</w>
▁부 스
▁변동 성이</w>
▁베를 린
▁베 스트</w>
▁발언 에</w>
▁박 주
▁모 였다</w>
▁멸 종
▁만들 었습니다</w>
▁만나 면</w>
▁기 점으로</w>
▁기 기</w>
▁극단 적인</w>
▁국민연 금
▁구글 이</w>
▁구 호
▁관계 는</w>
▁경 진
▁강화 와</w>
▁간 행
▁가정 에서</w>
▁T F</w>
쪽 을</w>
작 이</w>
일 리
은행 에</w>
연 으로</w>
아 가는</w>
실 무
석 유
산 분리</w>
보 트
먹 는</w>
드 래
그 동안</w>
교 와</w>
개발 을</w>
가 에게</w>
▁협 조</w>
▁하 천</w>
▁피 난
▁폐기 물을</w>
▁페이스북 을</w>
▁판 판</w>
▁타 깃
▁취소 된</w>
▁초 기에</w>
▁채용 비리</w>
▁진지 하게</w>
▁진 화에</w>
▁지역 별로</w>
▁준비 된</w>
▁주시 겠습니까</w>
▁전 제로</w>
▁자아 낸다</w>
▁유 학</w>
▁유 가
▁위험 도</w>
▁움직 일</w>
▁외 부에</w>
▁오른 쪽으로</w>
▁예정 으로</w>
▁예 선
▁영 역에서</w>
▁엄마 와</w>
▁아버 지를</w>
▁쏟아 지고</w>
▁수 당과</w>
▁솔루 션</w>
▁붙 을</w>
▁분 쟁이</w>
▁부탁 드려요</w>
▁본 사에서</w>
▁방송 에서는</w>
▁발 족
▁발 렌
▁박 수
▁모양 을</w>
▁명 성을</w>
▁먹 어야</w>
▁만들 어서</w>
▁리 서
▁때 에도</w>
▁달 리고</w>
▁달 고</w>
▁높 기</w>
▁내 일까지</w>
▁납 득
▁나타 내고</w>
▁기 쁩니다</w>
▁그다 지</w>
▁규 탄
▁국민 권익
▁구축 해</w>
▁광 장</w>
▁과 목</w>
▁공격 적인</w>
▁고 민</w>
▁감면 할</w>
▁감 옥
▁감 시</w>
▁간담 회에서</w>
▁간담 회</w>
▁가입 한</w>
▁가 리지</w>
P I</w>
I N
E R
파 의</w>
책임 자</w>
전략 을</w>
장 관이</w>
상 에는</w>
북 부
본 이</w>
반도 체</w>
골 로</w>
▁흥 행
▁휘 말
▁행 보에</w>
▁해 법을</w>
▁하 시면</w>
▁피아 노
▁풀 려
▁편 편</w>
▁컬 러</w>
▁카 슈
▁칠 곡
▁춤 춤</w>
▁초 점이</w>
▁챙 기
▁챙 겨</w>
▁착 각
▁집 주
▁지목 된</w>
▁지 킬</w>
▁주 파
▁졸업 한</w>
▁전 역에</w>
▁임 무
▁이 인
▁이 사를</w>
▁은 폐
▁오사 카
▁오디 션</w>
▁오 게</w>
▁영상 에는</w>
▁열 풍이</w>
▁역할 에</w>
▁알 바
▁악 화</w>
▁심 리</w>
▁시설 물을</w>
▁시드 니
▁숨 숨</w>
▁수사 하고</w>
▁수 반
▁소 소</w>
▁설 정</w>
▁빚 고</w>
▁비주 얼
▁불 만
▁부분 의</w>
▁발견 해</w>
▁민족 의</w>
▁미지 수다</w>
▁머 리에</w>
▁매출 액</w>
▁많 았지만</w>
▁도시 가</w>
▁대 안이</w>
▁단 계를</w>
▁높아 져</w>
▁권고 했다</w>
▁공개 하고</w>
▁결 론</w>
▁9 3</w>
Y T</w>
S C</w>
회 사인</w>
환 의</w>
혁 이</w>
합 시다</w>
하 성</w>
지방경찰 청</w>
지 원에</w>
조 건
장 소</w>
의료 원</w>
의 학과</w>
유 지</w>
역 량</w>
심 리가</w>
시 마</w>
성 에서</w>
상 태를</w>
비 엔날
도 자
단체 들이</w>
깁 니다</w>
공 항에</w>
결 에</w>
▁환 자들이</w>
▁해 변
▁필요 에</w>
▁품 격</w>
▁포상 할</w>
▁파 기
▁특성 화
▁특 이
▁트렌 드를</w>
▁트 윈
▁질병 관리
▁주 제는</w>
▁제품 이다</w>
▁접 근</w>
▁장애 인이</w>
▁이산 가족</w>
▁의 원에</w>
▁유 형의</w>
▁열 풍
▁연방준비 제도</w>
▁여 자를</w>
▁앨범 을</w>
▁쓰 여</w>
▁신 사
▁송 금</w>
▁세 제</w>
▁새 누리
▁상승 에</w>
▁산 다</w>
▁사용 해야</w>
▁부드럽 게</w>
▁부 디</w>
▁보이스 피
▁방송 은</w>
▁박 재
▁미 투</w>
▁문자 메시
▁무 죄</w>
▁맡 는</w>
▁리 콜
▁듭 니다</w>
▁동 안
▁독 일이</w>
▁대법 원의</w>
▁느낀 다</w>
▁근 접
▁그 레이
▁교 황
▁공개 하여야</w>
▁경찰 청
▁거 두고</w>
▁강 하다</w>
▁감소 할</w>
▁감사 해요</w>
▁가 령</w>
▁가 급
i t</w>
학 부</w>
하 겠지만</w>
킹 을</w>
침 에</w>
주 거
자 이자</w>
온 은</w>
오 지</w>
여 름
엔터테인먼 트</w>
셨 는데</w>
사 회에서</w>
란 한</w>
대 문</w>
공무 원으로</w>
▁횡단 보
▁헬스 케어</w>
▁해결 해</w>
▁한국 관광
▁폴더 블
▁폭 행한</w>
▁폭 스
▁치러 진</w>
▁취 지를</w>
▁출 시를</w>
▁참석 자들은</w>
▁진행 돼</w>
▁직원 들을</w>
▁지지 하는</w>
▁지도 자</w>
▁종전 선언</w>
▁조성 하기</w>
▁제 천
▁제 압
▁정 해</w>
▁절반 이</w>
▁저 감</w>
▁일 간</w>
▁이루 기</w>
▁이곳 의</w>
▁원칙 적으로</w>
▁원 하시는</w>
▁우수 성을</w>
▁온 전히</w>
▁옛 날</w>
▁열 을</w>
▁연구 팀은</w>
▁여 건</w>
▁아시아나 항공</w>
▁시작 하면서</w>
▁스튜 어드
▁순 수
▁수 주</w>
▁소 명
▁불과 했다</w>
▁보내 드립니다</w>
▁변화 하는</w>
▁물 리적</w>
▁맡 았던</w>
▁똑 똑
▁때 를</w>
▁도 의회</w>
▁대 내
▁단속 에</w>
▁긴장 감이</w>
▁급속 히</w>
▁글 글</w>
▁구조 로</w>
▁광 고가</w>
▁공개 하는</w>
▁고령 화</w>
▁경 신
▁건조 한</w>
▁거 동이</w>
▁개 방</w>
▁가 해</w>
▁가 로</w>
▁U AE</w>
▁198 9</w>
S E
협 약을</w>
현 황</w>
총 생산</w>
집 행</w>
진흥 법</w>
있 었다</w>
이었 기</w>
으 려면</w>
욱 이</w>
용 에</w>
연 과</w>
수 행</w>
석 희</w>
모 바
만 여
랜 드가</w>
▁힘들 게</w>
▁후 쿠
▁현 지에</w>
▁향 토
▁한반 도에</w>
▁한반 도
▁한 창</w>
▁하나 금융
▁파 티</w>
▁특 성</w>
▁큽 니다</w>
▁천 주
▁챌 린
▁참 고</w>
▁중 단을</w>
▁존재 하지</w>
▁제품 들이</w>
▁제 목으로</w>
▁제 도로</w>
▁전 후</w>
▁인정 받아</w>
▁이 행을</w>
▁이 씨가</w>
▁유 재
▁위탁 받은</w>
▁운동 에</w>
▁요 새</w>
▁언론 을</w>
▁쓰 기</w>
▁심 혈
▁심 도</w>
▁스타 일</w>
▁수행 하고</w>
▁사 격
▁반영 하여야</w>
▁무 지
▁디 테
▁눌 러
▁높아 진다</w>
▁꺾 고</w>
▁기대 하는</w>
▁극 중</w>
▁국립 중앙
▁구축 에</w>
▁관람객 들이</w>
▁공직선거 법</w>
▁경남 도
▁걸 립니다</w>
▁감안 하여</w>
▁G TX</w>
i c</w>
201 2</w>
학교 에</w>
판 은</w>
천 명</w>
제품 의</w>
장 으로부터</w>
장 과의</w>
의 학
월 에도</w>
원 들과</w>
완 화</w>
실 적이</w>
소송 을</w>
세 출
설 계</w>
상태 가</w>
사 례를</w>
벽 이</w>
라 인
뜩 이나</w>
드 민
더 가</w>
고 객
▁후 유
▁환경 과</w>
▁해 양</w>
▁한국 수
▁학부모 들이</w>
▁학교 로</w>
▁하반 기에</w>
▁하반 기부터</w>
▁하나 만</w>
▁퍼포먼 스</w>
▁파 고
▁코 인
▁친 인
▁추진 이</w>
▁초콜 릿</w>
▁찾 는다</w>
▁집 착
▁지 나는</w>
▁주민 에게</w>
▁좋 다는</w>
▁조례 가</w>
▁절반 을</w>
▁재 편
▁자 진</w>
▁이후 의</w>
▁이전 의</w>
▁예비 타당
▁어 플
▁애 완
▁압도 적인</w>
▁알 렉
▁아 기
▁쓰러 져</w>
▁스프 링
▁스크 린</w>
▁선수 로</w>
▁선고 받은</w>
▁서 로에게</w>
▁생 애</w>
▁사회 는</w>
▁사용 자는</w>
▁비난 이</w>
▁변호 사
▁받 도록</w>
▁박근 혜
▁민간 위탁
▁물 건은</w>
▁묻 고</w>
▁목 욕
▁메 디
▁매 장이</w>
▁마크 롱</w>
▁됐 지만</w>
▁데 도</w>
▁내 에서도</w>
▁구성 한</w>
▁구 역</w>
▁교 민
▁골 골</w>
▁곁 들
▁게임 에</w>
▁가 정이</w>
P M</w>
폐소 생
투 표</w>
타 의</w>
창 을</w>
직 과</w>
지 원이</w>
중앙 회</w>
제 공</w>
정 당</w>
으 신가요</w>
오 면</w>
액 과</w>
산업 은</w>
만큼 이나</w>
렸 어</w>
대 변
규모 가</w>
과 정
경 기를</w>
▁활용 이</w>
▁행사 장</w>
▁해당 한다</w>
▁할 까</w>
▁포인 트
▁판 정
▁카 지
▁참가 하여</w>
▁차 단</w>
▁직 장인</w>
▁지배 구조</w>
▁지난 번에</w>
▁지 점
▁쥐 고</w>
▁주민 은</w>
▁주문 하고</w>
▁주 제</w>
▁전문 성</w>
▁잃 지</w>
▁이날 은</w>
▁응 용
▁위안 화</w>
▁운 이</w>
▁온 종일</w>
▁얻 어야</w>
▁양 을</w>
▁실태 조사</w>
▁신체 적</w>
▁신 일
▁숙 제를</w>
▁손 실
▁상담 이</w>
▁산 후
▁빠 지는</w>
▁불 쾌
▁부 진</w>
▁부 응
▁보 컬
▁범죄 가</w>
▁박 사</w>
▁미 치
▁문희 상</w>
▁말 했
▁따 르는</w>
▁드러 내
▁대구 시</w>
▁대 회의실에서</w>
▁달 을</w>
▁낳 은</w>
▁끼 고</w>
▁기후변 화</w>
▁기 득
▁금천 구</w>
▁근 무를</w>
▁그리스 도
▁권 유
▁구 에서</w>
▁관계 자들은</w>
▁20 23</w>
it y</w>
판 의</w>
판 사</w>
코 가</w>
장 치를</w>
야 할</w>
승 인을</w>
습 니다만</w>
셀 러
새 가</w>
분야 의</w>
보호 법</w>
범 으로</w>
미 디</w>
률 과</w>
류 와</w>
되었 지만</w>
길 래</w>
구 조를</w>
관 에는</w>
고 만</w>
▁활동 으로</w>
▁홍보 하고</w>
▁호소 하는</w>
▁해 킹</w>
▁합동 으로</w>
▁합 성
▁플 러
▁프리미 엄
▁표현 할</w>
▁평가 된다</w>
▁판매 한</w>
▁통보 를</w>
▁캐릭 터가</w>
▁최 영
▁초 중
▁주최 로</w>
▁정 함을</w>
▁정 재
▁접수 됐다</w>
▁전문 지
▁장 사
▁임종 헌</w>
▁인 허가</w>
▁올해 에는</w>
▁오 로지</w>
▁여행 이</w>
▁실시 된</w>
▁실 은</w>
▁신청 인에게</w>
▁시 를</w>
▁빚 은</w>
▁불편 함을</w>
▁방 통
▁발표 에</w>
▁미래 에셋
▁미 혼
▁무역 갈
▁마 감</w>
▁뒤 에서</w>
▁두 번째</w>
▁단 어가</w>
▁넓 고</w>
▁낚 시
▁금감 원이</w>
▁권 영
▁공기청정 기</w>
▁공급 할</w>
▁경제 적으로</w>
▁겨울 에</w>
▁감상 할</w>
l e
회담 을</w>
해 보는</w>
학교 는</w>
포 로</w>
편 의
청 년</w>
주 신</w>
정 류
전 에서는</w>
용 량</w>
에 나</w>
실 장이</w>
시스템 이</w>
산 림
베 이</w>
리 자</w>
되 어서</w>
대 원</w>
남 에</w>
기본 계획</w>
곳 으로</w>
거 리와</w>
가 들은</w>
▁협의 회의</w>
▁현대 차가</w>
▁한 잔
▁포함 된다</w>
▁포 상</w>
▁평가 한</w>
▁페 미니
▁탈바 꿈
▁코 드</w>
▁충실 히</w>
▁청년 들의</w>
▁청구 한</w>
▁지지 부
▁지역 사회의</w>
▁지나 친</w>
▁지 었다</w>
▁정상회담 의</w>
▁자발 적인</w>
▁자동 차가</w>
▁입 어</w>
▁인터넷 에서</w>
▁이야기 다</w>
▁의 문을</w>
▁유일 하다</w>
▁유니 버
▁요 약
▁없었 어</w>
▁얼마 든지</w>
▁야 당의</w>
▁안 희정</w>
▁아카데 미</w>
▁아이 콘
▁시도 한</w>
▁스케줄 을</w>
▁수 돗
▁세 금이</w>
▁선보 여</w>
▁생산 과</w>
▁생겨 서</w>
▁뽑 아
▁블라디 보
▁불법 으로</w>
▁북 서
▁부 평
▁부 지에</w>
▁부 끄러
▁병 원이</w>
▁벗 어난</w>
▁번 호</w>
▁배 상</w>
▁밝혔 다고</w>
▁발생 했을</w>
▁발 산
▁반영 하는</w>
▁반영 될</w>
▁반 짝
▁마 스크</w>
▁떨어 진다는</w>
▁드러 나는</w>
▁도 저히</w>
▁극 히</w>
▁극 우</w>
▁구입 한</w>
▁고 소한</w>
▁결 실을</w>
▁가 뜩이나</w>
l o
하 십니까</w>
토 가</w>
자 이
원 들을</w>
왔 다는</w>
시 대에</w>
쇼 가</w>
사무 의</w>
리 바
단 에는</w>
강 도</w>
▁활동 한</w>
▁활동 의</w>
▁허용 하는</w>
▁한국 산</w>
▁학 업
▁파악 해</w>
▁특별감 찰
▁트 랙
▁컨테이 너
▁체 제
▁채 팅
▁지난 번</w>
▁지 수</w>
▁중점 적으로</w>
▁주문 했는데</w>
▁조성 해</w>
▁장 비가</w>
▁입 수
▁인센티 브를</w>
▁인 명</w>
▁이 은</w>
▁원 한다면</w>
▁예 전</w>
▁없 을까요</w>
▁엄마 의</w>
▁어렵 지만</w>
▁안정 된</w>
▁실 린</w>
▁신청 하는</w>
▁스 틸
▁소속 기관의</w>
▁소방 당
▁성장 동
▁선 임</w>
▁새벽 에</w>
▁상 향</w>
▁비 관
▁부산 지역</w>
▁번 만</w>
▁배 기
▁발행 한</w>
▁묻 자</w>
▁무 선</w>
▁맨 체스터</w>
▁로스 앤젤
▁뚜 껑
▁득 점</w>
▁동 국
▁도 전</w>
▁도 시에</w>
▁능 력과</w>
▁노 벨
▁남 대문
▁나타나 지</w>
▁기초 생활
▁기자간담 회에서</w>
▁기능 성</w>
▁근본 적으로</w>
▁국정 농단</w>
▁구매 가</w>
▁고려 해야</w>
▁고 르
▁경기 관광
▁결정 적</w>
▁거 는</w>
▁개인 에게</w>
▁개 원
▁감 소가</w>
▁간단 히</w>
▁간단 하게</w>
▁간 부</w>
▁가 사
▁가 동</w>
▁가 구를</w>
▁V IP</w>
▁19 19</w>
프 린
총 의</w>
전 자가</w>
신 으로</w>
소방 재난
방 문
만 삭
대 행</w>
겠 죠</w>
갔 습니다</w>
감 사를</w>
가격 은</w>
▁휴대전 화를</w>
▁확대 되는</w>
▁행 운
▁학 대</w>
▁하 는
▁파 키스
▁특 성이</w>
▁탈 퇴</w>
▁충 전</w>
▁진술 한</w>
▁진 술</w>
▁중국 과의</w>
▁조사 하는</w>
▁장 미
▁있 나</w>
▁인명 피해
▁인도 적</w>
▁이동 통신
▁알레 르
▁아이템 을</w>
▁아니 라면</w>
▁심 사가</w>
▁시너 지를</w>
▁수 행을</w>
▁손해배 상
▁소통 하고</w>
▁성폭 행을</w>
▁서울 고
▁서 해</w>
▁새 해
▁삼성전 자
▁사이 트에서</w>
▁뽑 은</w>
▁북한 과의</w>
▁보장 하는</w>
▁디자이 너</w>
▁들어 왔다</w>
▁도 전을</w>
▁논 리
▁녹 아
▁금융 당국은</w>
▁고발 한</w>
▁거 리로</w>
▁개선 하는</w>
▁개념 이</w>
▁간 소
▁가 만히</w>
i d
지방재정 법</w>
인 데다</w>
유 는</w>
압 을</w>
시키 지</w>
브 란
분 들이</w>
부 분</w>
명 령</w>
되었 으나</w>
노 베이
감독 을</w>
▁활용 될</w>
▁화장 품
▁행동 은</w>
▁해 보고</w>
▁클 린
▁친구 들</w>
▁추 적</w>
▁주말 에는</w>
▁종 류</w>
▁제 고를</w>
▁정 정
▁있 는데요</w>
▁일 한</w>
▁인 삼
▁월스트리트 저널</w>
▁연 애
▁여러 분은</w>
▁아름답 게</w>
▁신 기술</w>
▁시가 총
▁쇼핑 을</w>
▁세계 유
▁성북 구</w>
▁설 렘
▁서 두
▁상응 하는</w>
▁비로 소</w>
▁분 열
▁부 결
▁보조 금의</w>
▁법원행정 처가</w>
▁발견 하고</w>
▁박 경
▁바 람</w>
▁미 스터
▁뭔 지</w>
▁맥 주를</w>
▁맞 붙
▁만 세</w>
▁마무리 했다</w>
▁두 꺼
▁다가 온</w>
▁느끼 지</w>
▁뉴질 랜드</w>
▁노동 자
▁내다 보고</w>
▁납 니다</w>
▁남북 경
▁나쁘 지</w>
▁나뉘 어</w>
▁끌어 들
▁김 원
▁근로 기준
▁골 라</w>
▁객관 적인</w>
▁감염 병</w>
▁가입 할</w>
▁가 세요</w>
H O</w>
훈 을</w>
호 흡
호 부터</w>
한 다며</w>
코 노
지 는데</w>
재 단의</w>
자 율
이 사장</w>
웠 지만</w>
안 내
식 당</w>
세 포</w>
경 비</w>
거 리에</w>
개 국에서</w>
▁환불 을</w>
▁현장 실
▁한 복</w>
▁패스트 트랙
▁패 스를</w>
▁통 산</w>
▁톡톡 히</w>
▁출 마</w>
▁촘 촘
▁참가 한다</w>
▁차 려
▁조선 시대</w>
▁정 신</w>
▁적절 히</w>
▁입 입</w>
▁임 재
▁일 괄
▁인보 이
▁의견 에</w>
▁의 회의</w>
▁은행 에서</w>
▁유 가</w>
▁오늘 날
▁예산 편
▁열 람</w>
▁연결 되는</w>
▁에너 지가</w>
▁얼마 인가요</w>
▁아파 트에서</w>
▁아동 학대</w>
▁실 현</w>
▁손 실이</w>
▁세 출
▁서비 스와</w>
▁생각 이다</w>
▁생각 도</w>
▁생 명</w>
▁상 인들이</w>
▁부회 장의</w>
▁부총 리가</w>
▁복 수의</w>
▁베이 비
▁발전 이</w>
▁박정 희</w>
▁민간 단체</w>
▁목적 에</w>
▁매출 액이</w>
▁만 일</w>
▁만 끽
▁동반 한</w>
▁대부분 이다</w>
▁단 지가</w>
▁단 기간에</w>
▁금융 위
▁금액 으로</w>
▁극 장
▁규칙 에서</w>
▁국정감 사에서</w>
▁국공 립
▁국 장은</w>
▁과정 과</w>
▁곤란 한</w>
▁경기 장에서</w>
▁10 1</w>
한 데다</w>
클 리
창 출</w>
전 지
재산 권</w>
자 본</w>
일 리</w>
일 도</w>
여 부</w>
슈 퍼
선 교
버 가</w>
드리 면</w>
기 소
극 을</w>
계 열</w>
건 에서</w>
▁후 퇴
▁화웨 이가</w>
▁핵심 은</w>
▁해 리</w>
▁한 라
▁한 달</w>
▁푸 는</w>
▁포상 금을</w>
▁파 문이</w>
▁틀 을</w>
▁통 일을</w>
▁컨트 롤
▁청소년 들의</w>
▁천 연</w>
▁지켜 야</w>
▁지자 체의</w>
▁지 적</w>
▁증가 세가</w>
▁중국 으로</w>
▁적 대
▁재 고
▁작 가들이</w>
▁자치 법규
▁유 은혜</w>
▁외국인 투자
▁여행 객
▁어쨌 든</w>
▁안산 시</w>
▁실 증
▁신 중한</w>
▁수요 에</w>
▁선 정을</w>
▁생산 된</w>
▁상 의</w>
▁살아 갈</w>
▁뺀 뺀</w>
▁불편 함이</w>
▁부 친
▁별 개로</w>
▁받았 으며</w>
▁미 팅을</w>
▁무리 하게</w>
▁모 순
▁매 립
▁만나 볼</w>
▁레스토 랑</w>
▁뇌 물</w>
▁노력 에</w>
▁냉 각
▁납 치
▁날짜 가</w>
▁나아 갈</w>
▁김현 미</w>
▁기여 하는</w>
▁그 럴
▁국 어
▁관계 법
▁과 장</w>
▁과 잉
▁과 다
▁고 집
▁고 의</w>
▁경제 지
▁가족 에게</w>
L O</w>
향 과</w>
하 곤</w>
풀 이</w>
철 은</w>
주의 와</w>
왔 는데</w>
어 가는</w>
아 동</w>
시 스</w>
소비 자
세 인</w>
방 위</w>
방 법을</w>
레 인
런 트</w>
대 까지</w>
공 모
건 물</w>
강 에서</w>
▁확 고
▁행사 다</w>
▁항 만
▁합 쳐
▁편 지</w>
▁통신 은</w>
▁텔레비 전</w>
▁취득 한</w>
▁최 첨단</w>
▁지원 하겠다</w>
▁지 침을</w>
▁준수 하여야</w>
▁준비 했다</w>
▁주 소가</w>
▁정 지</w>
▁정 순
▁작용 했다</w>
▁작업 은</w>
▁자 란</w>
▁잇따 른</w>
▁인 도의</w>
▁이례 적으로</w>
▁이 창
▁유 물
▁우즈베키스 탄
▁오피스 텔</w>
▁예약 하고</w>
▁열 이</w>
▁여 기가</w>
▁에 코
▁알아 보고</w>
▁안 건에</w>
▁아우 르는</w>
▁쓰 인</w>
▁실 려</w>
▁소통 의</w>
▁서울중앙지 검</w>
▁살펴 볼</w>
▁사용 에</w>
▁빌 보드</w>
▁벗어나 지</w>
▁무서 운</w>
▁명 절을</w>
▁맡 겨
▁맞 다</w>
▁리 더</w>
▁동 력을</w>
▁동 결
▁데이 트</w>
▁단 지는</w>
▁농 구
▁놀 놀</w>
▁노동 시간</w>
▁노 리는</w>
▁넘 어서</w>
▁남녀노 소</w>
▁나서 지</w>
▁나 만의</w>
▁김명 수</w>
▁기숙 사</w>
▁기 상</w>
▁근 거</w>
▁국 채</w>
▁국 악</w>
▁게임 은</w>
▁건 넸
▁강화 된</w>
▁갑작 스럽게</w>
▁감소 로</w>
▁I n
N A
혹 한</w>
져 나
젠 테이
의 사
월 이</w>
안 건</w>
심 의회</w>
상 황이</w>
분야 에</w>
받 아야</w>
동 기</w>
대표 는</w>
당 도</w>
교육 은</w>
▁하락 하는</w>
▁하 원</w>
▁코 오
▁카 리스
▁최 다
▁총 선을</w>
▁초등 학생
▁체결 하고</w>
▁청 춘
▁창출 에</w>
▁집중 된</w>
▁지상 파</w>
▁지 표가</w>
▁중요 해요</w>
▁주 기적으로</w>
▁조성 될</w>
▁정 전
▁일 러
▁인 원을</w>
▁인 원은</w>
▁의료 기관</w>
▁의 문
▁용 산</w>
▁예전 에는</w>
▁예술 의</w>
▁예고 한</w>
▁여 부
▁않았 으면</w>
▁않았 으나</w>
▁심 장</w>
▁싫어 하는</w>
▁시작 되기</w>
▁순조 롭게</w>
▁순 수</w>
▁손흥 민의</w>
▁소득주도 성장</w>
▁성별 을</w>
▁선정 됐다고</w>
▁선 관
▁서울 시의</w>
▁상 급
▁사례 다</w>
▁뽑 는</w>
▁봉 사</w>
▁복 합</w>
▁복 무</w>
▁보고 서에서</w>
▁보 복</w>
▁버 섯
▁버 려
▁밝히 며</w>
▁발달 장애
▁목소 리로</w>
▁메뉴 는</w>
▁만들어 내는</w>
▁뜻 뜻</w>
▁디자 인과</w>
▁독일 에서</w>
▁당사 자가</w>
▁늘 려
▁높 습니다</w>
▁넷 마
▁남 자를</w>
▁꺼 내</w>
▁기 분
▁구축 하는</w>
▁경우 에만</w>
▁개 정이</w>
▁값 이</w>
a g
A N</w>
타 임</w>
취 소</w>
철 에</w>
채 는</w>
지방자치 단체</w>
정 부는</w>
적 이지만</w>
스 피
모 씨가</w>
림 과</w>
대 장을</w>
관 도</w>
▁프로젝 트의</w>
▁풍 요
▁판결 했다</w>
▁태어 났
▁컸 던</w>
▁침 투
▁침 착
▁청 산
▁창출 과</w>
▁차 이로</w>
▁진행 한다고</w>
▁진 전을</w>
▁중단 된</w>
▁주 도로</w>
▁좌 석</w>
▁조 항을</w>
▁전달 해</w>
▁재 가
▁장 치가</w>
▁일회 용</w>
▁유일 의</w>
▁월 평균</w>
▁웃 음
▁어르신 들이</w>
▁앞 다
▁않 을까요</w>
▁아 라
▁시작 하였다</w>
▁승 소
▁스트리 밍</w>
▁순간 을</w>
▁손님 들이</w>
▁성접 대</w>
▁생각 에는</w>
▁상 점
▁삼성바이오로직 스</w>
▁블랙 리스트</w>
▁불 분
▁불 량</w>
▁분위 기는</w>
▁부 통
▁본 회의에서</w>
▁본 사가</w>
▁보내 야</w>
▁보 건</w>
▁방 에서</w>
▁반발 했다</w>
▁물 의를</w>
▁무 의
▁매 입</w>
▁동 래
▁다 산
▁능 동
▁눈 여
▁노 인의</w>
▁남양 주</w>
▁남 구</w>
▁기념 하는</w>
▁급속 도로</w>
▁금 금</w>
▁구 하는</w>
▁교통 수
▁괜찮 을</w>
▁관심 도</w>
▁공정 위가</w>
▁골 자다</w>
▁경제 는</w>
▁거론 되고</w>
▁거 짓</w>
▁강 타
▁감 염</w>
▁가능 했다</w>
▁가 수가</w>
▁3 60</w>
or e
회 원</w>
행 사에</w>
주의 에</w>
유 지
어린이 집</w>
복 구</w>
목 적</w>
▁회담 에서</w>
▁회 부
▁화 답
▁현 안을</w>
▁향 하고</w>
▁해 주고</w>
▁하 와
▁토트 넘</w>
▁취 미
▁천안 시</w>
▁차 등
▁질의 응
▁진술 이</w>
▁지방자치 단체의</w>
▁주도 적으로</w>
▁주 제에</w>
▁주 전</w>
▁조용 한</w>
▁조 경
▁제주 도에</w>
▁전 복
▁작동 하지</w>
▁자 살</w>
▁인 연을</w>
▁인 내
▁이 국
▁의 장의</w>
▁웹 툰</w>
▁워크 숍</w>
▁예약 한</w>
▁예산 에</w>
▁영수 증</w>
▁역할 은</w>
▁앉 은</w>
▁아파 트의</w>
▁수 년</w>
▁세종 학
▁성 장의</w>
▁생산 성</w>
▁삼성 은</w>
▁사용 하고자</w>
▁사망 자가</w>
▁사고 에</w>
▁사 단법인</w>
▁분 들은</w>
▁부산 시는</w>
▁부 채</w>
▁보내주 시면</w>
▁베테 랑</w>
▁밀 려</w>
▁명 할</w>
▁멀 리
▁망 설
▁마련 한다</w>
▁땅 이</w>
▁든든 한</w>
▁독 일을</w>
▁달 해</w>
▁농 농</w>
▁노력 과</w>
▁노 란</w>
▁나 올
▁김 순
▁기획 한</w>
▁골드 만삭
▁고혈 압</w>
▁결 핵
▁걸 려
▁가 전</w>
en t
회 장을</w>
회 사
화 하기</w>
형 사
협의 회의</w>
해 줘</w>
컵 을</w>
채 용</w>
주 기를</w>
임대 주택</w>
역 까지</w>
수 학
소 장은</w>
보건 법</w>
베 스트
발 적으로</w>
모 금
면 서다</w>
래 를</w>
디 는</w>
도 상
단체 인</w>
계획 은</w>
▁힘 으로</w>
▁혁신 성장</w>
▁하 므로</w>
▁판매 되고</w>
▁추 세를</w>
▁천 천</w>
▁지금 처럼</w>
▁중부 지방
▁주의 해야</w>
▁좋아 해서</w>
▁조짐 을</w>
▁전 속
▁전 년보다</w>
▁적 다</w>
▁재난 관리
▁입 찰</w>
▁일본 으로</w>
▁인 물로</w>
▁이 별
▁이 광
▁음 료를</w>
▁은 혜
▁유럽 에서</w>
▁우 유</w>
▁왕 이</w>
▁오 른다</w>
▁연 금</w>
▁어린 이가</w>
▁양 념
▁아침 부터</w>
▁심 폐소생
▁시 점이다</w>
▁시 점을</w>
▁수 락
▁소개 한다</w>
▁센 트
▁선택 의</w>
▁서울 경제
▁상 해</w>
▁사 형
▁사 운
▁사 소한</w>
▁빅 뱅</w>
▁보내 지</w>
▁벗 고</w>
▁물 질이</w>
▁모 르게</w>
▁매출 은</w>
▁라오 스</w>
▁동 향</w>
▁대통령 도</w>
▁내 어</w>
▁납 부</w>
▁남편 과</w>
▁꿈 꿈</w>
▁기다 릴</w>
▁근 로</w>
▁그럼 에도</w>
▁그 늘
▁규모 에</w>
▁괜찮 을까요</w>
▁공유 재산</w>
▁고 향</w>
▁게임 의</w>
▁Q R</w>
e d
O A</w>
한국 의</w>
촉 진</w>
준 다고</w>
재 산을</w>
일 까요</w>
이 런</w>
의 장</w>
원 들에게</w>
에서 나</w>
성 장의</w>
부장 관</w>
번 호
밴 드</w>
도 우
대한민 국</w>
길 은</w>
기 적</w>
과 로</w>
계 열
경기 장에서</w>
거 리로</w>
▁협 업</w>
▁학교 폭력</w>
▁풍 경이</w>
▁치 우
▁첫 날
▁중 이야</w>
▁주택 담보
▁좋 은데</w>
▁좁 아
▁전문 인력</w>
▁전문 성이</w>
▁장 충
▁잊 어버
▁입 체
▁일 대를</w>
▁의심 하고</w>
▁음악 의</w>
▁유 흥
▁원 전
▁원 스
▁웃 음이</w>
▁우려 해</w>
▁우 주</w>
▁외무 성</w>
▁온 천
▁연 수</w>
▁에 에</w>
▁엉 덩
▁없 이도</w>
▁어려 웠던</w>
▁아시안 컵</w>
▁심의 회의</w>
▁실 행</w>
▁소 수</w>
▁세워 진</w>
▁세 대의</w>
▁성향 의</w>
▁선수 와</w>
▁사실 로</w>
▁사라 졌다</w>
▁부 흥
▁봤 습니다</w>
▁보 이기</w>
▁배 치</w>
▁뮤 직</w>
▁무 렵
▁맡 길</w>
▁러 브
▁라 벨
▁들어서 면</w>
▁두려 워
▁되풀 이
▁동북 아</w>
▁대중교통 을</w>
▁대 회에는</w>
▁당직 근무
▁당 대표</w>
▁끝나 지</w>
▁꼽 혔다</w>
▁국 도</w>
▁구 본
▁구 도
▁교통 이</w>
▁관 해서</w>
▁과학 기술</w>
▁공 사에</w>
▁공 단</w>
▁고양 이를</w>
▁고객 들에게</w>
▁고 령</w>
▁계 곡
▁겨울 방
▁검 증을</w>
▁갖 췄
▁각별 히</w>
▁가슴 을</w>
회 복
행 으로</w>
해주 길</w>
프 랑
패 로</w>
츠 는</w>
졌 으면</w>
일 자</w>
인 재</w>
어 머니
아 프
부 모</w>
본 부에</w>
배 나</w>
미 국이</w>
만원 까지</w>
림 으로</w>
녀 의</w>
네트워 크</w>
기 자</w>
기 도
급 한</w>
결 산
▁희망 한다</w>
▁확정 했다</w>
▁확 고한</w>
▁호텔 로</w>
▁협력 하여</w>
▁했 으면</w>
▁한국 인이</w>
▁투입 된</w>
▁측 과</w>
▁책 상</w>
▁직접 적으로</w>
▁지원 받은</w>
▁즉 각
▁중소기업 에</w>
▁조 명</w>
▁전두 환</w>
▁적 자</w>
▁장 면</w>
▁장 거리</w>
▁입 고
▁이 전을</w>
▁연락 해</w>
▁연구 팀이</w>
▁얻 지</w>
▁앞 을</w>
▁수 성
▁손 혜원</w>
▁석 유</w>
▁서 구
▁새 겨져</w>
▁상황 으로</w>
▁삼 겹
▁사진 에는</w>
▁사망 했다</w>
▁사람 으로서</w>
▁사 무</w>
▁비 위</w>
▁봄 이</w>
▁벽 을</w>
▁밝 힐</w>
▁발 로</w>
▁반 가
▁명칭 을</w>
▁면 적이</w>
▁먹 었어요</w>
▁맞추 는</w>
▁들어가 서</w>
▁들 이</w>
▁동 굴
▁더 위를</w>
▁대표 팀이</w>
▁대기업 과</w>
▁뉴욕타임 스</w>
▁까 지</w>
▁관계 자들의</w>
▁과 일
▁고등 학생</w>
▁경 부
▁경 로를</w>
▁건강 검
▁개발 제한
▁강 소
▁강 력</w>
A C
9 000</w>
패 가</w>
출 연
출 산
제 작</w>
장 관은</w>
자유 구역
이 미
월 로</w>
외 과</w>
영 업</w>
분 기
부 터의</w>
배 로</w>
마 리를</w>
등 과</w>
개발 기구</w>
▁후 기</w>
▁화 학</w>
▁행정 부</w>
▁할 인을</w>
▁코 치가</w>
▁초과 하지</w>
▁철 거</w>
▁채 용을</w>
▁찾아 오는</w>
▁착 한</w>
▁지켜 보는</w>
▁지금 보다</w>
▁준 우
▁주시 길</w>
▁임 의로</w>
▁이 진
▁이 럴</w>
▁응 원</w>
▁위협 하는</w>
▁워 터
▁올라 가
▁예비 창업
▁얘 기</w>
▁양 성을</w>
▁아니 었
▁시행 하여야</w>
▁시스템 의</w>
▁시 술</w>
▁시 리아
▁설명 회를</w>
▁선생 님은</w>
▁서류 는</w>
▁생 태</w>
▁사회 로</w>
▁비난 했다</w>
▁불 복
▁문 장을</w>
▁무더 기로</w>
▁명예 를</w>
▁매 티스</w>
▁뜻깊 은</w>
▁따 복
▁도전 하는</w>
▁다음 주</w>
▁노력 으로</w>
▁낯 설
▁나 을</w>
▁긴 밀히</w>
▁경기 중소기업
▁경 연</w>
▁결합 한</w>
▁견 줘</w>
▁개편 을</w>
▁개 헌
▁간 판</w>
▁가 습
트 리</w>
월 을</w>
수 들이</w>
분 양</w>
부 문
법 인이</w>
번 호가</w>
명 이다</w>
면 접
마케 팅</w>
러 시아</w>
량 도</w>
도 시를</w>
기 계</w>
공 제</w>
강 한</w>
▁현 안</w>
▁헤 드
▁항공 사</w>
▁표 시</w>
▁특허 를</w>
▁통 증을</w>
▁타 자</w>
▁크로 아티
▁콘텐츠 의</w>
▁초 계
▁청 정
▁찬 반</w>
▁진 입</w>
▁증가 와</w>
▁주 었습니다</w>
▁주 도</w>
▁존재 감을</w>
▁제출 해야</w>
▁정상 화</w>
▁정 밀</w>
▁전자상 거래</w>
▁저 조한</w>
▁장애 를</w>
▁입 구</w>
▁일반 인</w>
▁이 자를</w>
▁이 들도</w>
▁음식 의</w>
▁유발 하는</w>
▁원 료
▁운영 한</w>
▁요 금은</w>
▁예산 으로</w>
▁야 당이</w>
▁아티스트 들이</w>
▁쏟아 지는</w>
▁심 포지
▁쇼트 트랙</w>
▁선수 단</w>
▁상황 이었다</w>
▁사이 에서는</w>
▁사업 자
▁사 면</w>
▁베트남 의</w>
▁무 단</w>
▁말씀 드
▁만 료</w>
▁마이 너
▁들어 선다</w>
▁도착 했다</w>
▁대 항
▁남북 교류
▁나섰 지만</w>
▁끊 은</w>
▁기술 에</w>
▁기쁘 다</w>
▁기 장
▁그 칠</w>
▁규칙 이</w>
▁교통 안전
▁관계 자를</w>
▁계 좌</w>
▁거 머
▁강 사가</w>
▁각 지에서</w>
A D</w>
훈 의</w>
현 장에</w>
한 반도</w>
표 로</w>
특 구</w>
초 가</w>
쳤 다고</w>
체 계가</w>
찰 이</w>
차이 나
제 일
전 남
장 벽</w>
일 전까지</w>
왔 다고</w>
염 이</w>
스러 워</w>
상 환
미 화
모 와</w>
맞 이</w>
라 에</w>
구 속
경 궁</w>
걸 로</w>
개월 의</w>
개 소가</w>
▁회복 을</w>
▁함께 할</w>
▁하이 브리
▁하도 급
▁태극 기</w>
▁타 격이</w>
▁치 안
▁치 르는</w>
▁치 닫
▁최우 선</w>
▁청소년 을</w>
▁청 원</w>
▁지지 율</w>
▁주 류
▁존 재</w>
▁정보통신 기술</w>
▁정도 면</w>
▁정 통
▁전 지
▁전 승
▁저희 도</w>
▁장 점
▁자 본</w>
▁인스타그램 에</w>
▁이용 객
▁의결 한다</w>
▁웃 는</w>
▁옹 호
▁옷 은</w>
▁올라 갈</w>
▁영상 정보
▁엿 보
▁않 겠다고</w>
▁심각 하게</w>
▁신 재
▁순 수한</w>
▁수수 료
▁수 치를</w>
▁생 존</w>
▁살펴 보
▁사 정을</w>
▁불 교</w>
▁부 서에</w>
▁배 출</w>
▁방 학
▁밝 고</w>
▁무한 돌봄
▁모색 하는</w>
▁모 험
▁매 칭
▁라 인을</w>
▁들어 가지</w>
▁당사 자</w>
▁다르 다는</w>
▁다르 기</w>
▁높 인</w>
▁넘 었다</w>
▁넘 겼다</w>
▁나왔 지만</w>
▁기획 조정
▁기본 으로</w>
▁기관 에서</w>
▁그렇 기</w>
▁국제 유
▁공감 대가</w>
▁공 포</w>
▁곳 입니다</w>
▁경 관
▁것 에서</w>
▁개선 된</w>
▁가톨 릭
▁故 故</w>
▁D NA</w>
▁3 65</w>
i f
W SJ</w>
회 관의</w>
해보 니</w>
해 서
천 여
지 배
준 다는</w>
자 에서</w>
이 냐</w>
손 이</w>
세 미
사 유가</w>
문화 유
메 달을</w>
날 수록</w>
▁힐 링
▁휴 식</w>
▁화 요일</w>
▁홈 런</w>
▁행 사와</w>
▁해소 하고</w>
▁학 대
▁하도 급</w>
▁필요 하지만</w>
▁풍 경
▁판단 하는</w>
▁통일 전선
▁택시 기
▁카 이
▁출 마를</w>
▁초 음
▁주고 받
▁종료 된</w>
▁제출 하는</w>
▁제출 하고</w>
▁전시 를</w>
▁자치 회관</w>
▁자유한국 당은</w>
▁이 들
▁이 경
▁의원 에게</w>
▁의무 적으로</w>
▁의 왕
▁유기 농</w>
▁온 다</w>
▁연 주</w>
▁어디서 나</w>
▁양해 각
▁악 수를</w>
▁아 들
▁시사 했다</w>
▁스 릴
▁선정 하는</w>
▁살 균
▁불 안이</w>
▁불 교
▁보 완</w>
▁박 씨는</w>
▁모른 다는</w>
▁만 세
▁딱 딱
▁도 움으로</w>
▁대 명
▁닮 은</w>
▁단 정
▁뇌 물을</w>
▁농 축
▁내세 워</w>
▁남아 있다</w>
▁남 과</w>
▁길 이가</w>
▁기 회로</w>
▁구간 을</w>
▁관계 자의</w>
▁공개 한다</w>
▁견 적을</w>
▁검찰 과</w>
▁거 부한</w>
▁같 지만</w>
▁간호 사</w>
▁간절 히</w>
G DP</w>
E A</w>
현 장
커 녕</w>
카 이
잡 을</w>
염 을</w>
연 준</w>
상 금</w>
사업 체</w>
방송 이</w>
리 거나</w>
남 북</w>
급 으로</w>
권 에서는</w>
겼 습니다</w>
▁흡 입
▁확 확</w>
▁호텔 이</w>
▁행 보가</w>
▁항 구
▁폐 쇄</w>
▁파악 한</w>
▁특 산
▁취업 에</w>
▁충 격이</w>
▁진행 하며</w>
▁지정 하고</w>
▁지역 아동
▁지 어진</w>
▁잔 뜩</w>
▁작 성을</w>
▁잃어버 린</w>
▁이곳 이</w>
▁위협 이</w>
▁요 인</w>
▁예방 과</w>
▁연결 돼</w>
▁연 달아</w>
▁언론 인</w>
▁어깨 를</w>
▁어 필
▁알리 바
▁싸 게</w>
▁심 재
▁시작 하고</w>
▁시간 의</w>
▁시 까지</w>
▁승 객이</w>
▁수준 에서</w>
▁소방 재난
▁선고 됐다</w>
▁서울 교통
▁생활 폐기물</w>
▁상황 입니다</w>
▁상 하이
▁상 처
▁살 리기</w>
▁비 정상
▁불가피 할</w>
▁불가피 하다</w>
▁분 수
▁북한 산</w>
▁보호 하는</w>
▁보 였던</w>
▁벌 일</w>
▁반 송
▁미 세
▁맞이 하는</w>
▁말씀 하신</w>
▁만 든
▁리스크 가</w>
▁드 루
▁됐 던</w>
▁돌파 했다</w>
▁독보 적인</w>
▁대상 자를</w>
▁뉴 뉴</w>
▁농 구</w>
▁논 문</w>
▁노 조의</w>
▁남 았다</w>
▁김 홍
▁기 자들이</w>
▁금융감독 원은</w>
▁국민 들에게</w>
▁국내 외
▁국가 적</w>
▁국가 로</w>
▁구조조 정</w>
▁구속영 장</w>
▁공동 성
▁골 라
▁고 인
▁계좌 를</w>
▁거론 된다</w>
▁거 리에서</w>
▁개최 될</w>
▁개 의
▁199 3</w>
F TA</w>
해왔 던</w>
킵 니다</w>
케 미
주의 보가</w>
졌 는지</w>
정 원
이었 을</w>
이었 다면</w>
이라 고도</w>
우 에</w>
언더 파</w>
수 행을</w>
빌 리티</w>
브 는</w>
번 이</w>
르 트</w>
돌 을</w>
당 하는</w>
님 들이</w>
농 어
냈 습니다</w>
▁흔 한</w>
▁후보 자를</w>
▁후 문이다</w>
▁홍 역</w>
▁호 주의</w>
▁한 계
▁필요 하고</w>
▁표 현</w>
▁투 어를</w>
▁취 지
▁청년 의</w>
▁책임 지는</w>
▁차지 할</w>
▁집 안
▁지 사를</w>
▁제출 하면</w>
▁제작 하는</w>
▁전 광
▁재미 가</w>
▁임직 원들이</w>
▁일본 에서는</w>
▁이루어 지지</w>
▁의원 도</w>
▁의뢰 할</w>
▁유 쾌한</w>
▁운 문
▁우려 의</w>
▁옮 기는</w>
▁올 리며</w>
▁예술 을</w>
▁업체 들의</w>
▁어 제는</w>
▁아마 추어</w>
▁싶 다면</w>
▁심 리가</w>
▁시설 로</w>
▁슬 픈</w>
▁슬 라이
▁스타트 업이</w>
▁수 천</w>
▁수 단
▁소방 서</w>
▁셀 트리
▁성 경</w>
▁선생 이</w>
▁생 명의</w>
▁사 인
▁부 대행
▁백 남
▁배 석
▁박 사가</w>
▁민간 이</w>
▁미흡 한</w>
▁무 거
▁매 몰
▁많아 지고</w>
▁만나 기</w>
▁러시아 월드컵</w>
▁라 디오
▁땀 을</w>
▁두 지</w>
▁대표 단이</w>
▁대 사</w>
▁논의 하고</w>
▁넣 었다</w>
▁날 씨를</w>
▁김대 중</w>
▁기 억</w>
▁근무 한</w>
▁극단 적</w>
▁귀 귀</w>
▁관객 들에게</w>
▁관 통
▁경찰 관</w>
▁거 액의</w>
▁가 진다</w>
▁B BC</w>
▁2 40</w>
▁10 5</w>
했 나요</w>
푸 드
티 는</w>
카 드가</w>
지방 세
지 진</w>
조 부터</w>
이 상의</w>
운동 에</w>
시설 에서</w>
순 으로</w>
소 프트</w>
소 상공
서 류</w>
산 시</w>
보 단</w>
드리 며</w>
더 리
더 러</w>
대 상이</w>
농 협
끈 한</w>
규 가</w>
구역 으로</w>
경 남</w>
▁힘들 어요</w>
▁홍콩 의</w>
▁형 형</w>
▁협조 하여야</w>
▁행 위는</w>
▁해결 책을</w>
▁해 방</w>
▁합 시다</w>
▁프레 스
▁표 방
▁폴 란
▁폐 지를</w>
▁쳐 다
▁참고 로</w>
▁지 사와</w>
▁주 상
▁죄 를</w>
▁전 하며</w>
▁재능 기
▁잠 실</w>
▁자연 스레</w>
▁인정 받은</w>
▁이 은
▁의혹 으로</w>
▁예정 대로</w>
▁않았 다면</w>
▁아 동이</w>
▁숨 겨진</w>
▁수요 일에</w>
▁수도 권에</w>
▁성희 롱
▁서비스 다</w>
▁생생 하게</w>
▁생각 엔</w>
▁사이 가</w>
▁사용 될</w>
▁사 연이</w>
▁사 안을</w>
▁뿌 리</w>
▁비 전</w>
▁불 로</w>
▁부모 님</w>
▁부 정한</w>
▁밸 런
▁발생 이</w>
▁무 용</w>
▁마음 대로</w>
▁뛰어넘 는</w>
▁돌 며</w>
▁대한 체육
▁다음 의</w>
▁노인 복지
▁내 몰
▁나타났 다고</w>
▁구성 과</w>
▁광 역</w>
▁과정 의</w>
▁경찰 관이</w>
▁격 차를</w>
▁걱 정을</w>
▁가치 와</w>
▁가격 도</w>
▁D J</w>
V D</w>
I oT</w>
한국 당</w>
하셨 나요</w>
파 인</w>
통 지
콘서 트</w>
코리아 가</w>
중 견
주의 적</w>
요 금
연구 소는</w>
시 겠어요</w>
스 틴</w>
분 에는</w>
봐 야
발 생
민주 화
목 적
면 허</w>
리 어
락 에</w>
라이 트</w>
대 도</w>
달 에</w>
겼 던</w>
건축 물</w>
감 의</w>
가족 이</w>
▁힘들 고</w>
▁폐 업
▁집중 된다</w>
▁진 짜
▁증가 율이</w>
▁제작 에</w>
▁정 립
▁전후 로</w>
▁전자 담
▁잦 아
▁장 단
▁이해 하지</w>
▁이곳 에는</w>
▁유 방
▁유 람
▁용 도
▁예상 되고</w>
▁영 상으로</w>
▁어 땠
▁압 축
▁심의 위원회</w>
▁신 태
▁신 상
▁시 뮬
▁스토 리를</w>
▁숙 소</w>
▁세 종</w>
▁상 업</w>
▁상 봉
▁부과 된다</w>
▁볼 을</w>
▁변 형
▁받아 왔다</w>
▁미얀 마
▁무 작
▁못 하면서</w>
▁명 칭</w>
▁먹 어요</w>
▁뛰 고</w>
▁등 기
▁드 래
▁독립 을</w>
▁늦 춰
▁내놓 지</w>
▁김지 사는</w>
▁기록 했다고</w>
▁글 과</w>
▁규칙 을</w>
▁교 직
▁골 이</w>
▁곁 에</w>
▁경찰 서</w>
▁경 미한</w>
▁가격 과</w>
▁6 000</w>
E B</w>
> (</w>
히 나</w>
협 상
해 본</w>
폰 이</w>
창 출
지 출</w>
지 주
증 의</w>
의 견을</w>
오 니</w>
었 는지</w>
비용 은</w>
법 인의</w>
번 지</w>
문화 재단</w>
년 부터는</w>
나무 가</w>
기준 이</w>
구 조가</w>
구 도</w>
거 가</w>
값 은</w>
▁화 이트</w>
▁화 상
▁협동 조합</w>
▁허 용</w>
▁해 상</w>
▁한반 도를</w>
▁한국 인들이</w>
▁피 서
▁플랫폼 이</w>
▁풀 고</w>
▁포 천</w>
▁파악 하는</w>
▁특 화</w>
▁투자유 치</w>
▁최고 치를</w>
▁챙 긴</w>
▁참여 하게</w>
▁진 로를</w>
▁중심 을</w>
▁줄 게</w>
▁주민 들과</w>
▁종전선언 을</w>
▁전 제
▁적 을</w>
▁재생 에너지</w>
▁자원봉사 자</w>
▁일 들을</w>
▁이상 이면</w>
▁이르 렀다</w>
▁유도 하는</w>
▁유 학을</w>
▁위촉 하는</w>
▁위 생</w>
▁웹 툰
▁오 버
▁연 인</w>
▁액세 서
▁알 린</w>
▁신중 하게</w>
▁시 인
▁시 세</w>
▁스트레 스가</w>
▁스타 일을</w>
▁순 차적으로</w>
▁소속 으로</w>
▁서울시 장이</w>
▁사태 에</w>
▁사랑 은</w>
▁뿐 입니다</w>
▁비 행</w>
▁부담 해야</w>
▁부 스를</w>
▁방문 은</w>
▁발 맞
▁바닥 을</w>
▁무역분 쟁
▁몸 싸
▁면 허</w>
▁말 과</w>
▁마을 이</w>
▁마드리 드</w>
▁리 뷰
▁던 지는</w>
▁달성 할</w>
▁단 호
▁노력 한</w>
▁노 골
▁낮 다는</w>
▁나 갔다</w>
▁김 인
▁국 장</w>
▁구 원
▁교 사들이</w>
▁공격 이</w>
▁공개 하며</w>
▁공개 를</w>
▁곡 곡</w>
▁강 경</w>
▁가 끔
a b
S D</w>
플루엔 자</w>
차 산업
중 은</w>
작 에</w>
이 요</w>
율 로</w>
원 가</w>
옷 을</w>
없 다</w>
소 매
랜 드는</w>
됐 다가</w>
더불 어민주
걸 이</w>
거 는</w>
가 지
▁확인 되면</w>
▁화장 품을</w>
▁형 태</w>
▁협 상에서</w>
▁펼 치
▁튀 어나
▁토론 토</w>
▁태블 릿</w>
▁카슈 끄
▁취 득</w>
▁출석 위원</w>
▁추 세가</w>
▁중소기업 과</w>
▁중 반</w>
▁주 부
▁제 네
▁정부 도</w>
▁정 치를</w>
▁전 과</w>
▁있었 다면</w>
▁일제강 점기</w>
▁이 천</w>
▁의미 는</w>
▁유 혹
▁용 서
▁오리지 널</w>
▁오 르면</w>
▁예방 하고</w>
▁연 관이</w>
▁알려 줄</w>
▁싸 이의</w>
▁시 군이</w>
▁소통 과</w>
▁소 정의</w>
▁소 장</w>
▁섞 인</w>
▁생활 하는</w>
▁샀 는데</w>
▁산 입
▁사업 장을</w>
▁사 임
▁불 어</w>
▁부 문은</w>
▁부 문에</w>
▁보 장을</w>
▁벌 인다</w>
▁배우 기</w>
▁배 급
▁믿 음을</w>
▁무 기</w>
▁모 욕
▁모 멘
▁모 금
▁머물 고</w>
▁머 물</w>
▁마 약을</w>
▁래 퍼</w>
▁되 니</w>
▁대 진
▁당선 된</w>
▁당 기
▁내년 에도</w>
▁난 방
▁나라 로</w>
▁꾸 려
▁깨끗 하게</w>
▁길 고</w>
▁기상 청</w>
▁기 분을</w>
▁교 과</w>
▁관계 자와</w>
▁관 장
▁과 언이</w>
▁것 인가요</w>
▁검토 가</w>
▁가급 적</w>
▁C D</w>
iv e</w>
a y
M I</w>
A P</w>
프 에</w>
축 제는</w>
직 은</w>
지 식
지 길</w>
자 였던</w>
선 물
례 로</w>
라이 프</w>
등 하게</w>
됐 어요</w>
대 금</w>
내 역을</w>
기 획</w>
근 무를</w>
그 를</w>
견 과</w>
▁후 원</w>
▁황 희
▁환불 이</w>
▁헌 법</w>
▁해소 될</w>
▁항소 심에서</w>
▁특 감
▁통계 청</w>
▁코 미디</w>
▁캠퍼 스</w>
▁취 소를</w>
▁출동 해</w>
▁최 하
▁초 월
▁창 설
▁직 격
▁지나 고</w>
▁중 에도</w>
▁중 복</w>
▁줄 기
▁주민 들</w>
▁좁 혀
▁제한 된</w>
▁제작 을</w>
▁제 때</w>
▁정 경
▁재 벌</w>
▁자 세가</w>
▁있 더라도</w>
▁이슈 를</w>
▁이름 의</w>
▁이 철
▁유 지를</w>
▁유 리</w>
▁원 하고</w>
▁운동 의</w>
▁외국 에서</w>
▁예 멘</w>
▁역 으로</w>
▁얼 어붙
▁아내 를</w>
▁아 까
▁심 심
▁신재생 에너지</w>
▁시 공</w>
▁스토 리</w>
▁수탁 자가</w>
▁소송 이</w>
▁소득 주도</w>
▁상용 화</w>
▁삼성 생
▁사회 적으로</w>
▁사 장의</w>
▁비교 할</w>
▁불 안</w>
▁불 발
▁불 렀다</w>
▁부 시</w>
▁병 병</w>
▁법 적으로</w>
▁번째 다</w>
▁발 사</w>
▁바 라고</w>
▁민 속</w>
▁무역협 상</w>
▁무릎 을</w>
▁디자 인으로</w>
▁대상 인</w>
▁넣 을</w>
▁너무 나도</w>
▁날 씨에</w>
▁김부 겸</w>
▁그 랜드
▁공 방이</w>
▁고 성</w>
▁검 사는</w>
▁건 수는</w>
D B</w>
1 7
협의 회가</w>
해수 욕
팀 으로</w>
축 제
채 널</w>
쯤 에</w>
지원 과</w>
줬 으면</w>
제 품이</w>
의 식</w>
스러 워
수 준
수 입</w>
수 원
사 각
블 리
문 서</w>
르 의</w>
로 그</w>
듯 한</w>
대 구
담당 관은</w>
내 륙
경제 에</w>
▁흘 러</w>
▁휘 둘
▁회복 이</w>
▁활 기를</w>
▁협의 체</w>
▁한 남
▁필 로
▁폭 발</w>
▁평 을</w>
▁평 상
▁판단 될</w>
▁통 보</w>
▁터키 의</w>
▁터 널
▁코 트
▁치 즈</w>
▁취 지에</w>
▁충 주
▁최 신
▁촉 진을</w>
▁청 량
▁참가 자들의</w>
▁착 안
▁차 이</w>
▁질 적</w>
▁진흥 을</w>
▁직후 인</w>
▁지 시에</w>
▁존재 를</w>
▁정착 을</w>
▁정 식으로</w>
▁점 진
▁전년 대비</w>
▁저 수
▁장 담
▁잡 혔다</w>
▁잠재 적</w>
▁임대 주택</w>
▁일으 켰
▁이슈 로</w>
▁이 혼</w>
▁응원 하는</w>
▁응답 했다</w>
▁오 키
▁언 어로</w>
▁약 물</w>
▁않 은데</w>
▁아시 나요</w>
▁아 미
▁싫 어</w>
▁실 력</w>
▁승 인이</w>
▁솔 로
▁소 재가</w>
▁서 예
▁사 계
▁블라디보 스토
▁보도 자료를</w>
▁베 르
▁믿 음이</w>
▁마 인
▁동 포
▁도입 할</w>
▁대법원 장의</w>
▁노 인이</w>
▁노 는</w>
▁극복 하기</w>
▁그동 안의</w>
▁국내 총생산</w>
▁국가 들이</w>
▁국 경</w>
▁구 분</w>
▁과태 료가</w>
▁경영 에</w>
▁경기도지 사와</w>
▁개최 해</w>
▁개정 안에</w>
▁갓 갓</w>
▁가능 하지만</w>
T he</w>
현 장을</w>
해 줘서</w>
투 스</w>
타 임을</w>
청 구</w>
지원 금</w>
제 주
제 공
이 후</w>
이 익</w>
의 식이</w>
오 의</w>
여 가</w>
시 경</w>
수 리</w>
센 트</w>
림 에</w>
린 이</w>
기독 교
경 기에</w>
경 기가</w>
▁활동 할</w>
▁활 기
▁한 식을</w>
▁한 발</w>
▁판매 되는</w>
▁투명 하게</w>
▁투 숙
▁통 과</w>
▁토 지를</w>
▁침 략
▁치료 에</w>
▁추진 한다고</w>
▁지켜 볼</w>
▁지급 된다</w>
▁증 액
▁준 공</w>
▁종량 제
▁조사 와</w>
▁정 형
▁점 수</w>
▁절 망
▁전화 번호를</w>
▁장 치</w>
▁자리 하고</w>
▁일 대는</w>
▁인 형
▁응답 자</w>
▁유의 해야</w>
▁원 유
▁용 기</w>
▁영 농
▁연구 진이</w>
▁연 습</w>
▁연 방</w>
▁여 고
▁않 던</w>
▁안 겨
▁신 학
▁식 당에</w>
▁시설 물의</w>
▁시 정을</w>
▁순 회
▁소비 를</w>
▁선 인
▁서 강
▁색 을</w>
▁사용 합니다</w>
▁사무 처
▁사 려고</w>
▁비용 과</w>
▁부산 을</w>
▁부 위에</w>
▁복 원</w>
▁보험 료를</w>
▁베를 린</w>
▁목 의</w>
▁모 터
▁명 동</w>
▁명 동
▁맞 이한</w>
▁떨어 진다</w>
▁디자 인의</w>
▁뒤 덮
▁대체 복무
▁다 하고</w>
▁누군 가를</w>
▁내 장
▁낭 독
▁꼼꼼 하게</w>
▁김태 우</w>
▁긴 장이</w>
▁급 성장
▁국 책
▁구 하
▁교수 님</w>
▁관측 된다</w>
▁공연 의</w>
▁공 적이</w>
▁공 공</w>
▁고용 이</w>
▁경 계를</w>
▁겨냥 해</w>
O ECD</w>
학교 에서</w>
판 과</w>
파 와</w>
커 스</w>
지 방</w>
지 까지</w>
작 품</w>
의 무를</w>
을 지도</w>
으 실</w>
씨 도</w>
신 속
비 핵
분 권</w>
보 증</w>
론 은</w>
노동 위원회</w>
년 제</w>
길 로</w>
곳 은</w>
▁홍 남기</w>
▁허 브
▁해결 이</w>
▁학 과</w>
▁추 신
▁짐 짐</w>
▁진 다</w>
▁지나 가는</w>
▁준 결
▁정순 균</w>
▁전망 입니다</w>
▁장 과</w>
▁임 의
▁인도네시아 의</w>
▁인 형을</w>
▁의존 도가</w>
▁음악 은</w>
▁위원 과</w>
▁위 치는</w>
▁요청 하신</w>
▁외교 적</w>
▁알 았는데</w>
▁신 제품
▁식중 독</w>
▁수 색</w>
▁소통 할</w>
▁선사 했다</w>
▁선사 할</w>
▁생각 하세요</w>
▁사라 질</w>
▁분 홍
▁분 임
▁북 극
▁부 여</w>
▁배 고
▁발 매</w>
▁바다 로</w>
▁미국 프로
▁무너 진</w>
▁무너 뜨
▁목 적이다</w>
▁먹 었습니다</w>
▁맡 을</w>
▁말 라</w>
▁뛰어 들
▁동남 아시아</w>
▁돌 보
▁대기업 의</w>
▁답 장을</w>
▁논란 으로</w>
▁노 출</w>
▁남북 한</w>
▁낙동 강</w>
▁끈 끈</w>
▁김 소
▁기여 를</w>
▁기대 하기</w>
▁금융 기관</w>
▁규정 에도</w>
▁규 제로</w>
▁관리 한다</w>
▁공정 하게</w>
▁공사 장</w>
▁고 정</w>
▁경쟁 에서</w>
▁거부 하고</w>
▁거 부</w>
▁개인 정보를</w>
▁가입 자가</w>
▁가이드라 인을</w>
▁가이 드</w>
▁가 세
▁O ECD</w>
▁J Y
파 에</w>
투 기</w>
켓 을</w>
자 재</w>
인천 광역시
이 나마</w>
영 상</w>
아 이가</w>
아 메
십 을</w>
시 의회</w>
세 다</w>
미디 어
미 에</w>
리 던</w>
률 도</w>
령 과</w>
다 의</w>
경찰 이</w>
경 연
▁호선 한다</w>
▁형 식의</w>
▁학부모 들의</w>
▁필 두로</w>
▁팔레 스타
▁파티 에</w>
▁트위 터를</w>
▁컴퓨 터가</w>
▁충 돌</w>
▁최고 위원
▁청 각
▁질문 에는</w>
▁중 학생</w>
▁중 시
▁줄 게요</w>
▁주축 이</w>
▁주문 하신</w>
▁주 석의</w>
▁제작 해</w>
▁정 면</w>
▁장애 인을</w>
▁잘 할</w>
▁자체 에</w>
▁자연 을</w>
▁일 조
▁의도 적으로</w>
▁은 산분리</w>
▁육 성에</w>
▁유 죄</w>
▁원산 지</w>
▁원내대표 의</w>
▁운 송</w>
▁우리나라 에</w>
▁예 컨대</w>
▁영 예를</w>
▁연속 으로</w>
▁여 수</w>
▁알려 주시기</w>
▁싶 었던</w>
▁스마트폰 으로</w>
▁순 매
▁수행 한</w>
▁상세 히</w>
▁사업 장
▁부담 하는</w>
▁보유 세</w>
▁법 정에</w>
▁번 이나</w>
▁백 종
▁발언 으로</w>
▁발견 되지</w>
▁바빠 서</w>
▁미 뤄</w>
▁몰 라서</w>
▁맡 아
▁만들 지</w>
▁띄 었다</w>
▁대응 하는</w>
▁대사 관</w>
▁단계 로</w>
▁다시 금</w>
▁늘어 난다</w>
▁나 흘</w>
▁김 세
▁기원 하는</w>
▁기대 와</w>
▁급 히</w>
▁금융 위</w>
▁금메 달</w>
▁규 제에</w>
▁국민연 금의</w>
▁구축 한</w>
▁구성 됐다</w>
▁구 실을</w>
▁교 체를</w>
▁관 료
▁과학기술정보통신 부</w>
▁고 의로</w>
▁고 농도</w>
▁계속 된</w>
▁경 인
▁경 력을</w>
▁걷 기</w>
▁건물 로</w>
▁4 50</w>
F P</w>
회의 의</w>
항 으로</w>
텔레 콤</w>
쳤 지만</w>
자 입니다</w>
위원 장과</w>
병 원을</w>
범 을</w>
려 고요</w>
▁환경 미화
▁현실 에서</w>
▁한 지
▁필수 적인</w>
▁팬 들</w>
▁특 히나</w>
▁퇴 원
▁캄보디 아</w>
▁최소화 하기</w>
▁총 재가</w>
▁참여 하며</w>
▁중남 미</w>
▁줄 은</w>
▁주목 받는</w>
▁주 시는</w>
▁주 간
▁조 건에</w>
▁조 각</w>
▁점 쳐
▁저 조
▁재 단의</w>
▁장 영
▁자 의</w>
▁입장 에선</w>
▁일 제의</w>
▁일 이에요</w>
▁일 산</w>
▁이 르고</w>
▁윤 종
▁유 저
▁위 함
▁영화 에서</w>
▁영 국이</w>
▁아쉽 다</w>
▁신 비
▁생각 된다</w>
▁사 야</w>
▁비즈니 스
▁보내 줄</w>
▁보 기에</w>
▁벤치 마
▁백 성
▁발걸 음을</w>
▁반 품
▁미안 합니다</w>
▁무소 속</w>
▁몸 무
▁목 사의</w>
▁말 아</w>
▁많 았습니다</w>
▁만나 러</w>
▁등 급을</w>
▁도착 하는</w>
▁도서 관의</w>
▁대 하는</w>
▁당 하는</w>
▁놓 여
▁구 역
▁공 장에</w>
▁골프 를</w>
▁강 하고</w>
▁강 풍
▁갔 어</w>
▁감안 할</w>
▁가 디
t er
1 4
토지 주택
코 스
질 은</w>
지역 인</w>
조 사와</w>
작 업</w>
업 자가</w>
양 에</w>
서 부터</w>
방 식</w>
발전 과</w>
문 제에</w>
목 과</w>
모 의</w>
라 이나</w>
개 소에</w>
▁후 원을</w>
▁회 상
▁화 면이</w>
▁향 했다</w>
▁해결 될</w>
▁할 인이</w>
▁하 자는</w>
▁플라 스틱
▁팝 팝</w>
▁파 인
▁투입 돼</w>
▁코 스</w>
▁코 드를</w>
▁커 버</w>
▁출연 한다</w>
▁출발 하는</w>
▁추 는</w>
▁총 회</w>
▁초과 한</w>
▁체 류</w>
▁차지 하며</w>
▁집 안</w>
▁지 을</w>
▁지 낼</w>
▁조치 다</w>
▁정 진
▁자치 구</w>
▁일으 켰다</w>
▁이 자</w>
▁의 회가</w>
▁융 자</w>
▁위임 된</w>
▁위반 으로</w>
▁원 가
▁오 름
▁열 리며</w>
▁열 기를</w>
▁연구 결과가</w>
▁쓰 면</w>
▁실 적에</w>
▁실 수요
▁신 원
▁시절 부터</w>
▁시상 식에서</w>
▁스타 가</w>
▁스 며
▁수 영</w>
▁셧 다운</w>
▁섬 세한</w>
▁서 로가</w>
▁생기 지</w>
▁생각 했던</w>
▁상 처</w>
▁살아 온</w>
▁사용 하던</w>
▁사 적</w>
▁비판 도</w>
▁비 난</w>
▁불합 리한</w>
▁부 위를</w>
▁복 숭
▁보내 면</w>
▁보 청
▁방 은</w>
▁반영 하여</w>
▁바 비
▁목 록을</w>
▁매 트리
▁맞춰 서</w>
▁만 전을</w>
▁마을 에서</w>
▁딴 딴</w>
▁동 물의</w>
▁다음 은</w>
▁넘겨 졌다</w>
▁냉 동
▁깎 아
▁금 전
▁그 것</w>
▁관광 지</w>
▁갖 지</w>
▁가슴 에</w>
▁가 치는</w>
활동 의</w>
협의 회는</w>
피 는</w>
팀 장은</w>
통 계
초 부터</w>
주 식</w>
종합 지원센터</w>
이 상
여 객
아 몬
스 케
수 영
서 부
배 의</w>
명 당</w>
령 으로</w>
들 만의</w>
된 다며</w>
돼 지
기 록</w>
공 단은</w>
가 맹
▁후 폭
▁환경 의</w>
▁화장 실에</w>
▁홍보 에</w>
▁허 리</w>
▁해결 하고</w>
▁한 동
▁필요 하
▁평소 보다</w>
▁팬 클럽
▁판로 개
▁충격 적인</w>
▁챔피 언</w>
▁차 장이</w>
▁진 지한</w>
▁준 하는</w>
▁주관 하고</w>
▁좋아 할</w>
▁제공 했다</w>
▁정 시</w>
▁저 장</w>
▁작성 해</w>
▁있 는데도</w>
▁입 국</w>
▁인사 말을</w>
▁의견 으로</w>
▁왔 지만</w>
▁예 의
▁영 종
▁연휴 를</w>
▁여 권을</w>
▁에이 스</w>
▁어 촌
▁애로 사항을</w>
▁않 고도</w>
▁안 았다</w>
▁쓰 나
▁식 이다</w>
▁시스템 으로</w>
▁순 서
▁수 위가</w>
▁설치 하여</w>
▁설 비를</w>
▁생산 할</w>
▁살 았던</w>
▁사법행정 권</w>
▁사랑 스러운</w>
▁빅뱅 의</w>
▁비 하면</w>
▁부 부는</w>
▁보호 와</w>
▁변경 하는</w>
▁방송 된다</w>
▁반도 체
▁미술 관</w>
▁물 고
▁무 실
▁모스크 바
▁맥 도
▁만드 는데</w>
▁라이 브
▁딸 기</w>
▁드러 내는</w>
▁달성 하기</w>
▁눈앞 에</w>
▁농 경
▁나무 가</w>
▁김 한
▁기자 들에게</w>
▁기관 으로</w>
▁그 친</w>
▁귀 엽
▁권 위
▁군 인</w>
▁구 자
▁관광 을</w>
▁공 천
▁고 온
▁경우 엔</w>
▁결합 된</w>
▁개발 할</w>
▁가능 해진다</w>
▁가 담
P EC</w>
' ,</w>
현 동</w>
합 이</w>
피 고
친 다는</w>
지 금
주 며</w>
조 사는</w>
전 철</w>
이라 이
유 출</w>
위 해</w>
요 청
와 야</w>
야 의</w>
스타 가</w>
스 튜
수 요</w>
부르 크</w>
박근 혜</w>
르 자</w>
도 에는</w>
더 라고</w>
대 법
년 차</w>
네 마</w>
기 기를</w>
그 리
공 제
공 예
공 사에</w>
계 약이</w>
▁후보 에</w>
▁회 신
▁혁신 이</w>
▁한 다며</w>
▁평가 와</w>
▁테이블 에</w>
▁테 라
▁측 근
▁충돌 이</w>
▁책 에</w>
▁참석 을</w>
▁지금 까지는</w>
▁주 장</w>
▁좋 겠
▁조 지</w>
▁정 해져</w>
▁점유 율을</w>
▁적 폐
▁재 선
▁재 료로</w>
▁자유 무역
▁자 재</w>
▁입 지가</w>
▁잃 게</w>
▁인 력과</w>
▁이야기 하고</w>
▁이 튿
▁외국 어</w>
▁예 배를</w>
▁연구 원</w>
▁연결 이</w>
▁애 정을</w>
▁알려주 실</w>
▁알고 리즘
▁실 수가</w>
▁식약 처는</w>
▁스태 프
▁수 단이</w>
▁소홀 히</w>
▁센터 에</w>
▁세 분
▁설명 한</w>
▁선진 국</w>
▁상품 권</w>
▁상반 기에</w>
▁상 원</w>
▁산 악
▁사태 로</w>
▁사람 에게는</w>
▁분 실</w>
▁부합 하는</w>
▁본 연의</w>
▁변호 사를</w>
▁벤 처</w>
▁버스 정류
▁발표 한다</w>
▁바이 러스</w>
▁민 중
▁모아 진다</w>
▁모델 의</w>
▁모 임이</w>
▁멤버 가</w>
▁맞 은
▁마 닐
▁떨어 지
▁디자 인은</w>
▁됐 으면</w>
▁동 승
▁놀 고</w>
▁논 쟁이</w>
▁노래 와</w>
▁남 용
▁김 천
▁권 력</w>
▁구성 했다</w>
▁교육과 정</w>
▁관 행
▁공 로가</w>
▁고객 과</w>
▁고 분
▁경제 적인</w>
▁걸 린다</w>
▁거 버넌
▁갤러 리</w>
▁간 직
▁가져 가
▁가능 하
▁가 마
투자 증
킥 을</w>
코 드를</w>
책 에</w>
참 모
지 금</w>
장 비
웠 어</w>
억원 대</w>
야 를</w>
신 탁
시 장으로</w>
봐 요</w>
법 인
레 니
란 에</w>
때 로</w>
동 향</w>
당 했다</w>
단 지가</w>
거 에요</w>
▁하여 서는</w>
▁하루 하
▁프로그램 과</w>
▁틀 어
▁투입 되는</w>
▁토 종</w>
▁출연 을</w>
▁최 순
▁주 기로</w>
▁정도 만</w>
▁정 당이</w>
▁저 해
▁재 래
▁자 처
▁인센티 브</w>
▁인명피해 는</w>
▁윤 석
▁원 리
▁울 려</w>
▁온 도
▁오 시면</w>
▁영화 와</w>
▁어울 려</w>
▁아 동을</w>
▁실시 한다고</w>
▁실 태</w>
▁시행 규칙
▁수사 관이</w>
▁수 화
▁성 능</w>
▁색 상이</w>
▁살 려
▁사업 도</w>
▁빌 린</w>
▁비핵 화가</w>
▁복 귀</w>
▁보냈 어요</w>
▁배 워
▁바꿔 야</w>
▁물 은</w>
▁마 산
▁라이 트
▁두 께
▁되었 어</w>
▁대 국민</w>
▁누 리고</w>
▁노동 자들의</w>
▁넓 혀
▁나 뭇
▁꿈 에</w>
▁금 연구
▁규모 와</w>
▁고 대
▁겨울 을</w>
▁검토 하는</w>
▁개인 투자
▁개선 해</w>
▁갖 췄다</w>
▁감 찰
▁간 이</w>
▁가 보고</w>
▁A BC</w>
FI FA</w>
홍 보</w>
협 의</w>
하는 가</w>
피 해를</w>
프 리</w>
테 르
택 시
천 억</w>
지 정
전 담
전 국
저 축
이 야
이 서</w>
워 진</w>
속 의</w>
삼 성</w>
분 기에</w>
모 로</w>
랭 킹</w>
란 다</w>
대 요</w>
기간 으로</w>
극 장</w>
공 원을</w>
▁희생 자</w>
▁휩싸 인</w>
▁퍼 져</w>
▁판문 점
▁특 활
▁콘텐츠 로</w>
▁케이 티</w>
▁취임 한</w>
▁축 복
▁초래 할</w>
▁체 제가</w>
▁처음 엔</w>
▁챔피언 십</w>
▁지원 금</w>
▁준 다고</w>
▁주택 의</w>
▁주 위에</w>
▁조 수
▁제안 에</w>
▁제시 됐다</w>
▁제 고</w>
▁접 수를</w>
▁전망 에</w>
▁전 적으로</w>
▁자리 에는</w>
▁자기소 개
▁일으키 고</w>
▁일 축
▁이야기 하는</w>
▁유 휴
▁유 아</w>
▁위 헌
▁웨 딩
▁원 칙</w>
▁운행 하는</w>
▁온 도를</w>
▁오후 부터</w>
▁어린 이를</w>
▁알려 지자</w>
▁알 았다</w>
▁싱가포르 에</w>
▁실시 하여</w>
▁싣 고</w>
▁시설 은</w>
▁시 골
▁수사 하는</w>
▁성 향</w>
▁서 쪽</w>
▁사용 하게</w>
▁사라 지는</w>
▁비슷 하게</w>
▁불공 정</w>
▁보조 할</w>
▁법 원에서</w>
▁방 침</w>
▁방 증
▁발표 될</w>
▁반 기
▁미추홀 구</w>
▁무관 하게</w>
▁몫 을</w>
▁모 자를</w>
▁말 입니다</w>
▁마 비
▁로이 터</w>
▁따 르지</w>
▁뒀 다</w>
▁도서 관에</w>
▁당국 자는</w>
▁달 부터</w>
▁내놓 는</w>
▁깊 다</w>
▁기본 계획을</w>
▁기 리는</w>
▁국회의 원이</w>
▁구 름
▁구 단이</w>
▁교섭 단체</w>
▁공 룡
▁거세 게</w>
▁O ST</w>
▁2 30</w>
i on
R S</w>
L A</w>
휴 양
토 리</w>
주택 은</w>
운 전
완 전
산업 진흥원</w>
부 서는</w>
벤 져
버 를</w>
모 터
립 을</w>
디지 털
나 지</w>
꾸 로</w>
군수 에게</w>
공동 모금
결 정</w>
㎡ )</w>
▁회계 연
▁확인 하지</w>
▁현저 한</w>
▁현대 자동차</w>
▁현 안에</w>
▁해 왔다</w>
▁한국 형</w>
▁프리 랜
▁틀 림
▁특 혜
▁터 트
▁초 기에는</w>
▁책임 감을</w>
▁지역주 민의</w>
▁지역 인</w>
▁지났 지만</w>
▁존재 가</w>
▁조 류
▁정치 적으로</w>
▁정 답
▁일으 켜</w>
▁이례 적인</w>
▁이 사는</w>
▁의 사의</w>
▁유지 될</w>
▁유익 한</w>
▁유 병
▁완료 한</w>
▁예측 했다</w>
▁없었 다면</w>
▁얼 음
▁어 깨</w>
▁아 트</w>
▁쌍용 차</w>
▁실효 성</w>
▁실 천</w>
▁식 탁
▁시간 으로</w>
▁수 산물</w>
▁쇄 도
▁소 환</w>
▁설문 조사를</w>
▁선 배</w>
▁서 명</w>
▁서 기</w>
▁살 리는</w>
▁사이 에는</w>
▁사 퇴</w>
▁사 료
▁붙 인</w>
▁불 출
▁북미정상회담 이</w>
▁보호 에</w>
▁보고 서가</w>
▁벌어 질</w>
▁배 드민
▁받 기도</w>
▁미 치고</w>
▁물 꼬
▁면 을</w>
▁머물 렀
▁매 일
▁말씀 하시는</w>
▁말 라
▁돼지 고기</w>
▁동해 안</w>
▁데뷔 한</w>
▁대학 생들이</w>
▁눈 부
▁남 산
▁금호 아시아
▁극 적인</w>
▁그러 는데</w>
▁구 하기</w>
▁교육 청이</w>
▁교 회에서</w>
▁경기 지사가</w>
▁결혼 식</w>
▁견 해를</w>
▁걱정 하는</w>
▁객관 적</w>
▁감 자
▁G DP</w>
▁198 6</w>
M O</w>
협의 회를</w>
항 서</w>
학생 의</w>
하였 다고</w>
풍 의</w>
출 입
채 와</w>
찾 아가는</w>
수 행에</w>
사 들을</w>
사 고에</w>
본부 장이</w>
본 부를</w>
로 우
러 리</w>
도 어</w>
도 로가</w>
난 이</w>
겼 고</w>
▁한국 당의</w>
▁피 자</w>
▁폭 력을</w>
▁포함 될</w>
▁파 주시</w>
▁특수 활동
▁터 치
▁타이 어</w>
▁케이 크를</w>
▁카 드가</w>
▁첨부 파
▁창원 시</w>
▁차 분
▁차 관은</w>
▁지역 적</w>
▁주 방</w>
▁주 길</w>
▁주 가는</w>
▁제 약이</w>
▁정리 하고</w>
▁정 원을</w>
▁정 면으로</w>
▁접촉 을</w>
▁잠 깐
▁인수 한</w>
▁올리 면</w>
▁여성 에게</w>
▁어려 움</w>
▁얇 은</w>
▁심 해
▁실패 했다</w>
▁승용 차가</w>
▁스마트폰 이</w>
▁수소 차</w>
▁수 제
▁소 식은</w>
▁성 능이</w>
▁생각 하며</w>
▁상 대를</w>
▁사과 했다</w>
▁부모 들이</w>
▁부 근</w>
▁보고 하고</w>
▁법 규
▁발 자
▁반영 하고</w>
▁반복 되는</w>
▁반발 을</w>
▁박 인
▁물 어</w>
▁모으 는</w>
▁말 해요</w>
▁만족 도를</w>
▁마 신</w>
▁라 면</w>
▁라 는</w>
▁또 다른</w>
▁됐 는데</w>
▁도입 하는</w>
▁데이비 드</w>
▁댓글 이</w>
▁대 가를</w>
▁답 한</w>
▁단 거리</w>
▁다르 지만</w>
▁높 인다</w>
▁내부 적으로</w>
▁내리 면서</w>
▁나 들
▁김 우
▁금융 회
▁그때 는</w>
▁그 라
▁구조 다</w>
▁교 수를</w>
▁공무 원에</w>
▁공 기를</w>
▁경기 국제
▁경 각
▁겪 어
▁개인 적</w>
▁가격 의</w>
▁가 성
L B</w>
후 에</w>
향 후</w>
팀 장</w>
투 자를</w>
터 미널</w>
태 에</w>
철 의</w>
차이나 모닝
째 인</w>
진 에게</w>
은 행을</w>
손 으로</w>
상 업
부 지</w>
보 호를</w>
문화 재</w>
력발전 소</w>
동 원</w>
대 장
농 산
년 에서</w>
과 거
공무 원을</w>
경 정
▁하락 세가</w>
▁평택 항</w>
▁패턴 을</w>
▁텃 밭
▁친 척
▁출 근</w>
▁축 제에</w>
▁추 모</w>
▁창의 적</w>
▁지원 하기로</w>
▁중 시하는</w>
▁종 전의</w>
▁조선 일
▁접 속</w>
▁전 진
▁저희 의</w>
▁작성 된</w>
▁자연 의</w>
▁자연 과</w>
▁있 느냐</w>
▁이전 에는</w>
▁이어 가
▁이 색</w>
▁이 마트</w>
▁위험 요
▁우려 하고</w>
▁오페 라</w>
▁오르 내
▁역할 과</w>
▁어렵 기</w>
▁야 당
▁아랍에미 리트</w>
▁아내 와</w>
▁씨 앗
▁신 약</w>
▁스타 일의</w>
▁스리 랑
▁스 케이
▁순 이었다</w>
▁수탁 자에게</w>
▁쇼 쇼</w>
▁소 음
▁성장 률이</w>
▁섞 여</w>
▁서 는</w>
▁서 남
▁생 긴
▁산 정</w>
▁사이 를</w>
▁사 직
▁분 당</w>
▁보 석</w>
▁발전 하는</w>
▁받아들 여</w>
▁반대 하고</w>
▁박 민
▁물 질을</w>
▁면 적</w>
▁메신 저</w>
▁매 운
▁마련 하여</w>
▁라이 온
▁되었 을</w>
▁독 자</w>
▁던 졌다</w>
▁대다 수가</w>
▁대 여</w>
▁달성 했다</w>
▁단 원
▁높 았고</w>
▁기아 차</w>
▁기 조를</w>
▁금 고</w>
▁그려 졌다</w>
▁구축 이</w>
▁관계 자들을</w>
▁관계 공무원</w>
▁과거 를</w>
▁공격 에</w>
▁곡 이</w>
▁고 른</w>
▁고 가의</w>
▁경기도 의
▁경 의
▁결혼 식을</w>
▁건 넨</w>
▁강 좌</w>
▁가능 하면</w>
▁W W</w>
G O</w>
협 약
해 드릴게요</w>
해 당</w>
플랫 폼</w>
진 단
지 정</w>
조 리</w>
정 신을</w>
전 화</w>
작 가
일 이나</w>
인 프라
안 정</w>
시 립
수도 권</w>
사 리</w>
부 담</w>
버 닝
메 라
매 치</w>
도 미사일</w>
남 이</w>
급 에</w>
과 세</w>
공 연이</w>
강남 스타일</w>
가 요
가 루</w>
▁힘들 다는</w>
▁활성화 하기</w>
▁하 신</w>
▁표현 했다</w>
▁판 사가</w>
▁터 진</w>
▁터 미널
▁태 안
▁탑 승</w>
▁컨 벤션
▁커 넥
▁카메라 에</w>
▁카 라
▁친구 랑</w>
▁출시 했다</w>
▁최근 까지</w>
▁청 원이</w>
▁청 구를</w>
▁집 필
▁질환 을</w>
▁진 에
▁지정 해</w>
▁지 문
▁증 진에</w>
▁중 견</w>
▁주 주</w>
▁조 처
▁정규 직으로</w>
▁정 리</w>
▁적용 돼</w>
▁자 주
▁임진왜 란</w>
▁임직 원이</w>
▁임종 석</w>
▁일 이라고</w>
▁인수 합
▁인 파가</w>
▁이뤄 지도록</w>
▁이 의를</w>
▁이 것</w>
▁의뢰 한</w>
▁의 상을</w>
▁유 족</w>
▁유 영
▁유 사</w>
▁운영 하며</w>
▁예 치
▁영 암</w>
▁연 초</w>
▁양 자
▁알코 올</w>
▁안타깝 게도</w>
▁안전 성을</w>
▁아 팠
▁신 제품을</w>
▁신 이</w>
▁신 영
▁신 나는</w>
▁시청 자들을</w>
▁시작 하면</w>
▁소식 통을</w>
▁섬 세
▁상 설
▁사진 도</w>
▁사용 료는</w>
▁사업 자는</w>
▁사 장을</w>
▁불 길이</w>
▁부 쩍</w>
▁베트남 에</w>
▁방 출
▁바 다가</w>
▁무혐 의</w>
▁몸 과</w>
▁랭 킹</w>
▁동영 상이</w>
▁단 장</w>
▁넘어 서는</w>
▁끌 어</w>
▁깨닫 게</w>
▁기쁘 게</w>
▁기각 했다</w>
▁금액 의</w>
▁귀 하의</w>
▁국 영
▁구성 할</w>
▁경제협력 개발기구</w>
▁경 향
▁겨울 이</w>
▁검찰 총
▁걸 리지</w>
▁건의 했다</w>
▁강 점을</w>
▁가파 른</w>
▁가게 를</w>
합창 단</w>
하 고있다</w>
컨 벤션
자 리가</w>
야 한다</w>
실 태</w>
실 에는</w>
신 데</w>
시 대를</w>
생 물
사 무</w>
사 단</w>
병 원의</w>
방 향을</w>
무 대에서</w>
드 려</w>
년 생</w>
기술 과</w>
관계 자는</w>
겼 다는</w>
강 화
▁현실 과</w>
▁핵 시설</w>
▁할머니 는</w>
▁포인 트가</w>
▁투 입</w>
▁취 하여야</w>
▁추천 할</w>
▁찾아 보
▁증 인으로</w>
▁중소벤처기업 부</w>
▁주 입
▁조성 과</w>
▁장 하성</w>
▁자 식
▁인 위
▁이 문
▁의 향이</w>
▁위 상이</w>
▁원자 력
▁외국 인의</w>
▁오후 에는</w>
▁예 선</w>
▁영 역이</w>
▁언론 과</w>
▁아이 와</w>
▁아 쿠
▁신입 생</w>
▁시작 합니다</w>
▁승 계
▁숨 지는</w>
▁수 소</w>
▁수 거</w>
▁세무 조사</w>
▁성과 에</w>
▁성 분
▁설치 에</w>
▁선제 적으로</w>
▁선거 법</w>
▁선 에서</w>
▁서 산</w>
▁생각 으로</w>
▁삼 척
▁살 린</w>
▁사우디아라 비아</w>
▁빵 을</w>
▁분노 를</w>
▁북 방
▁변 하는</w>
▁발전 하고</w>
▁받 습니다</w>
▁바람 직한</w>
▁미국 에서는</w>
▁문 구를</w>
▁목 을</w>
▁막 힌</w>
▁마찬가 지다</w>
▁리모델 링
▁롯데 백화점</w>
▁레 저
▁등 으로부터</w>
▁들어서 고</w>
▁드 나
▁동 력이</w>
▁돌아 갔다</w>
▁도로 의</w>
▁도 의원</w>
▁도 박
▁대법 관이</w>
▁대 입</w>
▁대 검찰
▁다음 에는</w>
▁논의 에</w>
▁논의 될</w>
▁논란 과</w>
▁기준 금리를</w>
▁기 조가</w>
▁기 온</w>
▁기 동
▁국민건강 보험
▁구성 원</w>
▁관 세가</w>
▁곤 두
▁고 쳐
▁고 인의</w>
▁계약 서를</w>
▁경 복
▁결정 될</w>
▁결과 와</w>
▁강화 될</w>
▁가 옥
▁가 구에</w>
▁t he</w>
▁L PG</w>
▁1 200</w>
a v
A T
1 3
투 표를</w>
터 미널
키 가</w>
종 인</w>
자 라고</w>
인 들도</w>
유 통</w>
위 반</w>
연 에</w>
억 원에서</w>
스 케이
서비 스의</w>
상담 을</w>
벌 을</w>
버 스는</w>
문화 에</w>
만 명으로</w>
디 를</w>
더불어민주 당</w>
대학교 가</w>
단 계로</w>
냈 고</w>
고 발
검 사가</w>
가 에서는</w>
▁회의 록
▁확인 하여</w>
▁확대 됐다</w>
▁화 제
▁협력 하여야</w>
▁피 를</w>
▁포르투 갈
▁택 시가</w>
▁커리 큘
▁치 과
▁청구 할</w>
▁처리 하고</w>
▁차량 으로</w>
▁차 장</w>
▁차 관의</w>
▁징수 한다</w>
▁집 의</w>
▁직 원과</w>
▁지 점에서</w>
▁지 시</w>
▁증가 세를</w>
▁중앙 에</w>
▁조 업
▁정보 에</w>
▁정 거
▁전쟁 의</w>
▁자금 조
▁자 원이</w>
▁잊 고</w>
▁인천 의</w>
▁인상 적인</w>
▁이전 부터</w>
▁의미 에서</w>
▁음악 적</w>
▁유 난히</w>
▁운영 될</w>
▁요청 하고</w>
▁완성 된</w>
▁완벽 히</w>
▁오피 스</w>
▁오스트 리아</w>
▁오 셔서</w>
▁양 측의</w>
▁아 모
▁싶 고</w>
▁심 야
▁신 호가</w>
▁신 산업</w>
▁시행 계획을</w>
▁승 리로</w>
▁세 력
▁석 탑
▁생산 량이</w>
▁상대 방의</w>
▁북 측
▁반 영</w>
▁박 보
▁뮤직비 디오</w>
▁맡 기
▁말씀 해주세요</w>
▁만 남</w>
▁마 다</w>
▁리버 풀
▁리 스트</w>
▁등 지에서</w>
▁더불어민주 당과</w>
▁다 쳐</w>
▁농 악
▁낳 고</w>
▁까다 로운</w>
▁기 회에</w>
▁급증 한</w>
▁금융감독 원이</w>
▁교 역
▁과징 금</w>
▁고용 을</w>
▁고 부가
▁걷 어
▁강 도가</w>
▁간 섭
▁가수 들의</w>
▁i n</w>
▁7 000</w>
▁2 20</w>
a p
N YT</w>
히 기</w>
혜택 을</w>
하 기까지</w>
플 란
퍼 가</w>
테 마
치 유
지 수는</w>
지 던</w>
중 간</w>
전 망
이 익
운영 한다</w>
언 은</w>
아 트</w>
셨 던</w>
상 태</w>
빌 딩</w>
부 상
무 역</w>
매 니
담당 자</w>
난 다고</w>
꺼 이</w>
기 능을</w>
구 호
교 회가</w>
계획 과</w>
개 국이</w>
▁히 로
▁훈련 이</w>
▁후 배</w>
▁획 기적인</w>
▁화장 실을</w>
▁혐의 는</w>
▁할머니 의</w>
▁학생 부
▁표 면
▁탄 소
▁캐스 팅
▁친구 들에게</w>
▁최 씨가</w>
▁총괄 하는</w>
▁총 선에서</w>
▁참석 하지</w>
▁차지 해</w>
▁진입 이</w>
▁진 화</w>
▁지나 면서</w>
▁지급 에</w>
▁주 휴
▁주 지
▁좋 겠다는</w>
▁정치 에</w>
▁전 념
▁인 물을</w>
▁인 구는</w>
▁이어 지자</w>
▁유 상
▁원 정</w>
▁우즈 벡</w>
▁용 역을</w>
▁요즘 에는</w>
▁연 주를</w>
▁연 장을</w>
▁여 신
▁없 으나</w>
▁언론 들이</w>
▁어젯 밤에</w>
▁암호화폐 를</w>
▁아메 리카
▁아니 며</w>
▁아내 의</w>
▁스마트 시티</w>
▁송영 무</w>
▁소외 된</w>
▁소 음</w>
▁성 향이</w>
▁설치 와</w>
▁생겼 습니다</w>
▁새 삼</w>
▁상습 적으로</w>
▁살아 야</w>
▁빠 지지</w>
▁비치 하고</w>
▁비공 개로</w>
▁비 중</w>
▁부산 진
▁보 라
▁발견 할</w>
▁발 돋
▁박 씨가</w>
▁먹 습니다</w>
▁만족 도</w>
▁마 크</w>
▁레전 드</w>
▁등 급</w>
▁드러 난다</w>
▁드라마 와</w>
▁더 러
▁다 듬
▁뇌 졸
▁논 문을</w>
▁노동 조합
▁노 트</w>
▁넓 게</w>
▁김 씨를</w>
▁긴 장을</w>
▁기자간담 회를</w>
▁기 밀
▁교 사는</w>
▁과 열
▁공 정을</w>
▁골프 장</w>
▁개정 된</w>
▁가족 들은</w>
▁K A
협 회
협 을</w>
필 드</w>
특 수
캐피 탈
최저 임금</w>
정 비</w>
장 비를</w>
자 금이</w>
일 째</w>
술 이</w>
성 폭력</w>
부동 산</w>
변 경
문화 재
명 인</w>
메 르
머 리</w>
만원 씩</w>
레 의</w>
더 라면</w>
나 눔</w>
기 한을</w>
규 정에</w>
교 회
곳 과</w>
강 과</w>
갔 고</w>
▁후 생
▁획득 한</w>
▁확인 해주세요</w>
▁협의 하여야</w>
▁협약 식에는</w>
▁허 익
▁행정 처</w>
▁한국 계</w>
▁피 가</w>
▁프로모 션</w>
▁편 에</w>
▁판단 된다</w>
▁통신 이</w>
▁태풍 의</w>
▁타이틀 곡</w>
▁타 야</w>
▁칼 럼
▁추정 했다</w>
▁추 석을</w>
▁최 재
▁책 으로</w>
▁주 인</w>
▁전당 대회</w>
▁장 자연</w>
▁장 수
▁자리 한</w>
▁자동차 에</w>
▁자녀 들이</w>
▁있 듯이</w>
▁운전 기
▁운영 하기</w>
▁요 리가</w>
▁예상 돼</w>
▁열 리지</w>
▁어떤 가요</w>
▁양 대</w>
▁압 수
▁시즌 이</w>
▁시작 되자</w>
▁스 폰
▁슈 퍼</w>
▁소비 자들에게</w>
▁소 시
▁성실 하게</w>
▁설 레
▁선 진</w>
▁서포 터
▁서 부</w>
▁서 류가</w>
▁생각 했는데</w>
▁사우스 차이나모닝
▁사고 와</w>
▁분위 기에</w>
▁부여 하는</w>
▁복 음을</w>
▁법 정에서</w>
▁번 호가</w>
▁배 경</w>
▁방법 과</w>
▁무역전쟁 의</w>
▁먼 저
▁매 체를</w>
▁말 아
▁들 썩
▁뒤 흔
▁동두 천
▁동 부</w>
▁대 사는</w>
▁대 결을</w>
▁담당 한다</w>
▁농 협</w>
▁기록 은</w>
▁기 한</w>
▁그래 야</w>
▁국립 과학
▁국 산
▁광범위 한</w>
▁공 적</w>
▁경쟁 률이</w>
▁검출 된</w>
▁거 꾸로</w>
▁개인 별</w>
▁강화 한</w>
▁간 혹</w>
es t</w>
협 회와</w>
해주 시고</w>
피 니
페이 스
카 운
층 에게</w>
천 억원</w>
지 오</w>
주택 의</w>
임 용
위원 장
연 했다</w>
심 리
신 청이</w>
센터 장은</w>
센터 장</w>
성 장과</w>
사이 버
사업 비</w>
부 지사가</w>
바람 이</w>
마을 은</w>
드 림
드 렸습니다</w>
권 도</w>
관 제
거래 를</w>
개 인</w>
간 다고</w>
▁회 고
▁환상 적인</w>
▁환 기
▁형 편
▁협동 조합
▁팬 클럽</w>
▁티 브
▁통 영
▁취 하는</w>
▁첫 날인</w>
▁창업 에</w>
▁지방선거 에서</w>
▁주요 한</w>
▁주 머니
▁존 속
▁제품 입니다</w>
▁정준 영</w>
▁적 자를</w>
▁재 능이</w>
▁작은 도서
▁자부 심을</w>
▁일각 에선</w>
▁일 곱</w>
▁위 를</w>
▁오래 전부터</w>
▁열 렸던</w>
▁에 릭
▁에 디
▁업체 들은</w>
▁업그레이 드</w>
▁애플 의</w>
▁알 면서도</w>
▁악 재가</w>
▁심 신
▁신속 하고</w>
▁식 당은</w>
▁시청 자들이</w>
▁시드 니</w>
▁시 인</w>
▁시 와</w>
▁시 동을</w>
▁스타 들의</w>
▁쇼 케이
▁소유 하고</w>
▁세 인
▁상 해
▁사이 즈를</w>
▁사무총 장은</w>
▁사 장과</w>
▁비무장 지대</w>
▁비 준</w>
▁비 상</w>
▁불 황
▁분야 에서는</w>
▁부르 며</w>
▁부 속
▁보 일러
▁목 사
▁매 수</w>
▁마이 너스</w>
▁마을 공동체</w>
▁라 고</w>
▁딸 은</w>
▁딱 히</w>
▁동아 시아</w>
▁대 금을</w>
▁농 가가</w>
▁나오 기도</w>
▁기업 에서</w>
▁기 꺼이</w>
▁극 장에서</w>
▁그리 스</w>
▁그 보다</w>
▁국가주 석이</w>
▁구간 은</w>
▁교 보
▁공개 될</w>
▁게스트 하우
▁개최 했다고</w>
▁강아 지를</w>
▁각 계</w>
▁가 하고</w>
▁가 보
▁가 공</w>
o m</w>
a k
F A
화 돼</w>
협동 조합
해주 면</w>
해 양</w>
퍼 시
총 회를</w>
지 회</w>
주시 겠습니까</w>
있 어요</w>
심사 위원회</w>
실질 심사</w>
신 다고</w>
승 이</w>
쇼 를</w>
생활 이</w>
상 가</w>
베트 남</w>
레 스
던 데요</w>
나 이</w>
국 외
경쟁 력</w>
개 에서</w>
▁확인 했습니다</w>
▁확산 되는</w>
▁형 상
▁해결 되지</w>
▁해 제를</w>
▁한 나라
▁학 원에</w>
▁하락 이</w>
▁하나 입니다</w>
▁포 스터
▁판단 에서다</w>
▁팀 장은</w>
▁코오 롱
▁총 동
▁체결 했다고</w>
▁챙 기는</w>
▁짚 어
▁집 어
▁진 주</w>
▁지역 화폐
▁주말 을</w>
▁절실 한</w>
▁재 료가</w>
▁장 갑
▁자료 로</w>
▁있 기는</w>
▁인정 받고</w>
▁이르 렀
▁이뤄 지면</w>
▁이 들과</w>
▁의사 소통
▁읍 읍</w>
▁육 아</w>
▁유지 했다</w>
▁유소 년</w>
▁유동 성</w>
▁올해 가</w>
▁예상 한다</w>
▁영 양</w>
▁연 면적</w>
▁연 령</w>
▁업무 는</w>
▁어 둡
▁애 틋
▁안 치
▁안 무
▁아버 지와</w>
▁아르바이 트를</w>
▁시간 대에</w>
▁스스 로가</w>
▁수집 한</w>
▁선사 한다</w>
▁서비스 도</w>
▁사고 의</w>
▁사 법</w>
▁뽐 냈다</w>
▁분석 하는</w>
▁분석 에</w>
▁부모 님의</w>
▁보여 줍니다</w>
▁베트남 은</w>
▁반복 적으로</w>
▁바른미래 당이</w>
▁민 생</w>
▁몰 라도</w>
▁메이 저</w>
▁맺 었다</w>
▁때문 이야</w>
▁따 돌
▁득 점을</w>
▁도와 드리겠습니다</w>
▁대표 팀의</w>
▁당신 께</w>
▁달리 던</w>
▁달러 에</w>
▁뉴욕 의</w>
▁누 르면</w>
▁난 항을</w>
▁길 거리</w>
▁기 도를</w>
▁국무총 리</w>
▁관측 이다</w>
▁관광객 의</w>
▁과 세</w>
▁공정 성을</w>
▁공간 은</w>
▁것 일</w>
▁개별 적으로</w>
▁개 통</w>
▁강 의가</w>
▁감 각을</w>
▁각 급
▁가깝 게</w>
▁가 량의</w>
A S</w>
평 가가</w>
티 의</w>
참 가
조 형
점 용
이 익이</w>
이 야말로</w>
월 은</w>
억 여
안 정을</w>
심 판
스크 포
성 장이</w>
사업 장</w>
부 에서는</w>
봅 시다</w>
만 개</w>
들 어
득 점</w>
동 계
대 출을</w>
달러 로</w>
니 어
능력 개발
규 정을</w>
관 계의</w>
▁확 진</w>
▁화 물</w>
▁해 준다</w>
▁한국 토지주택
▁한국 에는</w>
▁한 숨
▁하 차
▁하 버
▁폭로 한</w>
▁포함 되어야</w>
▁편 입니다</w>
▁판매 에</w>
▁파악 하기</w>
▁총 파
▁직 업이</w>
▁지향 하는</w>
▁지원 했다</w>
▁지역 특
▁지속 할</w>
▁주 재로</w>
▁존 엄
▁제주 의</w>
▁정치 권</w>
▁전 설
▁인 체에</w>
▁이 선
▁유 학생</w>
▁원 어
▁왜냐 면</w>
▁왔 고</w>
▁영화 들이</w>
▁영업이 익</w>
▁연계 하여</w>
▁연 세
▁여 론</w>
▁압수수 색을</w>
▁알 았어</w>
▁쌀 쌀
▁싸 움이</w>
▁심 어
▁신고 하여야</w>
▁시민 단체가</w>
▁세 심한</w>
▁샘플 은</w>
▁빅데이 터를</w>
▁분 데스
▁북미정상회담 을</w>
▁부 재
▁부 검
▁보 육</w>
▁방 영</w>
▁발생 했다고</w>
▁발생 합니다</w>
▁바 를</w>
▁무산 됐다</w>
▁모두 발
▁만족 할</w>
▁럭 셔
▁떨어 지면</w>
▁때 때로</w>
▁도모 하고</w>
▁도 정</w>
▁더 해
▁대통령 과의</w>
▁대 림
▁누 워</w>
▁내 밀
▁나서 기로</w>
▁깔끔 한</w>
▁기재 한</w>
▁기 차를</w>
▁기 둥
▁국제 축구연맹</w>
▁국 빈
▁관람 할</w>
▁공론 화
▁고위 급
▁경제 협력</w>
▁개 관</w>
▁간 격으로</w>
▁8 000</w>
M OU</w>
F ed</w>
E FA</w>
E F</w>
형 태
토 리
테 일</w>
지방 공무원</w>
전 도</w>
작 업
인 도
의약 품</w>
우 스</w>
용 소방
예 비
양 육
분 쟁
병 원으로</w>
병 과</w>
바 가</w>
미술 관</w>
문 제로</w>
명 예
단 장은</w>
구 역에</w>
구 니
광 고</w>
과학기술 원</w>
격 에</w>
가 구의</w>
▁환 율이</w>
▁확대 한다</w>
▁확 연히</w>
▁허익 범</w>
▁하노 이에서</w>
▁하나 하나</w>
▁필 기
▁품 은</w>
▁펜 션</w>
▁테마 로</w>
▁칼 을</w>
▁추진 되고</w>
▁체포 된</w>
▁진입 을</w>
▁지난해 와</w>
▁조 인
▁조 상
▁제품 들을</w>
▁적 자
▁재정 적</w>
▁재 개발
▁있 는데다</w>
▁일 환
▁일 삼
▁인생 에서</w>
▁이 통
▁이 슈</w>
▁의 장을</w>
▁의 심을</w>
▁응 원을</w>
▁유 격
▁요 리는</w>
▁와이파 이</w>
▁온 열
▁오 해를</w>
▁여러분 들이</w>
▁어머니 를</w>
▁알려 드리겠습니다</w>
▁신 빙
▁스트 라이
▁순간 이</w>
▁수석 부
▁소식 통은</w>
▁선 호</w>
▁서 명을</w>
▁삼성 화
▁불 허
▁보 였지만</w>
▁보 답
▁보 낼
▁버 린</w>
▁배치 된</w>
▁방문 했을</w>
▁밤 에는</w>
▁바이 어</w>
▁뭔 가요</w>
▁문재인 정부</w>
▁묶 어</w>
▁몰 두
▁몰 던</w>
▁만들 겠다</w>
▁만 회
▁라 스
▁둘러 보고</w>
▁둘 째
▁대형 마트</w>
▁당신 한테</w>
▁단 연</w>
▁다이 아몬
▁눈 치를</w>
▁녹 색</w>
▁남북 의</w>
▁남 의</w>
▁나 가지</w>
▁김진 태</w>
▁기 기를</w>
▁금 속</w>
▁근육 이</w>
▁그러 지</w>
▁그 들과</w>
▁국민 의
▁국 유
▁국 고
▁교 원
▁광역 교통
▁공론 화</w>
▁계 열</w>
▁경제 와</w>
▁경 향을</w>
▁건립 을</w>
I MF</w>
혁 명</w>
한테 는</w>
커 뮤니
직 에서</w>
제 도는</w>
정 동</w>
인 천</w>
이 신가요</w>
음 식</w>
용 품을</w>
영 장
연 하게</w>
생 들은</w>
민 에게</w>
민 속
모 는</w>
망 의</w>
라 면서</w>
댄 스</w>
대 기
네트워 크
공 장을</w>
고 양
경찰 청</w>
강 은</w>
감 정
갈 지</w>
▁활용 을</w>
▁행사 할</w>
▁한국 거래
▁학부모 가</w>
▁필요 성에</w>
▁피드 백을</w>
▁태 도</w>
▁타 인의</w>
▁침 수</w>
▁출신 이</w>
▁최 태
▁짚 었다</w>
▁직 속</w>
▁직 속
▁중단 하고</w>
▁주 도의</w>
▁죄송 해요</w>
▁제품 들은</w>
▁전라 남
▁전기 요금</w>
▁재조 명
▁재 원을</w>
▁잠재 력을</w>
▁입 구
▁잃 었다</w>
▁일방 적인</w>
▁인 정을</w>
▁인 성
▁인 류의</w>
▁인 권을</w>
▁이 색
▁이 방
▁이 력이</w>
▁위해서 라도</w>
▁완료 될</w>
▁옮 길</w>
▁예 선을</w>
▁옆 으로</w>
▁열 흘</w>
▁어머니 와</w>
▁애 널
▁실시 된다</w>
▁시도 하는</w>
▁습 관을</w>
▁숨 은</w>
▁송 환
▁소 수의</w>
▁설명 회</w>
▁생산 되는</w>
▁새 해를</w>
▁상황 이라</w>
▁사업 장에</w>
▁비판 의</w>
▁부담 은</w>
▁부 는</w>
▁보여 줬
▁발표 하면서</w>
▁반영 하지</w>
▁미 쓰
▁문제 해
▁무 겁
▁맞 벌이</w>
▁마지막 에</w>
▁마 주</w>
▁류현 진은</w>
▁돌 보는</w>
▁대학교 에</w>
▁다니 며</w>
▁누 진
▁노 년
▁기업 체</w>
▁기능 과</w>
▁기 금은</w>
▁급여 를</w>
▁근로 자
▁그러 고</w>
▁그다 음</w>
▁국가 는</w>
▁구석 구
▁교 류의</w>
▁공 원에서</w>
▁고위 공직
▁고 질
▁계획 대로</w>
▁경기도 에서는</w>
▁경기 둔
▁결정 하여야</w>
▁결 재
▁것 들은</w>
▁거 리는</w>
▁감당 할</w>
▁감 탄
▁감 기</w>
▁가게 에</w>
▁19 45</w>
’ )</w>
i m</w>
O T</w>
L S</w>
E R</w>
하이닉 스</w>
하려 던</w>
페스티 벌</w>
코 는</w>
지 도를</w>
준 다면</w>
왼 쪽</w>
솔 루
세 에서</w>
선 택
사 와의</w>
사 건의</w>
비 도</w>
본 은</w>
들 지</w>
데 스</w>
단 한</w>
년 도에</w>
경 북</w>
▁환 자에게</w>
▁행 진을</w>
▁해 본</w>
▁할인 된</w>
▁평가 도</w>
▁티켓 이</w>
▁투 여
▁출전 해</w>
▁출석 으로</w>
▁체 력이</w>
▁창출 하는</w>
▁직원 들과</w>
▁증가 했다고</w>
▁중 이라</w>
▁중 독</w>
▁주택 이</w>
▁좋 았습니다</w>
▁좋 겠네요</w>
▁전화 해</w>
▁전통 적으로</w>
▁재밌 게</w>
▁재무 제
▁잘 생
▁자격 으로</w>
▁입 주가</w>
▁일 대의</w>
▁이전 보다</w>
▁이야기 할</w>
▁이야 기에</w>
▁이 모</w>
▁이 더리
▁의 장에게</w>
▁유출 된</w>
▁위탁 하는</w>
▁원 치</w>
▁우 우</w>
▁요청 으로</w>
▁외부 에서</w>
▁예측 할</w>
▁예측 이</w>
▁예 에</w>
▁예 멘
▁열 정과</w>
▁연 설을</w>
▁얼 룩
▁언 덕
▁어린이 와</w>
▁어 리
▁양 상을</w>
▁앨범 이</w>
▁알 았
▁아파 트는</w>
▁심 해</w>
▁식 별
▁스타벅 스</w>
▁스스 로를</w>
▁수 분</w>
▁소상공 인의</w>
▁소개 를</w>
▁성 인이</w>
▁선임 연구
▁서 명한</w>
▁생태 계가</w>
▁상품 과</w>
▁산 재
▁부과 할</w>
▁부 수
▁보 상이</w>
▁변화 로</w>
▁법 과</w>
▁박 항서</w>
▁바라 보며</w>
▁민주 당과</w>
▁모양 이</w>
▁맞 닿
▁마라 톤</w>
▁리 가</w>
▁레 벨
▁두 터
▁됐 을</w>
▁도시 개발
▁도 둑
▁대표이 사는</w>
▁대응 하고</w>
▁다 쳤다</w>
▁다 르고</w>
▁눈 치
▁끼 칠</w>
▁김상 조</w>
▁궁금 해요</w>
▁군 포
▁국제 통화
▁국 영</w>
▁광주 광역
▁과반 수</w>
▁공 세를</w>
▁고려 하고</w>
▁고 통</w>
[...]
