#version: 0.2
▁t h
▁th e</w>
i n
e r
t i
e n
e d</w>
o n
▁o f</w>
o r
n d</w>
o n</w>
in g</w>
a n
a r
▁a nd</w>
▁t o</w>
o u
e r</w>
e a
e s
i t
e s</w>
e c
r o
i c
ti on</w>
▁i n</w>
a l</w>
i l
i s
a t
o r</w>
o m
en t</w>
a l
e l
▁i s</w>
▁i n
u r
a t</w>
▁w h
t s</w>
a tion</w>
e n</w>
a n</w>
▁T h
▁th at</w>
e m
o l
c e</w>
v e</w>
a s</w>
u s
t r
▁f or</w>
a s
i d
▁p ro
e t
i r
l y</w>
▁a r
u c
a c
▁o n</w>
▁Th e</w>
▁c on
l e</w>
▁w it
▁r e
o s
i g
▁a s</w>
er e</w>
u l
t h</w>
▁e x
a ti
i s</w>
▁i t</w>
▁c om
▁b e</w>
▁s h
▁wit h</w>
u n
v er
o o
a m
t er</w>
t ed</w>
er s</w>
▁s t
▁w as</w>
▁b y</w>
f f
▁h a
m ent</w>
a y</w>
a i
p p
il l</w>
c h
▁p r
a g
▁ar e</w>
t h
▁w ill</w>
i m
it y</w>
on g</w>
▁K or
ou n
▁c h
▁a l
o c
u t</w>
o t</w>
o w
on s</w>
s i
u d
o u</w>
▁a t</w>
o p
e e</w>
e t</w>
▁th e
▁b e
at e</w>
▁t r
ea s
e v
ro m</w>
l i
▁f rom</w>
▁s u
▁y ou</w>
t er
al l</w>
▁com p
e d
▁ha ve</w>
i ti
▁r es
e a</w>
a b
i al</w>
ic e</w>
▁a c
▁h as</w>
i v
▁ex p
ic h</w>
a k
▁u n
d uc
▁p l
on g
▁C h
▁wh ich</w>
e p
▁n e
a d
a y
u t
l d</w>
en ts</w>
▁n ot</w>
▁p ar
m p
es s</w>
▁wh o</w>
s t
i es</w>
ea r</w>
an g
o w</w>
▁e n
▁p er
▁a n</w>
▁w or
on al</w>
t ing</w>
▁in c
f or
ur e</w>
e ar
u m
d ing</w>
ig h
▁d is
▁th is</w>
an ce</w>
y e
ar y</w>
▁a n
i z
en t
a in
▁Kor ea</w>
o ver
▁o n
ti c
p er
d s</w>
a p
▁b ut</w>
u e</w>
at ed</w>
▁s p
ai d</w>
s t</w>
d er</w>
▁a b
an t</w>
es t</w>
▁r ec
▁c an</w>
i n</w>
es s
i m</w>
s e</w>
ou g
▁a d
over n
▁o r</w>
em ent</w>
im e</w>
ou ld</w>
▁h ea
ea n</w>
f ter</w>
▁I n</w>
r i
▁l i
▁a g
ou t</w>
p or
or e</w>
r ea
i t</w>
ag e</w>
▁s aid</w>
e g
a r</w>
uc h</w>
▁m an
▁I t</w>
in ce</w>
▁sh all</w>
i c</w>
o t
▁I n
ff ic
▁S e
ou r
▁be en</w>
▁f ir
▁y ear</w>
▁b ec
i r</w>
▁f or
t y</w>
en ce</w>
em b
s s
▁a pp
a us
un g</w>
▁w ere</w>
▁e v
▁t ime</w>
▁d i
om e</w>
q u
in is
o g
▁th ere</w>
▁h e</w>
oug h</w>
▁c l
▁con s
ec t</w>
an g</w>
u b
▁o r
ati onal</w>
ol l
c h</w>
▁r el
e l</w>
as t</w>
t en
▁Kor ean</w>
ai n</w>
▁p e
u n</w>
▁i mp
▁th r
▁P ro
s o</w>
i p
op le</w>
ye ong
▁a t
. "</w>
ou s</w>
ak e</w>
in g
th er</w>
tr y</w>
r es
▁K im</w>
▁h is</w>
ati ons</w>
▁s uch</w>
am e</w>
a nd</w>
▁con t
▁al so</w>
k ing</w>
▁ac c
an c
0 0</w>
▁pe ople</w>
▁a fter</w>
▁s o</w>
in e</w>
overn ment</w>
es ti
▁comp an
aus e</w>
▁wh en</w>
i b
▁G yeong
▁g r
▁m ore</w>
er v
▁the y</w>
▁the ir</w>
▁in v
el y</w>
e f
▁com m
▁s tr
l ud
iti es</w>
l o
ou r</w>
i on</w>
igh t</w>
o d
oo d</w>
▁i f</w>
▁s ec
▁th an</w>
▁fir st</w>
ar g
k s</w>
▁ab out</w>
al ly</w>
ec ted</w>
▁h el
h er</w>
▁pro v
for m
▁W h
▁m e
o v
an d
▁in t
or t</w>
ar d</w>
id e</w>
en c
k e</w>
id ent</w>
▁p ol
▁re g
a ir
o on</w>
▁f ac
▁2 0
ul t
▁in d
▁P ar
g i</w>
▁in ter
ou nd</w>
al l
r e
om m
ad e</w>
or s</w>
▁su pp
▁hea d</w>
▁inc lud
▁o ut</w>
e m</w>
ar e</w>
i f
an s</w>
▁in s
it t
li c</w>
eas e</w>
t ment</w>
ub lic</w>
o in
▁m on
▁m ar
▁Gyeong gi</w>
si on</w>
a m</w>
▁bec ause</w>
▁pro duc
▁w e</w>
ab le</w>
▁c oun
▁u s
▁o ffic
a ce</w>
ec t
il e</w>
ou l</w>
▁i ts</w>
os e</w>
n ing</w>
i e
a e</w>
i tion</w>
▁r ea
os t</w>
o o</w>
▁d r
▁on e</w>
▁Pro v
▁su b
▁Se oul</w>
us t</w>
▁s ch
il li
u m</w>
▁A c
▁s e
s h
e y</w>
el l</w>
▁m y</w>
on e</w>
ver s
▁c r
i ous</w>
▁per s
illi on</w>
▁l ea
ti v
d ed</w>
▁g overnment</w>
▁f in
▁l oc
al s</w>
▁d ec
▁wh ere</w>
l is
▁t w
▁p os
▁par tic
▁al l</w>
▁ha d</w>
ec tion</w>
ay s</w>
▁m ay</w>
▁e l
ati ve</w>
▁pr es
▁q u
es e</w>
ep ar
▁thr ough</w>
▁u p</w>
i l</w>
i ve</w>
▁st ud
or y</w>
ev el
▁b us
▁p ublic</w>
▁A r
▁w on</w>
or th</w>
▁b u
▁s c
▁m emb
c on
▁U n
▁wit h
ig n
▁s y
oo k</w>
oo l</w>
▁S t
▁includ ing</w>
▁re por
it e</w>
▁l ast</w>
, "</w>
▁c as
ig h</w>
g r
e on</w>
▁a m
▁re f
b er</w>
▁Th is</w>
▁o ther</w>
▁t ea
ti ons</w>
▁tw o</w>
t ers</w>
▁o per
▁on ly</w>
▁o p
ro p
▁d es
ur r
d er
ti t
▁inc r
d o</w>
▁d ue</w>
▁m at
▁b et
▁m e</w>
▁20 1
at ing</w>
▁N orth</w>
ic al</w>
ear s</w>
▁ne w</w>
k ed</w>
k et</w>
▁un der</w>
u g
a il
a v
▁bus in
▁li ke</w>
▁C omm
e en</w>
ur ing</w>
▁M inis
il l
▁k n
e e
itt ee</w>
ol d</w>
u tion</w>
▁y our</w>
h ed</w>
▁s erv
▁re v
▁d o</w>
en ti
▁p ur
en ter</w>
▁hel d</w>
▁l a
a f
▁s m
ow n</w>
▁Prov ince</w>
an s
▁man ag
en d</w>
i a</w>
▁d ay</w>
ff ice</w>
ing s</w>
▁v is
▁L ee</w>
▁compan ies</w>
ac h</w>
▁h igh</w>
evel op
o p</w>
▁G u</w>
ou s
▁m ed
▁pro j
oun c
ur es</w>
ti ve</w>
▁sp ec
▁the m</w>
con om
ur al</w>
v er</w>
e b
) ,</w>
u l</w>
g u</w>
▁N ational</w>
si b
▁an n
▁re p
▁con f
tr uc
▁w ould</w>
el l
d r
il ity</w>
▁con c
▁Ch in
▁sy st
ac k</w>
enc y</w>
▁sh ould</w>
▁n um
▁y ears</w>
arg e</w>
▁I f</w>
ol og
▁d ir
▁b as
ig n</w>
in c
▁rec e
duc ation</w>
▁at ten
▁m ade</w>
▁n o</w>
▁d el
iz ed</w>
▁c ar
▁st ar
▁comp l
ul t</w>
▁o ver</w>
ic ation</w>
▁int o</w>
esti g
▁man y</w>
▁A s</w>
en er
en d
g an
ou th</w>
at es</w>
ul ar</w>
m an</w>
u al</w>
▁e st
as s
▁T r
it ed</w>
is t
et ing</w>
▁supp ort</w>
u r</w>
id ed</w>
l l</w>
▁loc al</w>
▁num ber</w>
et y</w>
w een</w>
p r
or t
et her</w>
i p</w>
▁f r
j u</w>
▁f e
▁wor k</w>
▁ind us
▁bet ween</w>
▁compan y</w>
▁for m
er i
in k</w>
▁partic ip
▁pro c
ent ly</w>
▁ch il
▁p h
▁busin ess</w>
▁dis c
▁b r
▁ch ang
il y</w>
▁S h
ec h
▁e mp
▁mar ket</w>
ro w
▁ex c
ff er
t e</w>
on d</w>
▁P res
0 00</w>
▁syst em</w>
or ding</w>
▁m ake</w>
o b
▁v ar
u s</w>
▁inv estig
ow ing</w>
is e</w>
x t</w>
▁ev en</w>
▁d evelop
▁f oll
▁t ake</w>
▁Th ere</w>
o d</w>
▁3 3</w>
▁res p
▁sch ool</w>
▁b o
ec ts</w>
▁e conom
l es</w>
em s</w>
▁s ince</w>
▁memb ers</w>
m s</w>
▁f am
▁c rea
e h
i vers
▁1 0</w>
ud g
▁u se</w>
▁wh ile</w>
eas ed</w>
▁W e</w>
ab lis
for e</w>
m m
▁s oc
▁pro m
ter n
▁g o
▁w ell</w>
er r
id ents</w>
▁Pres ident</w>
iz ation</w>
ow er</w>
▁per form
ay ing</w>
b l
ic es</w>
oun g</w>
▁re qu
▁m in
▁f l
i ed</w>
ti es</w>
▁Par k</w>
▁e ach</w>
▁s el
a d</w>
▁tr ans
▁b l
▁est ablis
iv ing</w>
inis tr
▁or gan
ech n
er y</w>
an ts</w>
▁a ss
ou p</w>
iz e</w>
▁ac tiv
▁d et
▁E n
er g
tic le</w>
▁g ood</w>
▁d o
▁w at
▁e ar
ea s</w>
il ities</w>
tr ic
▁or der</w>
▁c oll
ol it
y ing</w>
ut e</w>
▁be ing</w>
▁g o</w>
▁tea m</w>
et rop
▁A ss
T h
m inistr
▁J ap
olit an</w>
tr ac
etrop olitan</w>
▁ne xt</w>
▁exp ected</w>
w on</w>
▁manag ement</w>
▁r em
▁n ec
▁pr ev
h er
ti f
t or</w>
▁g et</w>
▁w ant</w>
ea l
▁d uring</w>
▁th ink</w>
▁thr ee</w>
▁h er</w>
▁bu il
i d</w>
▁i ss
e ong</w>
d in
▁c ult
e ti
▁Wh en</w>
ev er</w>
▁e m
▁li f
it s</w>
ak ing</w>
n ed</w>
▁pl ace</w>
▁s ur
iti c
▁Minis try</w>
u ation</w>
t c</w>
en s
▁C ity</w>
▁e tc</w>
▁Par ty</w>
is ion</w>
o ve</w>
▁s ome</w>
▁o ur</w>
▁e ff
▁be fore</w>
▁c er
▁nec ess
▁stud ents</w>
▁cont in
▁m ov
▁an y</w>
▁al l
▁var ious</w>
oun t</w>
t ure</w>
▁offic ial</w>
▁me eting</w>
e o
▁proj ect</w>
▁c or
▁p oin
form ation</w>
▁c ould</w>
▁Ar ticle</w>
▁pol ic
▁m illion</w>
▁S u
ivers ity</w>
▁s al
▁dir ect
en g
▁ar ea</w>
▁pers on</w>
r ap
▁necess ary</w>
▁emp lo
anc ial</w>
▁t a
▁C on
s u
▁e ver
air man</w>
p l
ou se</w>
▁ann ounc
is t</w>
▁H e</w>
▁g u
▁a s
▁o ffice</w>
▁pro bl
▁ne ed</w>
▁t er
▁Chin a</w>
▁a ff
▁s ame</w>
▁pol ice</w>
▁Comm ittee</w>
▁g ener
▁b el
▁di ffic
▁cas e</w>
n am</w>
▁sec ond</w>
ro v
▁wh at</w>
▁m ost</w>
oug h
us t
▁mon th</w>
ain ing</w>
▁P l
▁kn ow</w>
i ons</w>
eas on</w>
h ing</w>
s el
▁n ow</w>
▁s it
ch eon</w>
▁Ac t</w>
▁e ducation</w>
echn olog
sib le</w>
▁d ays</w>
▁Ac c
▁w r
▁o w
w ay</w>
am p
▁res idents</w>
▁with out</w>
▁pro f
dr en</w>
▁g row
▁ad v
▁us ed</w>
▁pl an</w>
en s</w>
▁o pp
▁M etropolitan</w>
overn or</w>
▁S outh</w>
▁at t
▁“ “</w>
▁h ous
▁wor ld</w>
▁d em
iv ed</w>
an t
▁m a
▁c urr
emb er</w>
▁H y
▁produc ts</w>
▁serv ice</w>
▁di ffer
ain ed</w>
▁A l
▁G overnment</w>
r u
d ay</w>
▁form er</w>
▁F or
truc tion</w>
tr ies</w>
en ing</w>
▁in formation</w>
sh ip</w>
▁ar ound</w>
▁l ong</w>
▁In d
▁indus try</w>
en i
▁wor k
our t</w>
▁h ow</w>
▁rel ated</w>
▁conc er
err ed</w>
e x
air s</w>
▁m eas
▁pro gr
▁O r
ear ch</w>
▁s l
y p
e ts</w>
▁r ight</w>
▁exp l
▁Y ou</w>
▁resp on
▁lif e</w>
▁f un
▁con duc
▁C enter</w>
▁b ro
▁d on</w>
▁ad d
▁sm all</w>
is sion</w>
▁c ity</w>
▁inv es
s ec
un g
▁2 0</w>
m ents</w>
▁M ar
Th e</w>
▁c o
p ar
it al</w>
▁t al
as s</w>
u p</w>
a w
▁r a
▁o ut
er m
▁comm un
▁spec ial</w>
▁w ee
▁exp eri
▁a m</w>
▁Acc ording</w>
▁ev ent</w>
v ir
an k</w>
▁j ust</w>
or ts</w>
tr ib
vir on
▁fac ilities</w>
os p
▁s aying</w>
▁chil dren</w>
e w
ti m
o m</w>
▁s ol
epar tment</w>
i um</w>
▁investig ation</w>
▁D o</w>
a ve</w>
▁offic i
▁B us
▁with in</w>
▁develop ment</w>
▁cons id
▁foll owing</w>
▁m uch</w>
en se</w>
ea d</w>
▁pl ay
▁w om
ib er
▁o f
▁h igh
al ity</w>
▁c oo
▁J e
all ed</w>
▁l ot</w>
e w</w>
▁ad ministr
al e</w>
▁incr ease</w>
os ed</w>
▁p op
▁coun try</w>
▁app l
▁per i
▁j o
oc k</w>
▁b illion</w>
▁d ep
tric t</w>
ow ed</w>
▁f il
is ed</w>
ain st</w>
▁f i
▁c enter</w>
▁w in
▁e as
▁be g
▁M oon</w>
u ally</w>
▁s af
▁m us
op e</w>
▁G ang
▁announc ed</w>
d ong</w>
anc es</w>
▁s ee</w>
echnolog y</w>
▁f ood</w>
▁l arge</w>
it ing</w>
▁ins tit
i an</w>
▁A m
▁un der
▁perform ance</w>
▁ag ainst</w>
▁1 9
▁di d</w>
si ve</w>
▁d ef
e o</w>
i ation</w>
inc ial</w>
▁am ong</w>
t ain</w>
▁r et
is m</w>
ess ed</w>
▁Un iversity</w>
▁in f
▁peri od</w>
a e
▁en ter
y ung</w>
▁par ty</w>
▁r ate</w>
▁ch ec
▁n o
▁in st
s ung</w>
▁v ery</w>
us p
▁r oo
sh e</w>
▁gr oup</w>
▁pr ice</w>
▁G w
ev el</w>
▁ref erred</w>
▁P r
▁3 0</w>
n er</w>
▁t ot
o ther</w>
ic s</w>
ent al</w>
e ign</w>
▁e nd</w>
ati c</w>
▁per c
▁proc ess</w>
▁cont ro
▁O n</w>
f ul</w>
res ent
ut ure</w>
p ec
▁A n
ie w</w>
▁D is
▁h im</w>
▁ma j
t ors</w>
▁soc ial</w>
▁h ear
▁su mm
▁s usp
c ri
▁o b
▁s ign
▁S am
▁econom ic</w>
▁ch ar
il it
▁int ro
▁oper ation</w>
▁n ational</w>
▁o c
▁tot al</w>
▁wh ether</w>
▁fin ancial</w>
an n
enti al</w>
i ver
s an</w>
er ing</w>
for m</w>
ab or</w>
ag rap
▁w ay</w>
im es</w>
▁imp l
m ed</w>
en tr
▁fac t</w>
▁In s
iti onal</w>
u th
▁hea l
▁go ing</w>
▁h ome</w>
at her</w>
▁ag re
) .</w>
▁fam ily</w>
▁bec ome</w>
▁des ign
▁g rea
▁pro t
od ay</w>
▁atten tion</w>
▁repor t</w>
▁i d
▁J ae</w>
an ding</w>
▁f ri
u k</w>
ag es</w>
▁E x
▁b udg
▁com e</w>
▁cas es</w>
▁offici als</w>
ang e</w>
l ed</w>
▁f ound</w>
ust om
▁coo per
y s
▁st at
din ance</w>
d y</w>
ow s</w>
▁hel p</w>
ut y</w>
ough t</w>
l ine</w>
ar m
▁ch arge</w>
▁polic y</w>
▁diffic ult</w>
og ether</w>
p s</w>
▁f uture</w>
▁G overnor</w>
ch ed</w>
▁th ose</w>
▁sh ar
▁ne w
ea l</w>
▁wor king</w>
iti z
u es</w>
▁produc t</w>
iv ate</w>
▁cons truction</w>
i ety</w>
▁A t</w>
▁f ul
▁oc c
▁chang e</w>
▁inter n
▁o ver
▁in ten
▁ag ain</w>
▁J ung</w>
v ing</w>
▁imp ort
▁r o
▁me ans</w>
u ce</w>
▁s om
▁c ap
igh ts</w>
▁pro sec
u ed</w>
ar ds</w>
▁p ass
ti ce</w>
▁s ti
ti l</w>
▁en viron
em p
is h</w>
or k</w>
▁comp eti
th ough</w>
at ely</w>
al f</w>
um p</w>
▁s k
es ted</w>
in ation</w>
▁meas ures</w>
▁d oc
▁sh e</w>
▁ever y</w>
▁la w
en ed</w>
▁Minis ter</w>
emb ly</w>
e in
w ard</w>
e ong
r et
▁sit uation</w>
ol e</w>
v es</w>
▁m et
▁b ack</w>
ec tr
an ese</w>
▁t ogether</w>
e x</w>
▁O ffice</w>
▁prom o
en ted</w>
▁b i
ak es</w>
▁wat er</w>
t ly</w>
▁a ud
ie f</w>
ro w</w>
▁sub s
▁ha pp
▁j oin
por t</w>
▁compl et
▁M an
▁m od
▁In tern
▁c ustom
esti v
▁par t</w>
a fter</w>
r y</w>
ot e</w>
▁partic ular</w>
h y
oc r
▁res ul
▁pos sible</w>
▁ne g
s on</w>
▁activ ities</w>
▁memb er</w>
▁repor ted</w>
ur ity</w>
ein after</w>
▁p ower</w>
uc c
▁pur su
f are</w>
r ee</w>
ac t</w>
th s</w>
▁rece ived</w>
ee p</w>
▁comm ittee</w>
▁coun tries</w>
at a</w>
▁inter est</w>
▁att ac
▁prov ide</w>
▁b est</w>
▁sal es</w>
▁d om
her einafter</w>
▁Gw ang
▁probl em</w>
el fare</w>
▁Bus an</w>
d ers</w>
▁l o
▁S ec
on y</w>
▁i t
▁Pl ease</w>
▁Jap an</w>
ul ation</w>
ult ural</w>
▁m ain
ai r</w>
▁am ount</w>
i ol
in es</w>
▁ar eas</w>
▁ter m</w>
▁mat ters</w>
▁perc ent</w>
▁vis it</w>
▁conf ir
▁Or dinance</w>
▁pr epar
ut es</w>
lo b
ep t</w>
ilit ary</w>
▁fir e</w>
▁d own</w>
▁s ucc
▁s ay</w>
▁con d
▁s et</w>
em e</w>
▁wom en</w>
d en</w>
▁c aus
▁ret ur
▁a uth
▁d am
▁Th at</w>
▁R es
▁pl an
▁Ass embly</w>
r e</w>
g e</w>
ti c</w>
▁differ ent</w>
▁pr ivate</w>
▁h ol
▁pro p
th ing</w>
▁cult ure</w>
▁t oday</w>
▁roo m</w>
in d</w>
▁Sam sung</w>
on ed</w>
▁G r
an ds</w>
▁g ive</w>
ai l</w>
agrap h</w>
▁direct or</w>
▁s im
▁un til</w>
▁jo b</w>
▁emplo y
▁bas ed</w>
▁m ain</w>
▁b ur
▁f our</w>
e ed</w>
o l</w>
o k
▁us ing</w>
sel f</w>
ic k
▁t oo</w>
▁mon ey</w>
od y</w>
▁experi ence</w>
ye ong</w>
om p
▁h um
▁ab le</w>
▁th ese</w>
▁tr ea
▁t our
▁P ol
l l
▁e qu
▁h ere</w>
▁en tr
h ib
o i</w>
ac k
a z
▁grow th</w>
i ence</w>
▁import ant</w>
estiv al</w>
▁t echnology</w>
▁imp rov
ow ever</w>
W e</w>
d uce</w>
er c
▁wh y</w>
▁maj or</w>
▁incr eased</w>
▁sub m
▁for eign</w>
▁Chin ese</w>
▁work ers</w>
▁w ar
▁gener al</w>
sib ility</w>
is ing</w>
▁rec or
▁budg et</w>
▁dec ided</w>
▁d epartment</w>
▁v al
uc l
▁f ive</w>
▁r eason</w>
▁d ata</w>
▁g ame</w>
a pp
▁h alf</w>
▁C ounc
▁Jap anese</w>
ef t</w>
▁v iol
▁sti ll</w>
▁rep resent
▁saf ety</w>
cri b
▁A d
en ds</w>
i e</w>
▁c itiz
▁E ducation</w>
j ect</w>
▁an al
▁proj ects</w>
ec u
lob al</w>
n ess</w>
▁c ame</w>
▁l oo
▁disc us
▁S erv
▁U S</w>
▁l evel</w>
▁ne ed
▁h ard</w>
tr ial</w>
▁rea l</w>
ch ing</w>
▁m is
▁pres ident</w>
ir ed</w>
▁prov ince</w>
▁1 5</w>
▁op in
▁fi el
▁m aking</w>
on t</w>
▁th en</w>
eg al</w>
▁w ea
▁F in
▁t imes</w>
ay or</w>
▁l ow</w>
ie w
in ed</w>
a k</w>
▁s er
▁a ut
▁res t
z ed</w>
▁En g
▁l eft</w>
▁ear ly</w>
▁Tr ump</w>
er ed</w>
▁em erg
u nd</w>
esti c</w>
a w</w>
▁con v
oc iation</w>
t en</w>
▁1 2</w>
▁t ook</w>
▁intro duc
▁W or
▁s ing
▁r ul
▁b ea
R W</w>
▁re duc
▁pursu ant</w>
▁l ear
l and</w>
▁h ope</w>
▁resul ts</w>
▁con trac
▁A si
▁p ast</w>
▁rea l
a ug
▁exp er
▁d iv
ens es</w>
▁p ay</w>
eh ic
▁u s</w>
▁h ist
j o
i ev
▁D em
▁m ilitary</w>
at ure</w>
▁buil ding</w>
▁1 00</w>
ri ed</w>
ye on</w>
▁tr ad
▁ta x</w>
ess es</w>
iv es</w>
ir e</w>
▁l im
▁1 1</w>
as ter</w>
▁rel eased</w>
▁med ia</w>
l ic
ain s</w>
" ,</w>
▁Counc il</w>
▁u r
ev ant</w>
▁pur p
▁sur v
j in</w>
ati on
▁A fter</w>
iv er</w>
is ts</w>
▁N ew</w>
at er</w>
per son</w>
em ent
tic s</w>
▁e s
▁organ iz
▁of f</w>
▁pol itic
▁char ac
▁In cheon</w>
in al</w>
▁ex ch
▁t ur
▁sh ow</w>
h o</w>
a i</w>
▁rel evant</w>
iti ons</w>
▁iss ue</w>
▁E l
▁s ite</w>
oun d
▁Wh at</w>
▁st or
▁K RW</w>
er n</w>
▁c iv
as e</w>
▁p ic
▁v ehic
os ition</w>
. ”</w>
▁fin d</w>
▁aff airs</w>
▁ins p
ffic i
▁dom estic</w>
y ang</w>
▁h ouse</w>
▁chec k</w>
▁wee k</w>
v en</w>
en ding</w>
▁ph ot
▁D ec
am es</w>
d le</w>
our s</w>
▁c ar</w>
▁econom y</w>
▁ar r
▁inves tment</w>
▁res ult</w>
▁t yp
▁H owever</w>
▁p ay
▁ow n</w>
▁f lo
▁pl ans</w>
▁heal th</w>
h ment</w>
tit ute</w>
o ti
▁n ame</w>
▁v ic
▁c alled</w>
▁m id
on s
▁star t</w>
▁cult ural</w>
▁Dem ocr
▁str eng
▁attac hed</w>
▁l abor</w>
▁dis p
ir c
▁i mm
▁st and
▁D a
u tions</w>
▁f oc
▁do es</w>
th e</w>
un d
▁par agraph</w>
▁s w
rea dy</w>
▁Ch airman</w>
▁app oin
c es</w>
at eg
▁citiz ens</w>
▁res earch</w>
o k</w>
▁Al though</w>
▁ev al
er ation</w>
▁add ition</w>
▁m ust</w>
▁agre ement</w>
▁C ourt</w>
▁fr ont</w>
▁grea t</w>
▁Ch oi</w>
▁v ol
▁v id
▁b rea
▁m or
▁en jo
▁c ol
▁auth or
▁sch ed
n s</w>
▁la w</w>
em ents</w>
▁prosec ution</w>
▁cr itic
▁B r
▁20 0
▁g lobal</w>
▁y oung</w>
▁j udg
▁cor por
ed i
▁al ready</w>
▁at trac
it h</w>
▁prov incial</w>
▁fe el</w>
▁w ent</w>
▁c and
it ted</w>
es ts</w>
▁med ical</w>
▁ch airman</w>
▁curr ent</w>
o ol
el s</w>
li ed</w>
ir d</w>
ret ary</w>
▁t as
eas t</w>
▁h ours</w>
ti s
▁exp r
▁on ce</w>
▁la un
ye es</w>
lis h</w>
▁p ut</w>
▁establis hed</w>
▁ful l</w>
▁environ ment</w>
▁pur ch
en tion</w>
▁str ong</w>
▁serv ices</w>
f ac
▁b ody</w>
▁rece ive</w>
is ting</w>
▁mon ths</w>
em ony</w>
▁Ind us
▁H an
▁c are</w>
ar ed</w>
▁S ch
▁Ins titute</w>
▁p aid</w>
▁exp enses</w>
▁mus ic</w>
▁an y
▁incr eas
ess or</w>
ur ed</w>
▁l ook</w>
▁b oo
▁M y</w>
" )</w>
. ,</w>
ur ance</w>
▁requ est</w>
▁Th ey</w>
v ed</w>
▁purp ose</w>
▁det erm
▁t op</w>
ro ve</w>
id es</w>
i al
▁i ll
▁li k
▁F or</w>
▁w as
iv en</w>
▁c os
▁a v
il i
▁cooper ation</w>
o pp
▁H w
u le</w>
▁emplo yees</w>
▁c our
▁c ann
▁under st
▁d ea
▁su per
▁h osp
o h
▁acc ording</w>
▁se ems</w>
▁J ong</w>
▁conduc ted</w>
▁u p
air person</w>
if ic
ed ic
aug h
▁pl ease</w>
oc al</w>
▁st ate</w>
▁s ide</w>
▁bi g</w>
er ence</w>
▁app ly</w>
tim e</w>
erg y</w>
▁cann ot</w>
▁l iving</w>
▁tr aining</w>
▁expl ained</w>
▁sel ected</w>
▁particip ate</w>
th ers</w>
▁crea te</w>
▁F r
▁fr ee</w>
▁D ong</w>
▁Con s
▁Ass ociation</w>
▁rec ently</w>
ar ding</w>
at or</w>
▁Dis trict</w>
▁sel f</w>
▁del iver
▁Un ited</w>
▁c ourt</w>
ad c
i or</w>
▁pr ices</w>
▁cer emony</w>
id ential</w>
▁H ong</w>
▁pro per
h w
▁reg ul
▁produc tion</w>
▁s end</w>
▁op en</w>
▁bo th</w>
▁5 0</w>
▁p ub
▁M ay</w>
▁gr ad
▁subs id
▁ex hib
is es</w>
▁rec omm
▁d e
▁mor ning</w>
▁organiz ations</w>
▁reg is
▁O n
ool s</w>
eo k</w>
▁progr am</w>
i x</w>
▁cand id
▁poin t</w>
▁me et</w>
▁t em
▁pl ay</w>
▁Serv ice</w>
▁appl ication</w>
▁S ince</w>
r ic
▁p er</w>
ectr on
▁l ess</w>
▁li ve</w>
ac h
▁ag ency</w>
K or
▁a f
▁1 8</w>
▁a way</w>
ar d
▁1 3</w>
▁star ted</w>
▁met h
▁Democr atic</w>
▁flo or</w>
es si
enc es</w>
▁Eng lish</w>
▁h and
e ed
▁g ot</w>
▁l ove</w>
▁Y oung</w>
ch er</w>
l ing</w>
▁n or
entr al</w>
▁tr av
o or</w>
▁bec ame</w>
▁pay ment</w>
▁s ev
▁t aking</w>
▁f re
▁o ld</w>
▁vis ited</w>
▁competi tion</w>
▁ta x
ie ve</w>
▁R ep
ac es</w>
▁contin ue</w>
▁d ate</w>
▁commun ity</w>
▁dr am
▁l arg
▁administr ation</w>
▁h old</w>
▁tr ade</w>
▁g overn
▁C or
▁s epar
▁summ it</w>
▁b en
ult ure</w>
▁lik ely</w>
▁cl ai
▁p at
ib le</w>
▁represent ative</w>
▁dis trib
▁al ong</w>
▁fiel d</w>
a ur
▁pop ular</w>
▁cons um
▁c anc
▁pres crib
▁op ening</w>
r d</w>
▁f ail
e et</w>
es t
un e</w>
e es</w>
▁A n</w>
▁administr ative</w>
▁prev ent</w>
us ed</w>
▁bet ter</w>
w ays</w>
or ed</w>
▁Wh ere</w>
eni or</w>
▁c ou
▁t est</w>
▁M ayor</w>
▁l ate</w>
▁as ked</w>
▁w elfare</w>
C h
▁a w
ill age</w>
▁l ed</w>
▁ex am
i onal</w>
oo ds</w>
▁acc oun
▁pr ac
▁c ost</w>
▁an other</w>
▁r ights</w>
ort un
h ead</w>
et ting</w>
es sion</w>
▁1 6</w>
ter ed</w>
▁A g
▁Gwang ju</w>
▁o vers
▁J u
▁pers on
ti onal</w>
e er</w>
▁lea der</w>
all s</w>
▁s oon</w>
a p</w>
og n
▁ch arg
ous ly</w>
▁1 4</w>
en e</w>
▁th ings</w>
▁inc ome</w>
▁organ ization</w>
▁probl ems</w>
▁a par
ec ting</w>
▁vid eo</w>
▁loc ated</w>
▁ac t
▁hist ory</w>
▁neg oti
ecu tive</w>
an ks</w>
n ov
▁ever y
▁be h
y u</w>
▁th ird</w>
if e</w>
id n</w>
▁Mar ch</w>
▁intern ational</w>
▁bro adc
▁chil d</w>
s oo</w>
n ers</w>
▁imp rove</w>
▁kn own</w>
▁dem and</w>
▁N o</w>
▁contrac t</w>
as ed</w>
▁el ection</w>
▁A p
ea t</w>
▁confir med</w>
eh ol
▁rev eal
o s</w>
▁sec urity</w>
id ing</w>
▁acc ident</w>
ati s
▁c irc
▁mar k
▁d en
▁Wor ld</w>
▁pers ons</w>
▁Ch o</w>
▁L iber
▁dam age</w>
▁establis h</w>
iv id
s c
▁hum an</w>
y oung</w>
▁par ents</w>
▁Sch ool</w>
id ence</w>
ec tive</w>
▁st age</w>
ound ation</w>
t ation</w>
▁i m
▁l ine</w>
w h
▁sh owed</w>
▁s eason</w>
E O</w>
if ication</w>
▁2 5</w>
▁or ig
▁caus ed</w>
em or
▁Gr oup</w>
▁S p
▁sp rea
▁Je ju</w>
▁res ol
lo y
▁ad ded</w>
▁app ear
in ess</w>
▁Intern ational</w>
▁con trib
▁trea tment</w>
im um</w>
▁p en
ag ement</w>
▁f ine</w>
▁prom ote</w>
▁me an
▁con n
in s
▁Comm ission</w>
er ic
▁ref l
▁sp ace</w>
▁atten ded</w>
▁det ail
▁inter v
▁d idn</w>
ab ility</w>
▁beg an</w>
▁m an</w>
en sive</w>
▁prov ided</w>
▁v o
ep t
▁lea d</w>
l ess</w>
ect or</w>
▁d eb
is si
▁del iber
all ing</w>
▁dr aw
ak en</w>
▁sch ools</w>
▁Pol ice</w>
▁b ook</w>
b le</w>
et t
▁K ang</w>
li z
▁instit utions</w>
▁cer tif
▁E u
itt le</w>
▁n on</w>
▁opp ortun
or d
es ter
▁cl ass</w>
▁O c
▁mid dle</w>
▁prev ious</w>
p le</w>
m ak
▁employ ment</w>
▁s em
ag ed</w>
▁streng th
y o</w>
▁f ans</w>
▁rest aur
▁rec ogn
us si
ur y</w>
▁trans f
▁I s
e ung</w>
ep end
us tice</w>
s ide</w>
▁dec ision</w>
ro s
▁overs eas</w>
at ory</w>
qu ar
▁insp ection</w>
r as
▁H ow</w>
▁b at
▁R eg
▁en g
▁des ign</w>
▁soc iety</w>
un t
▁E ven</w>
▁a ir</w>
▁reg ion</w>
▁min utes</w>
▁qu ality</w>
▁polic ies</w>
▁1 9</w>
▁play ers</w>
▁supp or
▁b or
▁& &</w>
▁a ch
▁pos ition</w>
▁st e
▁sub ject</w>
▁ben ef
▁ha ving</w>
th ern</w>
▁h om
▁l et</w>
▁mov ie</w>
▁particip ated</w>
▁p ati
▁hous ing</w>
ri l</w>
m ing</w>
▁s ent</w>
▁chang ed</w>
▁Ad ministr
ob s</w>
I t</w>
ur ch</w>
▁1 7</w>
▁rul ing</w>
▁direct ly</w>
▁exper ts</w>
▁e y
ar t
en ess</w>
p h
a ff
▁poin ted</w>
▁s o
▁ind ivid
▁activ ely</w>
▁St ates</w>
s ed</w>
t ain
l u
▁tr ial</w>
▁app rov
t ments</w>
y ear</w>
▁sc re
e um</w>
▁pr ep
▁dis trict</w>
ill s</w>
t ures</w>
on es</w>
b uk</w>
▁m ove</w>
▁politic al</w>
▁opp osition</w>
▁ch o
ill ed</w>
▁l ittle</w>
▁n ight</w>
▁r ole</w>
▁Ap ril</w>
m in</w>
▁S o</w>
▁sh ort</w>
▁f ar</w>
▁W ith</w>
pr eme</w>
▁o thers</w>
l d
▁f ea
Kor ean</w>
▁n at
▁c ause</w>
▁app lied</w>
▁val ue</w>
▁complet ed</w>
▁2 4</w>
▁vic ti
am s</w>
▁new s</w>
▁Ch ung
▁H ouse</w>
en ded</w>
▁v er
▁m ob
for c
ea ce</w>
▁t om
▁fac ility</w>
▁stud y</w>
▁l and</w>
▁fun ds</w>
▁l os
▁th ought</w>
▁retur n</w>
▁o ff
um ents</w>
▁l ater</w>
▁exch ange</w>
in king</w>
▁st ore</w>
om ing</w>
▁r is
▁eff ect</w>
eri als</w>
n el</w>
ip ment</w>
▁d ev
▁add itional</w>
▁se x
▁real ly</w>
▁inv ol
▁cond itions</w>
ang u
▁ag e</w>
▁k in
▁c ard</w>
▁4 0</w>
▁s ix</w>
ras truc
om s</w>
▁prep are</w>
▁al ways</w>
▁j obs</w>
5 0</w>
v ely</w>
▁Liber ty</w>
▁custom ers</w>
ch es</w>
▁g iven</w>
▁Am eric
ati ves</w>
▁ins urance</w>
▁D ong
▁J une</w>
▁ra ised</w>
▁m inis
▁join t</w>
t o
▁contro l</w>
i pp
▁ev ents</w>
u mp
▁ex isting</w>
as h
ver age</w>
e un</w>
▁R ussi
d quar
ch ers</w>
g ue</w>
▁r un
▁Prov incial</w>
▁trad itional</w>
▁reveal ed</w>
▁pr edic
▁wor ks</w>
▁f ur
▁St ation</w>
i o</w>
▁bu s</w>
▁c all</w>
ov er</w>
ad em
▁ch ief</w>
▁busin esses</w>
u fac
our ces</w>
iz ing</w>
▁P ublic</w>
▁Ju ly</w>
ul ar
▁qu esti
e y
▁p us
▁r un</w>
▁of ten</w>
b an</w>
▁tr illion</w>
▁f ace</w>
g er</w>
rastruc ture</w>
ay ed</w>
▁supp ly</w>
▁se en</w>
▁mat erials</w>
▁t aken</w>
▁A ff
▁diffic ul
▁promo tion</w>
▁fin al</w>
▁s enior</w>
ar b
▁sec tor</w>
▁ro ad</w>
▁sign ific
▁c ent
g g
r el
▁n ear</w>
y c
ot el</w>
s w
▁l east</w>
▁respon se</w>
▁emerg ency</w>
▁t ell</w>
▁exhib ition</w>
ec tiv
or row</w>
▁f is
2 0</w>
an y</w>
▁Su preme</w>
▁civ il</w>
▁surv ey</w>
▁high er</w>
▁E conom
▁201 8</w>
▁I s</w>
vers y</w>
▁larg est</w>
▁a ir
▁dis ab
▁st ock</w>
▁indus trial</w>
em ed</w>
▁w ar</w>
▁th er
▁Sh in</w>
▁r ather</w>
▁e r
por tation</w>
▁Aff airs</w>
u ment</w>
▁B l
▁bu y</w>
▁se e
▁th ough</w>
▁med ium</w>
▁B ut</w>
▁qu ar
eg e</w>
▁stud ent</w>
▁2 1</w>
▁sh are</w>
s p
ept ember</w>
ug g
il ies</w>
ros s</w>
▁rec ent</w>
▁enjo y</w>
ess ing</w>
▁b ir
ar s</w>
▁comp ared</w>
hy un</w>
▁vol unt
▁k eep</w>
▁Fin ancial</w>
▁increas ing</w>
▁iss ues</w>
▁man ufac
▁fun c
t ory</w>
ed ly</w>
f ied</w>
▁bas ic</w>
eg r
▁f arm
▁eas y</w>
▁plan ning</w>
▁eval uation</w>
▁acc ord
▁hosp ital</w>
▁for m</w>
▁str uc
i ke</w>
ail y</w>
▁n ever</w>
▁v ac
▁Y oon</w>
ac y</w>
f ri
enc ies</w>
▁w age</w>
ucl ear</w>
▁pos sibility</w>
▁in j
▁mat ch</w>
dquar ters</w>
or ry</w>
▁se ver
▁C EO</w>
▁ex ten
u p
i et
or ity</w>
et w
▁oper ating</w>
▁2 7</w>
i ally</w>
b r
at ors</w>
ter m</w>
▁loo king</w>
▁acc ount</w>
itt en</w>
et hing</w>
▁w al
k er</w>
▁S ung</w>
eal th</w>
▁Eu rop
▁fe es</w>
▁f estival</w>
▁S eptember</w>
▁Th en</w>
an ted</w>
▁C an</w>
▁st ory</w>
▁ph one</w>
ou ps</w>
▁Gyeong s
▁introduc ed</w>
▁ar t</w>
▁coun c
▁dec r
m ental</w>
▁fri ends</w>
▁cos ts</w>
▁ag o</w>
und ai</w>
ru p
▁D ae</w>
ic ate</w>
▁per m
tic al</w>
▁f em
▁m ess
▁e ffici
▁v iew
▁dec l
▁fam ilies</w>
▁rev iew</w>
▁adv ance</w>
▁cr ed
▁en ough</w>
urr ed</w>
" .</w>
▁opin ions</w>
▁S c
▁en ergy</w>
▁poin ts</w>
▁no tif
angu age</w>
▁lea ve</w>
▁m akes</w>
and ed</w>
▁en c
▁d ust</w>
s es</w>
▁contro versy</w>
▁a verage</w>
▁spec ial
▁com b
3 0</w>
▁Hy undai</w>
▁A b
▁gr oups</w>
▁crea ted</w>
or ing</w>
▁p ain
t uring</w>
▁c ities</w>
▁som ething</w>
▁prof essi
▁J i</w>
▁go al</w>
▁conduc t</w>
s ite</w>
ement ary</w>
ic ial</w>
▁l eg
▁F estival</w>
▁reg ular</w>
▁anal y
▁B ank</w>
▁cons ult
ar t</w>
forc ement</w>
▁t ow
▁un i
▁law mak
ap er</w>
▁For m</w>
▁offic er</w>
ec h</w>
▁Tr ans
▁Wh ile</w>
▁Man agement</w>
▁an sw
▁2 2</w>
▁ac tive</w>
id ay</w>
▁2 3</w>
▁out side</w>
▁wor ds</w>
u ary</w>
▁cour se</w>
▁in nov
▁develop ed</w>
▁D epartment</w>
ectron ics</w>
▁establis hment</w>
▁curr ently</w>
▁enter pr
▁accord ance</w>
aff ic</w>
▁pr ess</w>
ap e</w>
▁conf erence</w>
on om
▁y et</w>
▁str ateg
▁r eas
▁imm edi
evelop ment</w>
▁Prov ided</w>
▁Gang won</w>
▁f av
▁Se ung</w>
it er
▁ag ric
▁lea ding</w>
▁Asi an</w>
u ted</w>
▁grow ing</w>
q ue</w>
li er</w>
▁” ”</w>
▁s ize</w>
▁k ey</w>
▁dea th</w>
▁tr y</w>
▁compl ex</w>
▁e at</w>
▁af tern
▁need ed</w>
▁ex tr
▁Ag ency</w>
▁cl ose</w>
▁spec if
▁it ems</w>
▁aftern oon</w>
ae k</w>
to ber</w>
ip s</w>
▁m et</w>
▁exp and</w>
▁ill egal</w>
▁fil m</w>
▁id enti
▁oper ate</w>
▁doc uments</w>
anc ed</w>
▁Hy un</w>
▁en ti
▁cl os
▁tal k</w>
▁all eg
it al
▁g en
▁J an
af f</w>
h ere</w>
▁stat us</w>
▁Administr ation</w>
▁on line</w>
▁H an</w>
▁prepar ed</w>
tr ation</w>
im in
▁progr ams</w>
▁Da eg
▁conv eni
ir st</w>
▁fri end</w>
▁dis t
▁op ened</w>
l ed
▁d eg
m o
▁regul ations</w>
▁c al
si zed</w>
▁S ome</w>
▁t arg
▁eff orts</w>
u b</w>
enc ed</w>
▁expr essed</w>
▁Cor por
▁d u
▁contin ued</w>
▁trav el</w>
▁pres ent</w>
▁f inis
▁bl oc
t on</w>
ir ector</w>
opp ing</w>
▁Y es</w>
▁anal ys
er al</w>
▁su gg
▁vehic le</w>
▁equ ipment</w>
ucl ear
evel op</w>
▁tom orrow</w>
▁as k</w>
▁appl ic
▁Oc tober</w>
▁underst and</w>
▁sim il
▁su ffer
▁opin ion</w>
▁201 6</w>
▁sprea d</w>
ell ing</w>
▁v ice</w>
▁g etting</w>
▁C omp
▁C om
▁2 8</w>
▁Y ang</w>
▁cr is
▁Tr ade</w>
▁govern ments</w>
i er</w>
▁d evelop</w>
w oo</w>
ener al</w>
▁V iet
▁sh ows</w>
on al
▁rel ation
▁pass ed</w>
▁Intern et</w>
▁2 6</w>
▁s old</w>
▁sec retary</w>
▁R o
amp le</w>
s ing</w>
▁g at
▁purch ase</w>
▁l ect
▁star ting</w>
▁h it</w>
▁cl ass
h ee</w>
r i</w>
▁par ties</w>
▁person nel</w>
▁G o
▁meth od</w>
▁r ise</w>
der ed</w>
▁cont ent</w>
▁exc ell
▁design ated</w>
▁rec ru
▁wr itten</w>
us e</w>
olog ical</w>
▁need s</w>
ic k</w>
▁A ug
erv ation</w>
▁sp orts</w>
▁happ y</w>
▁recor d</w>
▁beg in
▁l ives</w>
ar k</w>
ec tions</w>
▁d on
ld n</w>
inc ip
el ing</w>
▁conf lic
▁min imum</w>
▁g ave</w>
▁cont ents</w>
▁ind epend
h oon</w>
▁P en
oun tain</w>
ec ause</w>
at h
▁un iversity</w>
▁fem ale</w>
eb r
▁consid ered</w>
it ors</w>
▁s orry</w>
▁manag er</w>
os al</w>
es tion</w>
▁Ch r
▁g l
▁trans portation</w>
▁c amp
▁m om
j ong</w>
▁J in</w>
▁t old</w>
▁m en</w>
▁ac qu
▁den uclear
▁El ectronics</w>
▁fe w</w>
▁n uclear</w>
▁l ost</w>
ul a</w>
▁subm it</w>
▁Pr ime</w>
▁Gang nam</w>
▁a head</w>
▁cris is</w>
e on
▁s n
▁L and</w>
▁c am
▁author ities</w>
▁J ustice</w>
▁phot o</w>
▁chang es</w>
▁N ov
▁tem per
▁l ower</w>
▁Jan uary</w>
▁s ett
ul ly</w>
e ans</w>
▁charg es</w>
▁S pec
s i</w>
e ep
▁M us
▁sing le</w>
▁simil ar</w>
▁includ ed</w>
▁d rea
t o</w>
▁Daeg u</w>
en ue</w>
▁improv ement</w>
▁ad m
▁v illage</w>
▁e c
▁J eong</w>
▁d aily</w>
▁n etw
▁cl ear</w>
▁P h
▁fur ther</w>
▁buil t</w>
▁us ers</w>
▁hear d</w>
c l
▁mob ile</w>
▁K yung</w>
▁sex ual</w>
▁T o</w>
▁bel ieve</w>
▁sever al</w>
▁est ate</w>
▁J ang</w>
▁M ed
▁Aug ust</w>
▁ur g
▁al one</w>
y le</w>
▁e duc
▁re duce</w>
▁nat ural</w>
▁Corpor ation</w>
▁St ate</w>
▁S tr
▁s ent
▁appoin ted</w>
▁rep l
▁ad j
▁Res earch</w>
▁sc ene</w>
▁l anguage</w>
▁In f
▁Y oo</w>
en ting</w>
c ome</w>
ud e</w>
el t</w>
▁contin u
▁aud it</w>
▁m other</w>
v y</w>
▁a p
t le</w>
▁sched ule</w>
▁vehic les</w>
▁g overnor</w>
▁tr ip</w>
▁tr affic</w>
og rap
▁G u
end ly</w>
▁l egal</w>
▁S oc
▁in ter</w>
▁Dec ember</w>
d ings</w>
in a</w>
▁c el
▁h ar
▁l ist</w>
▁b ri
▁inf lu
si ons</w>
▁h on
▁r ice</w>
p o</w>
g ar
▁pers onal</w>
▁H ealth</w>
et ed</w>
▁impl em
▁p as
▁A ir
▁pr ess
▁t e
▁f all</w>
▁On e</w>
▁201 7</w>
▁mod el</w>
▁inter ested</w>
ag n
▁Sh e</w>
▁st aff</w>
▁V ice</w>
▁o il</w>
▁gat her
▁fam ous</w>
▁s ong</w>
w an</w>
oun ds</w>
▁ter ms</w>
▁pr incip
▁counc il</w>
▁Su pp
▁6 0</w>
▁M r</w>
e an
▁entr us
▁Nov ember</w>
▁eas ily</w>
▁st ation</w>
▁S ang</w>
▁oper ated</w>
▁en ter</w>
▁sev en</w>
▁par king</w>
▁Se o</w>
▁reg ional</w>
es ting</w>
▁F irst</w>
▁ins ide</w>
▁f oo
▁questi ons</w>
▁bel iev
ef ul</w>
ea m</w>
▁pl aces</w>
b all</w>
an ch</w>
ud d
▁l ack</w>
▁an im
▁k ind</w>
k ers</w>
y ong</w>
h as
n am
▁candid ate</w>
▁ag encies</w>
por ts</w>
▁S ing
▁play ed</w>
▁ind ic
g un</w>
▁ac tion</w>
▁C ulture</w>
▁reg arding</w>
▁b ack
▁rece iving</w>
▁immedi ately</w>
▁av ail
▁sched ul
▁succ ess
▁includ e</w>
▁summ er</w>
▁pr ef
▁charac ter
re h
e ering</w>
▁cl o
▁opportun ity</w>
pec ially</w>
▁r ound</w>
▁y outh</w>
op s</w>
▁cor r
▁R ec
▁car s</w>
▁denuclear ization</w>
▁comm issi
▁D evelopment</w>
th y</w>
on d
▁iss ued</w>
▁2 9</w>
l us
▁M in</w>
der gar
▁comm erc
▁g ames</w>
▁B ecause</w>
▁S ong</w>
ement ation</w>
▁wee k
ar ant
▁negoti ations</w>
▁excell ent</w>
▁div ision</w>
▁approv al</w>
▁car ried</w>
eb ru
for t
ebru ary</w>
▁commun ication</w>
gr ound</w>
▁wom an</w>
▁disc l
as ting</w>
▁relation ship</w>
▁cap ital</w>
▁apar tment</w>
u tif
▁t akes</w>
▁Ch eong
▁high est</w>
▁s anc
▁i s
▁restaur ant</w>
▁3 1</w>
▁h os
▁h er
iti ve</w>
▁par ts</w>
ectiv ely</w>
▁detail s</w>
▁pati ents</w>
▁instit ution</w>
▁proper ty</w>
▁individ ual</w>
▁perform ances</w>
▁L abor</w>
▁sp ea
▁prescrib ed</w>
▁T ae</w>
e ople</w>
▁qu ick
▁emp has
▁g oods</w>
is tics</w>
or din
x ed</w>
▁avail able</w>
▁b ig
▁particip ation</w>
▁l ight</w>
ro ad</w>
▁c at
▁dr iving</w>
▁deliber ation</w>
▁Am ong</w>
▁D ef
ins ula</w>
▁tal ks</w>
▁Sec urity</w>
rel ated</w>
▁H all</w>
v is
▁Y eong
▁professi onal</w>
t ro
▁F ebruary</w>
▁d one</w>
▁$ $</w>
▁rel ations</w>
▁g ir
▁dram a</w>
▁b ill</w>
▁ach iev
▁Hw ang</w>
▁hea t</w>
our th</w>
▁aut om
li ke</w>
▁pic ture</w>
▁w in</w>
▁orig inal</w>
▁dis aster</w>
loy ment</w>
▁ur ban</w>
▁prof essor</w>
▁concer ning</w>
▁subm itted</w>
▁s ea
▁consid ering</w>
▁R e
▁W elfare</w>
▁lear ning</w>
▁impl ement</w>
▁du ties</w>
▁tea ms</w>
▁w anted</w>
▁stand ard</w>
▁f ee</w>
▁stand ards</w>
n er
is on</w>
▁Ch ung</w>
▁consum ers</w>
u k
▁un ion</w>
▁f und</w>
ic tion</w>
▁Y ong
▁tr ying</w>
▁cont act</w>
▁determ ined</w>
▁cel ebr
▁In v
▁transf er</w>
▁B o
▁quick ly</w>
▁conc entr
▁ab s
j eon</w>
ig ence</w>
▁p oor</w>
▁comp ens
▁L ea
▁ex ecutive</w>
▁C r
▁analys is</w>
▁D irector</w>
▁u ti
▁m ut
▁coll ege</w>
▁F oundation</w>
▁un f
▁proc ed
▁C oun
▁Is land</w>
▁c entral</w>
▁H igh</w>
▁201 5</w>
m osp
▁hel p
▁b ad</w>
▁19 9
▁r ap
▁ha nd</w>
▁com ing</w>
▁bur den</w>
ow led
▁s ession</w>
▁reduc ed</w>
▁d oll
▁S m
utif ul</w>
▁h ot</w>
▁do ing</w>
▁cer tain</w>
l y
▁pres idential</w>
is ions</w>
h n</w>
c are</w>
▁L ocal</w>
▁re form</w>
y st
▁for ward</w>
▁f ather</w>
▁hous ehol
▁dis app
▁requ ir
▁N am
▁cred it</w>
▁cent ers</w>
▁at mosp
▁dis pl
▁c old</w>
▁ad ver
▁p i
▁2 00</w>
▁stor es</w>
▁ar tis
ed eration</w>
▁act ual</w>
der ly</w>
p ite</w>
▁b ank</w>
ant ly</w>
▁Russi a</w>
um e</w>
▁Se ong
▁exp ect
▁ob s
▁d ow
▁m etropolitan</w>
rop ri
es n</w>
▁sh owing</w>
is ted</w>
▁min d</w>
▁w eb
▁typ e</w>
▁cr ime</w>
▁p un
▁househol ds</w>
▁d ou
as tic</w>
▁draw ing</w>
▁corpor ate</w>
▁M on
▁n ation</w>
l ement</w>
e fore</w>
▁press ure</w>
o es</w>
▁l et
un ic
▁susp ic
ul ated</w>
▁f ell</w>
▁d ro
▁w e
t edly</w>
ai t</w>
▁G od</w>
▁dis ease</w>
▁concer t</w>
▁L ot
▁distrib ution</w>
▁lea ders</w>
ivers ary</w>
▁w a
▁E mp
▁impl ementation</w>
▁S af
▁mark ets</w>
tain ment</w>
▁T V</w>
▁tr ue</w>
▁r en
us tr
in ten
▁indus tries</w>
▁Supp ort</w>
▁ch urch</w>
2 0
▁ac adem
▁Spec ial</w>
▁organ ized</w>
▁f elt</w>
▁L et</w>
▁produc ed</w>
▁ch airperson</w>
▁en d
▁C l
▁s aw</w>
▁I r
t es</w>
▁hol ding</w>
▁tr end</w>
▁atten d</w>
▁N am</w>
▁ser ies</w>
▁bas e</w>
▁concer ns</w>
▁Y ong</w>
l evel</w>
▁sp r
augh t</w>
▁imp act</w>
▁B i
▁h all</w>
▁Pro f
▁mov ement</w>
▁br and</w>
▁foll owed</w>
▁ey es</w>
▁es tim
▁r an
▁agric ultural</w>
▁ris k</w>
▁hear t</w>
▁or dered</w>
▁sanc tions</w>
▁do esn</w>
▁boo ks</w>
▁T echnology</w>
▁was te</w>
▁stat ement</w>
▁D ae
i ans</w>
▁struc ture</w>
▁mat ter</w>
▁f ig
▁enc our
▁ass a
▁requ ired</w>
▁c ur
▁m ight</w>
art ph
a g</w>
▁fail ed</w>
u ps</w>
▁m o
▁gu id
▁s ense</w>
res sion</w>
▁Trans port</w>
onal d</w>
▁c aught</w>
▁bea utiful</w>
if t</w>
▁deliver y</w>
▁Def ense</w>
▁th ing</w>
▁sit es</w>
▁p eace</w>
▁Indus trial</w>
▁Ch ang</w>
▁un iver
▁A gr
▁int egr
▁res ources</w>
▁man age</w>
h s</w>
er ial</w>
▁st op</w>
▁nor m
▁victi ms</w>
▁pub lis
▁laun ched</w>
ester day</w>
▁w ife</w>
▁dis m
▁ra ise</w>
▁Kor eans</w>
▁wor th</w>
▁F ac
or ation</w>
▁dow n
▁enterpr ises</w>
▁educ ational</w>
▁Sec retary</w>
▁schedul ed</w>
▁pop ulation</w>
▁M ot
▁m emor
▁inst alled</w>
▁comp reh
▁difficul ties</w>
▁atmosp here</w>
▁real ity</w>
▁Ch eong</w>
I f</w>
▁lo an</w>
i j
ut ors</w>
▁beh ind</w>
▁en s
▁ex erc
▁dir ection</w>
▁benef its</w>
▁O h</w>
ong s</w>
▁W a</w>
▁C ultural</w>
▁mess age</w>
▁f ourth</w>
▁C up</w>
p ro
▁compl ain
▁P eople</w>
▁Je oll
▁Agr ic
om es</w>
▁entr ance</w>
re es</w>
mo tion</w>
▁Lot te</w>
▁res ear
▁sub par
▁Saf ety</w>
▁S a
ati c
▁gu arant
lud ed</w>
▁ph ys
▁ad dr
h y</w>
si ties</w>
▁interv iew</w>
augh ter</w>
▁exam ination</w>
▁t en
▁particip ating</w>
▁b al
▁wh ole</w>
▁qu estion</w>
▁ann iversary</w>
ati vely</w>
▁tr ied</w>
▁temper ature</w>
ectr ic</w>
▁bel ow</w>
▁lear n</w>
▁P er
▁A nd</w>
▁inc ident</w>
▁hea dquarters</w>
▁inter pr
▁G erm
ab ly</w>
▁inst ead</w>
1 0</w>
▁ra ising</w>
▁de emed</w>
▁el derly</w>
th ly</w>
▁adver tis
▁minis ter</w>
b o
▁Asi a</w>
l der</w>
▁fil ed</w>
it able</w>
▁comm on</w>
▁r e</w>
▁com es</w>
▁pop ular
▁f ar
igh b
▁doc ument</w>
▁cl ub</w>
▁r ates</w>
▁Viet nam</w>
over ed</w>
▁d epar
▁foc us</w>
ar ies</w>
▁bo ard</w>
▁it self</w>
▁F und</w>
st anding</w>
▁particip ants</w>
▁accoun ting</w>
▁sh opping</w>
▁wat ch</w>
▁hous es</w>
ic y</w>
us ing</w>
tiv es</w>
▁Sc ience</w>
▁h ands</w>
▁fre qu
▁t echn
▁prot ection</w>
ong er</w>
l ocal</w>
▁pe ti
▁ann ual</w>
▁commissi oned</w>
▁kin dergar
▁intro duce</w>
▁y esterday</w>
▁T a
▁pos itive</w>
▁br ing</w>
h es</w>
ul ate</w>
▁di ed</w>
▁Pro motion</w>
t i</w>
▁r ati
d own</w>
if ied</w>
▁high ly</w>
▁g row</w>
▁D onald</w>
▁wea ther</w>
▁univer sities</w>
▁im age</w>
our ce</w>
▁reduc tion</w>
▁ear lier</w>
▁requ ested</w>
▁f alling</w>
▁enter ed</w>
▁En viron
it h
▁d uty</w>
▁S un</w>
▁Man y</w>
▁int ell
▁m as
▁hear ing</w>
▁D ay</w>
▁appear ed</w>
▁B ar
▁dir ect</w>
▁Germ any</w>
d ro
▁strength en</w>
ti on
▁enti re</w>
▁D ep
▁pl at
▁exch ang
▁A hn</w>
▁sk in</w>
▁C entral</w>
▁pl ant</w>
▁acc idents</w>
od e</w>
▁p ost</w>
inten d
▁ar g
st ances</w>
▁begin ning</w>
▁Indus try</w>
▁rel ease</w>
▁J in
▁trans ac
▁sk ills</w>
▁s ure</w>
▁l iv
▁circ um
▁w ays</w>
▁adv ant
▁h y
r ant</w>
▁gener ation</w>
all eng
▁str essed</w>
▁Bus iness</w>
▁occ urred</w>
ac ed</w>
▁p ot
▁sm artph
▁7 0</w>
▁ev idence</w>
m e</w>
▁netw ork</w>
h ood</w>
▁us er</w>
▁res t</w>
m b
▁reas ons</w>
▁sur g
▁sy mp
▁any thing</w>
sel ves</w>
▁d eal</w>
▁un c
▁invol ved</w>
▁v iew</w>
l ation</w>
ad s</w>
, ”</w>
▁Ch il
▁s on</w>
in ing</w>
▁m ul
▁buil d</w>
ent ary</w>
▁ac ross</w>
▁e ight</w>
▁eval u
▁em b
▁play er</w>
▁c ut</w>
▁W om
▁th em
▁col or</w>
▁charac ter</w>
m er</w>
▁S un
▁Inf rastructure</w>
ar ded</w>
an sion</w>
▁li br
▁f a
et ary</w>
▁lo ans</w>
▁uni que</w>
▁p o
▁m er
▁win ter</w>
i el
▁w id
m y</w>
▁ow ner</w>
▁d ri
▁deg rees</w>
ear ing</w>
oc ks</w>
▁viol ence</w>
▁H ea
▁wor ked</w>
▁vis iting</w>
▁S on</w>
▁p or
▁crea ting</w>
e one</w>
▁tour ism</w>
sc ale</w>
▁var iety</w>
▁Bl ue</w>
m yeon</w>
▁wh ose</w>
▁t el
▁chil d
▁wr iting</w>
▁Fin ance</w>
▁vis itors</w>
▁201 9</w>
▁inten ds</w>
ar ation</w>
▁K ong</w>
▁agre ed</w>
▁C o</w>
tr ess</w>
▁Econom ic</w>
▁us ually</w>
olog y</w>
k n
▁ch ance</w>
▁s atis
▁ar res
▁a im
is d
▁h otel</w>
s eok</w>
▁mom ent</w>
▁m enti
▁s ea</w>
▁coun sel
▁intern al</w>
▁ex ample</w>
▁gr ound</w>
▁st ay</w>
▁i r
▁laun ch</w>
▁b an
ut or</w>
g est</w>
hw an</w>
y ong
af t</w>
▁t echnolog
▁sec ure</w>
▁hea vy</w>
intend ent</w>
▁pr em
▁hol iday</w>
▁en h
▁P yeong
▁or din
▁re ti
▁wr ong</w>
w ide</w>
▁C o
▁th eme</w>
▁ne ighb
▁l ow
▁For eign</w>
▁sal e</w>
▁Chung ch
▁T w
ur ities</w>
▁tea cher</w>
▁Y e
▁pr ec
▁bas is</w>
▁t it
▁specif ic</w>
▁W on</w>
▁proper ly</w>
▁pos ted</w>
▁rea d</w>
▁r ou
▁quar ter</w>
▁environ mental</w>
▁exp ansion</w>
▁tour ists</w>
▁foll ow</w>
▁J os
▁tur ned</w>
▁prop osed</w>
▁disab led</w>
u il
▁deliver ed</w>
t w
▁br anch</w>
▁tas te</w>
er ce</w>
▁Com pl
▁popular ity</w>
▁3 00</w>
▁author ity</w>
y er</w>
▁v ir
u tional</w>
▁investig ating</w>
ic ally</w>
▁p oll
▁implem ented</w>
▁aut onom
▁fav or
▁D uring</w>
▁sol ve</w>
▁n ation
▁for c
▁rea ding</w>
▁eff ects</w>
▁U l
▁differ ence</w>
▁Rep resent
▁Con f
▁tea chers</w>
▁ab ility</w>
▁def ense</w>
▁ac t</w>
ea ter</w>
▁candid ates</w>
▁Americ an</w>
it ation</w>
▁prev ention</w>
▁cou ldn</w>
er ve</w>
▁lim ited</w>
▁Su won</w>
▁Je on
▁r ain</w>
▁ser ious</w>
▁co ach</w>
▁Pro sec
▁Ch ief</w>
ell s</w>
▁s ou
▁repor ts</w>
▁corpor ation</w>
▁Y ear</w>
▁coll ection</w>
or ies</w>
▁Sh in
ill ing</w>
et ings</w>
▁h our</w>
▁G eneral</w>
▁ste p</w>
▁predic ted</w>
▁uti liz
▁prof it</w>
▁5 00</w>
▁201 4</w>
▁rem ar
▁d aughter</w>
ov ed</w>
▁Pen insula</w>
o ts</w>
▁in iti
fri endly</w>
cri p
▁A t
urr ently</w>
▁Y ang
▁dep os
er t</w>
yst em</w>
owled ge</w>
n ey</w>
j i</w>
▁for ce</w>
▁Dec ree</w>
t ained</w>
is hed</w>
▁tow ard</w>
on duc
1 9</w>
▁critic ized</w>
▁Prof essor</w>
▁cond ition</w>
▁conveni ence</w>
▁inst all
▁per form</w>
▁b anks</w>
ic onduc
▁ens ure</w>
iz es</w>
▁arres ted</w>
▁D es
▁compens ation</w>
▁G e
eh old</w>
▁o ffer
m ost</w>
l s</w>
▁custom er</w>
▁sp eed</w>
ar r
▁g iving</w>
y n
▁progr ess</w>
▁g as</w>
▁compreh ensive</w>
▁el ementary</w>
▁cal c
th es</w>
d i
▁web site</w>
▁rea ched</w>
▁tem por
▁S ports</w>
▁buil dings</w>
eed ed</w>
▁d ig
▁A ll</w>
ump tion</w>
qu are</w>
▁m ach
▁n ature</w>
eal s</w>
▁av o
e ign
▁recogn ized</w>
▁mov ed</w>
▁complet e</w>
▁Y ork</w>
▁crea tion</w>
▁app ro
▁addr ess</w>
▁som eone</w>
▁prop osal</w>
▁exp ort</w>
z e</w>
▁s ays</w>
u ter</w>
u g</w>
▁gr een</w>
▁conflic t</w>
▁respon sibility</w>
▁camp a
ropri ate</w>
▁l and
▁over all</w>
▁saf e</w>
ff ee</w>
▁p ass</w>
▁St ud
igh ting</w>
▁Wh y</w>
eas es</w>
▁ex t
▁str eet</w>
▁prov iding</w>
▁discus s</w>
▁th rea
▁s ell</w>
▁aud ience</w>
▁b ot
▁retur ned</w>
▁announc ement</w>
t ur
▁comp et
▁T our
▁L im</w>
li am
▁ob j
▁gather ed</w>
▁sign ed</w>
▁K won</w>
▁los s</w>
▁sec tion</w>
▁bec oming</w>
▁menti oned</w>
▁act ually</w>
g ed</w>
re w</w>
▁class es</w>
▁r ed</w>
hw a</w>
e i</w>
ab les</w>
▁succ ess</w>
h a</w>
▁them selves</w>
▁ow ners</w>
▁Ch airperson</w>
o ds</w>
it ment</w>
▁T ai
il ed</w>
b ased</w>
% ,</w>
▁sh ort
▁s earch</w>
▁prepar ing</w>
▁respon sible</w>
▁res tric
▁manufac turing</w>
▁m id</w>
▁F ood</w>
ur s</w>
▁recomm ended</w>
▁E ast</w>
ar ily</w>
▁signific ant</w>
▁K ing</w>
o ke</w>
or m
▁es pecially</w>
▁all ow</w>
▁dep uty</w>
lud ing</w>
▁sim ple</w>
▁rev iew
▁par t
▁d ance</w>
b um</w>
rup tion</w>
▁Wom en</w>
▁tr ain</w>
▁r ad
▁En forcement</w>
▁clo thes</w>
li es</w>
▁innov ation</w>
▁phys ical</w>
▁exp ect</w>
▁el ig
▁p ow
p op</w>
▁arr est</w>
or d</w>
ol ution</w>
en ly</w>
▁aff ili
▁air port</w>
▁F ederation</w>
en si
r ec
▁recor ds</w>
▁car ry</w>
▁ch alleng
▁e ss
▁consid eration</w>
am ed</w>
▁vo ice</w>
▁un it</w>
▁rel atively</w>
▁prac tice</w>
▁for est</w>
▁ab road</w>
▁j ur
▁s ound</w>
im self</w>
▁Dae jeon</w>
▁p aper</w>
▁hea ds</w>
▁par k</w>
▁inves tors</w>
ug e</w>
i k
▁Compl ex</w>
▁Su per
▁pub lic
▁h imself</w>
▁regis tered</w>
▁l ic
▁f os
▁f air</w>
▁artis ts</w>
▁A ir</w>
p ly</w>
▁exc ept</w>
▁A pp
▁H ee</w>
▁answ er</w>
▁a ward</w>
arb y</w>
▁big gest</w>
▁P a
▁ne arby</w>
▁Un ion</w>
id ge</w>
▁h arm
on ing</w>
b and</w>
▁expect ations</w>
▁qu al
gan ization</w>
▁susp ected</w>
▁critic ism</w>
▁consult ation</w>
▁occ up
▁dr iver</w>
▁mat erial</w>
▁ev er</w>
▁bl ood</w>
w ang</w>
B S</w>
▁regis tration</w>
ul es</w>
▁sh own</w>
▁Th ese</w>
▁id ea</w>
ut ting</w>
▁tur n</w>
▁success ful</w>
▁j ud
▁grad u
tern al</w>
l et
ae k
im inal</w>
r eg
o f
▁imp os
j eong</w>
▁f ile</w>
▁f oundation</w>
▁car eer</w>
▁p ain</w>
▁hous ehold</w>
ar ing</w>
▁let ter</w>
▁l un
▁f ast</w>
▁every one</w>
▁cl osed</w>
▁pr ize</w>
▁l og
ter y</w>
os ure</w>
▁c o</w>
ea u</w>
ipp ed</w>
▁loc ation</w>
▁con ver
▁s av
▁all owed</w>
▁In t
ten ance</w>
▁drea m</w>
ter m
▁sem iconduc
▁Dep uty</w>
▁pass eng
▁f oun
on es
▁resp ectively</w>
▁p m</w>
▁C an
si k</w>
▁appoin tment</w>
▁prot ect</w>
▁el ectric</w>
▁A ustr
am ily</w>
▁separ ate</w>
▁s urr
ly mp
▁run ning</w>
▁8 0</w>
▁strateg y</w>
▁jur isd
▁el ections</w>
8 0</w>
▁targ et</w>
▁s elling</w>
▁B y</w>
▁bec omes</w>
▁Jos eon</w>
ad ium</w>
an ti
▁E un</w>
y s</w>
▁n ur
▁wh ite</w>
oh n</w>
tiv eness</w>
ester n</w>
▁w ait</w>
▁reti r
▁Ar e</w>
Th ere</w>
▁tax i</w>
▁s ign</w>
▁rati o</w>
▁rev ital
▁no thing</w>
▁O lymp
▁F rom</w>
▁plan ned</w>
▁ex ecu
ou d</w>
el ed</w>
▁commerc ial</w>
▁analy zed</w>
i on
▁shar ing</w>
▁farm ers</w>
▁inten tion</w>
ten ing</w>
▁ad ding</w>
▁Sing ap
▁includ es</w>
▁R iver</w>
▁er a</w>
▁sc ience</w>
▁join ed</w>
▁func tion</w>
y e</w>
in ated</w>
▁z one</w>
▁character istics</w>
▁broadc ast</w>
▁mov ing</w>
▁ha ir</w>
▁f un</w>
ar ly</w>
▁new ly</w>
▁exp anding</w>
▁entrus ted</w>
▁b it</w>
k ay</w>
▁rece ip
per ation</w>
e up</w>
ag ing</w>
▁wa iting</w>
▁suppor ting</w>
▁prov ides</w>
▁Gyeongs ang</w>
▁hist or
▁acc ep
▁ag end
▁repor tedly</w>
▁ful ly</w>
▁ear n
c er</w>
▁e d
▁lawmak ers</w>
▁go es</w>
▁m y
▁Air port</w>
v eni
h an</w>
▁rea ch</w>
▁h uge</w>
▁L G</w>
▁201 3</w>
s eong</w>
eb ook</w>
ter n</w>
▁wat ching</w>
fort able</w>
▁hos ted</w>
▁introduc tion</w>
▁design ed</w>
err y</w>
I n</w>
ter ing</w>
▁prescrib e</w>
▁dism is
▁N ew
ig r
▁ins truc
▁S i</w>
▁nor thern</w>
▁an ti</w>
opp ed</w>
▁sur pr
▁plat form</w>
▁resol ution</w>
▁me etings</w>
y un</w>
▁separ ately</w>
▁enter tainment</w>
▁r ising</w>
▁circum stances</w>
▁b ought</w>
iv al</w>
▁M ov
is ti
C O</w>
▁t our</w>
▁o lder</w>
▁determ ine</w>
y ed</w>
▁co ffee</w>
▁w on
▁s ongs</w>
▁pl aying</w>
▁jurisd iction</w>
▁cl ean
▁Europ e</w>
▁recor ded</w>
▁publis hed</w>
a o</w>
▁B ur
▁reg ions</w>
▁heal thy</w>
▁C urrently</w>
ro om</w>
▁sm oo
▁pres ented</w>
▁notif y</w>
▁exp orts</w>
▁ac tor</w>
▁main tain</w>
▁with dr
it ting</w>
r ough</w>
ac ks</w>
B C</w>
▁vac ation</w>
or ted</w>
▁per f
▁sel ection</w>
▁att emp
tic les</w>
▁re b
▁promo ting</w>
▁lim it</w>
▁Europ ean</w>
▁r ental</w>
i ary</w>
▁coll ap
at s</w>
▁fiel ds</w>
▁cl ear
▁improv ed</w>
▁certif icate</w>
▁H u
▁res ident</w>
f ully</w>
▁k illed</w>
▁dem ons
▁win ning</w>
a u
r o</w>
eti c</w>
yc le</w>
j ung</w>
▁brea k</w>
▁exp anded</w>
c omm
eb all</w>
▁sp ir
▁bro ke</w>
t ae</w>
es day</w>
▁K i</w>
▁loo ks</w>
▁rea liz
pp ed</w>
▁mean ing
r et</w>
▁influ ence</w>
▁suppor ted</w>
▁M at
ult i</w>
▁cam er
▁par liam
ed s</w>
▁clai med</w>
▁h us
in ner</w>
▁war rant</w>
▁every thing</w>
t ured</w>
▁med ic
▁l in
▁counsel ing</w>
▁bl ack</w>
k ch
▁form ed</w>
ver s</w>
e qu
▁ab ove</w>
ess ment</w>
▁th inking</w>
▁Ind ones
▁view ers</w>
▁shar ehol
▁meas ure</w>
as si
uc k</w>
p er</w>
▁investig ate</w>
▁Soc ial</w>
▁H osp
▁t ex
▁h ear</w>
▁B yung</w>
ener ation</w>
O S
▁rev ision</w>
▁improv ing</w>
▁conn ection</w>
▁technolog ies</w>
▁t ou
▁Singap ore</w>
▁serv ed</w>
vis ory</w>
▁typ es</w>
▁es c
▁competi tiveness</w>
▁ass ets</w>
▁for g
▁al most</w>
or i</w>
over y</w>
m en</w>
end ation</w>
▁W ave</w>
▁Ar t</w>
▁P yong
▁inc on
▁elig ible</w>
▁tr ust</w>
▁neg ative</w>
▁cl ean</w>
▁Tour ism</w>
▁doll ars</w>
▁appear ance</w>
▁Mar ket</w>
▁Gyeongs ang
res sive</w>
ing ly</w>
▁bri ef
▁agend a</w>
▁bea uty</w>
▁Pro ject</w>
is hment</w>
▁w ave</w>
▁sch ol
▁mean ing</w>
▁adv anced</w>
▁acc ess</w>
ic h
▁st ea
▁contin ues</w>
▁foc used</w>
▁l onger</w>
▁del ayed</w>
▁prov isions</w>
▁dep ending</w>
et er
el imin
▁H um
▁coll ected</w>
▁Comm un
▁Th ank</w>
▁l e
▁el ected</w>
▁f res
▁S ong
eep ing</w>
▁suffer ing</w>
▁ch ann
▁Al so</w>
▁sea ts</w>
▁w ish</w>
▁mark eting</w>
▁jo in</w>
as h</w>
▁sing er</w>
▁al though</w>
▁Q u
▁st ocks</w>
▁canc er</w>
▁al tern
id o</w>
▁Hosp ital</w>
▁ser ve</w>
▁main tenance</w>
▁V illage</w>
▁Ch urch</w>
tic ip
ent ation</w>
▁sp e
▁detail ed</w>
▁b all</w>
▁Lea gue</w>
▁main ly</w>
▁ar ticle</w>
▁E ver
t ball</w>
▁lawmak er</w>
▁it em</w>
▁incon veni
▁broadc asting</w>
g en</w>
f y</w>
▁S K</w>
4 0</w>
▁lect ure</w>
▁di pl
▁bro ther</w>
▁b ul
ectron ic</w>
▁exerc ise</w>
▁complet ely</w>
▁c af
▁g ap</w>
▁dipl om
▁Environ ment</w>
a em
▁ex emp
▁eff ective</w>
▁all ows</w>
▁forc ed</w>
▁Austr al
ul ting</w>
on ds</w>
kch ain</w>
▁un its</w>
▁str ugg
▁ad op
our n
▁pen sion</w>
▁chang ing</w>
ar i
agrap hs</w>
▁remar ks</w>
▁employ ee</w>
▁soc cer</w>
▁proced ures</w>
▁fac tory</w>
1 8</w>
▁Ch ang
▁ex ternal</w>
l in
▁victi m</w>
▁disc ip
▁special ized</w>
▁adj us
▁inf rastructure</w>
ea ted</w>
▁Coun ty</w>
▁gen der</w>
▁bo x</w>
▁201 2</w>
▁super intendent</w>
▁sh ou
▁N or
▁sh ip</w>
▁pos t
o ch
' ,</w>
ough out</w>
▁discus sion</w>
▁m en
▁kn owledge</w>
▁h ur
▁Se jong</w>
▁C oo
▁wee ks</w>
▁ma x
▁cons umption</w>
▁p it
▁leg is
▁l at
▁campa ign</w>
▁bir th</w>
▁D iv
id ly</w>
▁r ange</w>
▁disab ilities</w>
▁g ift</w>
▁meth ods</w>
▁m eal</w>
▁Represent ative</w>
tit ude</w>
▁stud ying</w>
▁acc omp
il es</w>
▁sh oo
▁phot os</w>
▁des pite</w>
▁Reg arding</w>
pp er</w>
▁scre ening</w>
▁ordin ary</w>
▁for eign
▁e p
▁consum er</w>
▁M ost</w>
yp e</w>
▁Mov ement</w>
▁caus ing</w>
▁di agn
▁cons ecutive</w>
▁t able</w>
▁wor d</w>
id s</w>
▁represent atives</w>
6 0</w>
▁rep res
▁hus band</w>
▁surg ery</w>
▁s is
▁r ail
uil ding</w>
▁princip le</w>
▁R ules</w>
m ir
▁scre en</w>
▁perform ed</w>
▁b ab
eo l</w>
▁emphas ized</w>
elimin ary</w>
anc ing</w>
oin t</w>
in eering</w>
▁cons erv
▁W oo</w>
r on
it ure</w>
▁met ers</w>
▁div ided</w>
▁grea tly</w>
▁J o
atic ally</w>
▁lea ving</w>
ash ion</w>
▁law su
▁h un
▁develop ing</w>
▁independ ence</w>
e ous</w>
▁cho ice</w>
▁Can ad
▁fl ight</w>
▁w ide</w>
▁Pyong yang</w>
▁signific antly</w>
▁libr ary</w>
igh t
b y</w>
at ur
an e</w>
▁Emp loyment</w>
▁T ur
k en</w>
ent ure</w>
▁cont est</w>
▁M al
▁Chr isti
ic ket</w>
▁br ought</w>
▁20 2
▁so f
ex ic
▁H a</w>
▁res c
ut ing</w>
▁t o
t aek</w>
im b
▁promo ted</w>
▁ar tif
▁super v
▁e ating</w>
▁tax es</w>
▁sc ope</w>
▁disc ount</w>
s u</w>
um s</w>
▁dram as</w>
▁g ol
▁ar ts</w>
i ously</w>
hy e</w>
▁di ver
Ch ina</w>
▁w ants</w>
ist ance</w>
▁str ong
▁pr ison</w>
▁f al
▁no tice</w>
▁c op
▁G re
▁rap idly</w>
▁n ine</w>
it age</w>
▁war m</w>
ew ork</w>
▁prac tic
▁mov ies</w>
s eo</w>
▁win d</w>
▁B e
ac king</w>
▁P al
▁mon it
▁suffer ed</w>
▁finis hed</w>
▁F air</w>
ten s</w>
▁c li
▁S w
▁I l
ow on</w>
▁wor ried</w>
▁prof its</w>
▁fis hing</w>
▁tr u
▁st anding</w>
▁prepar ation</w>
y ers</w>
el ess</w>
▁se em</w>
▁rem aining</w>
▁enter ing</w>
▁st able</w>
u als</w>
est ock</w>
▁sc ore</w>
m es</w>
▁refl ect</w>
sh ips</w>
▁pr i
us ion</w>
res p
▁r ob
▁sel ect</w>
anc y</w>
▁sev ere</w>
▁restaur ants</w>
▁y oun
▁thr oughout</w>
▁Sm all</w>
▁wea p
▁m ist
▁clai m</w>
▁judg e</w>
▁cho ose</w>
▁Ro h</w>
▁M exic
▁p ea
▁vir t
a h</w>
▁receip t</w>
▁coun ty</w>
▁M et
▁Serv ices</w>
▁gr ade</w>
ub e</w>
▁dr ink</w>
▁do or</w>
▁all ow
os es</w>
▁p ack
▁M ountain</w>
▁Hy e</w>
▁J eon</w>
▁p aying</w>
▁foc using</w>
▁spr ing</w>
▁perm ission</w>
▁Ul san</w>
ok es
emp le</w>
▁activ ity</w>
▁G im
▁Div ision</w>
o f</w>
▁h op
▁accoun ts</w>
oo d
▁bus y</w>
loy ed</w>
▁b ar
▁advant age</w>
u x
▁in form
▁M a
ac ity</w>
▁gr and
j ae</w>
der ship</w>
▁install ation</w>
▁gir l</w>
▁W ar</w>
▁sl eep</w>
eed ing</w>
▁peti tion</w>
▁G ames</w>
▁A f
▁sm art</w>
en g</w>
▁mod ern</w>
▁estim ated</w>
▁apar tments</w>
▁ex am</w>
▁d ang
ir ing</w>
▁pus h</w>
▁pro por
an a</w>
▁mon thly</w>
▁L ast</w>
▁atten ding</w>
fri end</w>
▁surr oun
▁opportun ities</w>
al ization</w>
▁meaning ful</w>
▁disp at
▁pic tures</w>
▁m ulti</w>
unic ip
▁manag ed</w>
▁concer n</w>
h ae</w>
an k
▁pr eliminary</w>
c oming</w>
▁spe ech</w>
▁h or
▁v ill
▁t icket</w>
▁contrib ute</w>
▁M yung</w>
w ards</w>
▁ar ch
ep tion</w>
m i</w>
igh tly</w>
▁con vers
▁tr ou
▁shar ed</w>
▁O ur</w>
▁O f</w>
e k
▁cas h</w>
▁subsid ies</w>
▁wr it
▁arr ived</w>
▁D el
a b</w>
▁sett lement</w>
▁pr e</w>
▁del eg
▁s ource</w>
▁exc lus
▁cooper ate</w>
ad ed</w>
▁Pol icy</w>
v en
ell ow</w>
▁exchang es</w>
e ers</w>
▁s il
▁L ife</w>
▁pro duce</w>
▁fil ms</w>
ffici ent</w>
▁tw ice</w>
▁Agric ultural</w>
▁in gr
▁t op
▁H otel</w>
os ing</w>
▁recru itment</w>
▁fac tors</w>
▁wal k</w>
tit utional</w>
▁foll ows</w>
▁T able</w>
▁resp ond</w>
s y
al ized</w>
▁direct ors</w>
▁d eep</w>
▁P eace</w>
▁K ak
▁app ropriate</w>
▁Fac ebook</w>
▁rem ains</w>
▁ingr edi
▁nation wide</w>
et er</w>
ten ed</w>
▁v enue</w>
▁cr iminal</w>
7 0</w>
▁underst anding</w>
▁r ose</w>
▁in ev
▁gr e
▁S oo</w>
ow ers</w>
▁cont ains</w>
h eon</w>
▁week end</w>
▁ey e</w>
▁bot t
en e
▁autonom ous</w>
s h</w>
es ter</w>
▁wr ite</w>
▁de ep
eti mes</w>
▁M ore</w>
t est</w>
▁en ded</w>
▁d inner</w>
os is</w>
▁ac ting</w>
f l
eo f</w>
▁th or
▁consid er</w>
▁H all
▁Americ a</w>
▁repor ters</w>
▁acc ept</w>
▁academ ic</w>
m in
▁stor ies</w>
er ous</w>
▁Th er
ay er</w>
▁ther eof</w>
▁pro b
▁a th
▁w el
▁B udd
m an
▁execu tives</w>
▁effici ent</w>
▁dev ices</w>
▁dec line</w>
▁app ear</w>
▁increas es</w>
b u</w>
▁maj ority</w>
▁believ ed</w>
ro te</w>
▁Ex c
ea v
▁rev enue</w>
. -</w>
▁for ces</w>
▁ab use</w>
▁R ev
▁lim its</w>
▁c row
an m
▁bloc kchain</w>
j e</w>
e tion</w>
▁sent enced</w>
▁n ot
▁decr ease</w>
▁Rec ently</w>
▁exp ects</w>
▁dec ide</w>
▁Ch eon
▁v ote</w>
▁Mot or</w>
es tr
▁sub way</w>
▁purch as
▁impos sible</w>
▁al bum</w>
▁ach ieve</w>
d oor</w>
▁lea dership</w>
li ance</w>
f ace</w>
▁c ateg
▁bir th
s un</w>
▁w rote</w>
▁In formation</w>
▁el ectronic</w>
▁recomm end</w>
▁re in
▁f illed</w>
▁f an</w>
▁assa ult</w>
▁adv is
▁comp uter</w>
▁L ine</w>
▁dro p</w>
▁difficul ty</w>
▁back ground</w>
g le</w>
▁g old</w>
▁judg es</w>
▁am b
y r
▁sugg ested</w>
▁alleg ations</w>
es sive</w>
erv ed</w>
ing u
▁En ter
ff s</w>
▁pr in
▁m ale</w>
ig ning</w>
▁f ish</w>
▁Cons truction</w>
▁m ountain</w>
▁dis eases</w>
▁any one</w>
k i</w>
▁For mer</w>
▁st yle</w>
▁ref und</w>
▁c alls</w>
ch i</w>
▁be y
wh a</w>
▁bey ond</w>
▁tour ist</w>
ul ner
al k</w>
u tr
iti on
▁sp end</w>
▁m ak
▁S ou
▁wea k</w>
▁Mus eum</w>
▁C iv
di ers</w>
▁qu ite</w>
▁vol ume</w>
▁un able</w>
▁rel ig
▁dam aged</w>
▁pr et
▁concer ned</w>
▁Ex per
k y</w>
▁shar es</w>
▁ro oms</w>
▁pl ants</w>
▁ex ec
▁N ow</w>
t oc
om b
▁streng th</w>
▁l iter
▁M id
▁C ould</w>
▁new sp
▁happ ened</w>
▁In ter
un k</w>
▁sh ot</w>
▁we ight</w>
r a
eas ures</w>
▁Inv es
an ch
▁dig ital</w>
T S</w>
▁m ayor</w>
as ty</w>
ard less</w>
▁ass essment</w>
r im
▁w earing</w>
▁sol ution</w>
▁my self</w>
▁mis sing</w>
▁ro ads</w>
▁fe eling</w>
▁coll ect</w>
▁f ol
▁end eav
eo m</w>
▁work er</w>
e f</w>
N orth</w>
▁Rep ublic</w>
▁as king</w>
▁Hum an</w>
ri age</w>
ick en</w>
▁del ay</w>
▁m em
▁c alling</w>
▁n om
▁proc essing</w>
tiv ity</w>
it ter</w>
▁E ar
▁medic ine</w>
▁Ins urance</w>
▁n amed</w>
▁pr ior</w>
▁m il
▁bor n</w>
in s</w>
▁res ervation</w>
▁avo id</w>
e tics</w>
▁fin ally</w>
▁pun ishment</w>
▁H er
▁l is
▁Tai wan</w>
a x
e u
▁acc used</w>
▁m ean</w>
ear ed</w>
in d
▁conduc ting</w>
on able</w>
W h
▁rev ised</w>
▁coun ties</w>
r ying</w>
▁Econom y</w>
j ects</w>
▁symp t
▁cr yp
os an</w>
atis tics</w>
▁out l
i x
▁res idential</w>
▁ass ociation</w>
▁smartph one</w>
▁em ail</w>
▁Ir an</w>
▁supp l
▁tit le</w>
▁proc eed</w>
▁offic es</w>
▁tempor ary</w>
▁requ ire</w>
▁Go yang</w>
is tic</w>
▁v ulner
▁intell igence</w>
▁cos m
▁H is</w>
▁fig ure</w>
▁decr eased</w>
▁occ ur</w>
▁app rec
▁Ab out</w>
crip tion</w>
▁lawsu it</w>
ipp ing</w>
en sion</w>
▁tr ust
▁fr u
▁expl ain</w>
▁dou ble</w>
▁D on</w>
sy ch
b o</w>
▁sol diers</w>
▁exp ensive</w>
▁attrac ting</w>
▁aff ected</w>
A s</w>
▁farm ing</w>
▁C oll
udd enly</w>
▁sh op</w>
▁dr ug</w>
▁F il
▁Y outh</w>
oc ation</w>
▁sp ent</w>
▁n ice</w>
▁foreign ers</w>
ic ious</w>
aem un</w>
▁N av
▁Y ou
g ation</w>
▁discus sions</w>
▁semiconduc tor</w>
▁c over</w>
▁J oon</w>
m ation</w>
▁retir ement</w>
▁discus sed</w>
▁dem ocr
▁cap acity</w>
▁N a</w>
▁tr ees</w>
▁F ire</w>
▁f ashion</w>
▁la ug
▁brea k
ur s
▁mul ti
▁ch ea
ag ers</w>
▁w ear</w>
▁fi xed</w>
▁pi ec
▁mer ch
at t
▁vic tory</w>
toc urr
▁volunt eer</w>
▁endeav or</w>
i ate</w>
e un
▁st opped</w>
e or
▁k ept</w>
▁offic ers</w>
▁run s</w>
▁d ay
▁c ro
N S</w>
▁tas k</w>
▁cl assi
ep h
▁th eater</w>
▁m os
▁m ental</w>
or n</w>
▁norm al</w>
▁d ead</w>
▁adm ission</w>
▁guarant ee</w>
▁off er</w>
▁inter ests</w>
ti st</w>
f ication</w>
▁or ders</w>
▁Br az
▁imp r
▁ren ew
▁atten d
▁independ ent</w>
▁s eat</w>
▁syst ems</w>
▁liv estock</w>
▁bas eball</w>
▁viol ation</w>
n o</w>
inc ome</w>
▁fea tures</w>
▁Sec urities</w>
▁complain ts</w>
th east</w>
▁k il
▁expl an
▁dr inking</w>
▁Ther efore</w>
▁beh av
▁sy mb
▁dev ice</w>
▁func tions</w>
▁Or ganization</w>
▁dea d
▁S M
er man</w>
c i
▁lo ts</w>
▁cr imes</w>
ist en</w>
if y</w>
▁S ea</w>
▁D ue</w>
▁pot ential</w>
ch ang</w>
▁spea k</w>
unicip al</w>
▁confir m</w>
▁brief ing</w>
▁kin ds</w>
s a</w>
▁pati ent</w>
▁ec o</w>
▁Prosec utors</w>
▁9 0</w>
% )</w>
el ong</w>
▁parliam entary</w>
▁att ack</w>
▁201 0</w>
um b
qu ality</w>
o e</w>
eal ing</w>
▁t im
▁ex act</w>
▁Russi an</w>
▁Hea dquarters</w>
▁ind ex</w>
▁tal king</w>
▁En ergy</w>
▁lear ned</w>
▁inj ured</w>
ign ed</w>
▁sc ored</w>
▁l ived</w>
▁comm emor
▁pen al
▁P ort</w>
en der</w>
▁hand le</w>
▁beg in</w>
▁chec ked</w>
her ies</w>
▁experi ences</w>
▁Fr ance</w>
▁rea c
▁cr iter
▁c ore</w>
▁reduc ing</w>
▁youn ger</w>
mir ae</w>
▁se x</w>
▁refl ected</w>
▁ab ol
I n
▁resear cher</w>
▁j u
▁h e
▁I t
ro r</w>
▁pus hed</w>
▁compl etion</w>
▁Tur k
ti al</w>
id ering</w>
▁eff ort</w>
▁do g</w>
▁charac ters</w>
▁B as
▁1 0
▁ran ked</w>
▁interpr eted</w>
▁accep ted</w>
▁ac tors</w>
▁dis ch
ick ets</w>
▁min ute</w>
▁camer a</w>
▁N e
▁expr ess</w>
▁cryp tocurr
▁A ut
ec tric
g ing</w>
▁se emed</w>
▁integr ated</w>
▁alleg ed</w>
en ch</w>
▁rem ember</w>
▁oper ator</w>
▁displ ay</w>
▁T oday</w>
pec tive</w>
▁201 1</w>
▁curr ency</w>
▁cor resp
▁In st
▁resol ve</w>
▁b ag</w>
▁O ffic
ili ar</w>
▁del iver</w>
▁s ending</w>
▁g ets</w>
▁M in
▁s ides</w>
▁comp r
▁appl ying</w>
ab ilities</w>
▁kindergar tens</w>
▁jud icial</w>
▁g ar
▁urg ent</w>
▁s uddenly</w>
▁l isten</w>
▁subpar agraph</w>
▁win d
▁st ab
▁prosec utor</w>
▁fir m</w>
▁altern ative</w>
▁19 8
iel d</w>
t aining</w>
▁exc luded</w>
▁cou ple</w>
▁suspic ion</w>
ab or
▁u l
▁mar k</w>
▁R ights</w>
▁enh ance</w>
▁bab y</w>
▁iss u
▁pl eas
ch an</w>
▁s un
oun ce</w>
▁susp ended</w>
▁Med ical</w>
ectric ity</w>
▁neg l
▁3 5</w>
▁pro s
▁f if
▁comm ents</w>
▁Kor eas</w>
▁anim als</w>
et ers</w>
▁exc essive</w>
▁re j
▁Un like</w>
▁sec ured</w>
▁f oods</w>
▁loo ked</w>
▁lic ense</w>
▁anim al</w>
▁Th rough</w>
▁depos it</w>
▁c ul
t ype</w>
▁st and</w>
▁prop er</w>
▁rul es</w>
▁politic s</w>
th er
▁establis hing</w>
▁G eun</w>
o ing</w>
▁li qu
▁grad ually</w>
▁repor ter</w>
▁design ation</w>
it her</w>
▁decl aration</w>
i h
▁star t
▁conc ept</w>
▁F l
f ree</w>
an o</w>
▁phot ograp
ass ad
ag s</w>
▁acc ur
▁Un der</w>
▁t en</w>
▁favor ite</w>
amp ion
▁Indones ia</w>
el ines</w>
ac hed</w>
▁pain ting</w>
il ian</w>
▁s quare</w>
▁surroun ding</w>
▁deb t</w>
▁N o
yn asty</w>
▁man ip
▁Mid dle</w>
▁sy n
▁spir it</w>
▁pres entation</w>
▁man ner</w>
en om
▁join tly</w>
▁experi enced</w>
ul ts</w>
▁techn ical</w>
▁histor ical</w>
▁guid ance</w>
▁withdr aw
▁judg ment</w>
▁f alls</w>
li zed</w>
en tered</w>
▁m ag
▁Se ong</w>
ff er</w>
▁law s</w>
▁en try</w>
▁cam p</w>
form s</w>
▁wal king</w>
▁prac tical</w>
C T</w>
▁N owon</w>
ed uc
▁G erman</w>
▁A I</w>
▁te en
▁Inves tment</w>
l ines</w>
▁vulner able</w>
tit ution</w>
▁susp ect</w>
▁budg etary</w>
▁arr ang
ac ked</w>
f in
▁reg ardless</w>
w ook</w>
c oh
▁Per s
ur o</w>
c o</w>
▁acc um
▁T eam</w>
▁S e</w>
▁criter ia</w>
▁artif icial</w>
e tr
am p</w>
▁v ot
▁out standing</w>
▁c ell</w>
▁el ectricity</w>
▁S ub
▁S atur
u el</w>
am b
▁m ur
im chi</w>
as ters</w>
▁con tr
▁attrac t</w>
▁syst em
▁strength ening</w>
▁over come</w>
▁Y u</w>
▁requir es</w>
▁el se</w>
si on
▁Ind ia</w>
▁te xt</w>
▁Y i</w>
▁w all</w>
▁sl ow
ex p
▁depar tments</w>
▁clear ly</w>
▁U S
▁Chungch eong</w>
▁trust ee</w>
▁civ ic</w>
▁trad ing</w>
▁sympt oms</w>
i xed</w>
▁tru th</w>
▁sp ons
en n
▁mar riage</w>
▁Y our</w>
% .</w>
▁rec overy</w>
▁m oun
▁approv ed</w>
▁st ated</w>
▁K y
▁v ia</w>
▁recomm endation</w>
oo k
J ap
▁Ge um
▁occ urs</w>
▁con g
or ks</w>
ay si
pl ace</w>
eun mirae</w>
e ung
▁comm ission</w>
▁Wh ite</w>
as ts</w>
▁ingredi ents</w>
▁hom es</w>
▁bal ance</w>
▁law yer</w>
▁id eas</w>
▁innov ative</w>
▁ath let
▁sou thern</w>
▁S ohn</w>
▁strong ly</w>
▁applic ants</w>
▁C itiz
eas ing</w>
▁dr aw</w>
▁Sp ea
▁J oo</w>
ug s</w>
or es</w>
P op</w>
▁st ar</w>
▁sis ter</w>
▁comm itted</w>
T V</w>
▁n ar
▁on es</w>
eo s</w>
▁S ang
▁sc and
▁for ec
▁sign s</w>
▁ha b
ur i</w>
un c
ch ul</w>
▁g ather</w>
▁Bar eunmirae</w>
j oon</w>
▁D o
oo gle</w>
▁ear th
▁tas ks</w>
▁disp ute</w>
▁D id</w>
▁Chil dren</w>
▁r ent</w>
▁p sych
▁deb ate</w>
m ar
eo k
▁draw n</w>
▁con st
p yeong</w>
▁rem ain</w>
▁Ar ts</w>
▁ref ug
▁Mal aysi
der ing</w>
▁mem ory</w>
▁Se ok</w>
▁lun ch</w>
n eung</w>
oo m</w>
▁t own</w>
▁H eung</w>
▁sp ot</w>
▁sent ence</w>
lin ary</w>
ent ually</w>
▁tr ack</w>
▁sc ale</w>
▁o kay</w>
▁conserv ative</w>
▁repor ting</w>
▁certif ication</w>
▁P omp
ye o</w>
iti me</w>
▁t ickets</w>
▁reg ulation</w>
▁continu ously</w>
▁inv est</w>
▁star s</w>
▁repl ac
it als</w>
ili pp
1 2</w>
▁sc en
▁Pyeong taek</w>
er n
▁mach ine</w>
▁S um
▁subpar agraphs</w>
us es</w>
▁inc urred</w>
▁cons truc
▁G ir
i ences</w>
ex es</w>
▁resp ect</w>
▁inter esting</w>
▁g ives</w>
▁up on</w>
▁dam ages</w>
▁dis s
▁vid eos</w>
▁convers ation</w>
okes man</w>
▁sal ary</w>
▁B aek</w>
ef ully</w>
▁transac tions</w>
▁th anks</w>
▁Civ il</w>
▁Canad a</w>
▁extr a</w>
eg et
▁attrac ted</w>
h ouse</w>
▁m eat</w>
▁believ es</w>
▁N ot</w>
▁crea tive</w>
▁cor ruption</w>
▁encour age</w>
▁en forcement</w>
▁B TS</w>
▁sh ape</w>
▁pow er
▁corr ect</w>
▁Ph ilipp
if ic</w>
c alled</w>
ul ations</w>
▁rep air</w>
▁fail ure</w>
ep r
▁men u</w>
▁chec king</w>
▁Mon day</w>
as ion</w>
▁n et</w>
▁frequ ently</w>
al ys
▁tr ee</w>
enom en
ed ding</w>
▁cryptocurr ency</w>
▁comp osed</w>
m on
is hing</w>
ey s</w>
▁am id</w>
▁H ae</w>
el f</w>
▁susp ension</w>
▁gr ounds</w>
ri ve</w>
▁i ce</w>
▁ch icken</w>
▁Austral ia</w>
tric ts</w>
r aft</w>
▁ev ening</w>
2 5</w>
▁unf air</w>
▁fal se</w>
▁Olymp ics</w>
▁Fr iday</w>
▁U r
▁J ust</w>
▁cons ulting</w>
▁child care</w>
▁aim ed</w>
▁Mexic o</w>
▁rou te</w>
▁al coh
▁transac tion</w>
ic ul
▁l evel
▁S y
k yung</w>
en ever</w>
▁st one</w>
▁s eas
▁exper t</w>
▁C ar
▁ph enomen
▁l oved</w>
▁f ight</w>
▁bus es</w>
▁200 9</w>
▁n ames</w>
▁hy dro
▁effici ency</w>
▁conc luded</w>
▁B aek
▁go als</w>
fac tion</w>
▁lat est</w>
▁finis h</w>
▁des t
▁H ous
um n</w>
▁fin ance</w>
ic ed</w>
ar eness</w>
▁w ages</w>
ib r
1 5</w>
▁import ance</w>
▁G oogle</w>
og ue</w>
▁subsid ize</w>
▁conn ected</w>
▁1 8
l ight</w>
▁us es</w>
▁see ing</w>
▁des tro
▁I T</w>
ec omm
▁You T
▁Cons idering</w>
▁arg ued</w>
u ts</w>
▁f air
▁St ar
▁pl astic</w>
▁distrib uted</w>
▁discl osure</w>
app ed</w>
▁mod els</w>
▁j ustice</w>
▁r ural</w>
▁1 50</w>
▁w il
arm ac
all ey</w>
▁Jeoll a</w>
▁Ac adem
▁fres h</w>
▁caus es</w>
ner ship</w>
m yung</w>
▁realiz e</w>
▁h ard
▁p il
▁offici ally</w>
▁gu ide</w>
▁ch em
▁t err
▁reg ime</w>
▁r ich</w>
▁M or
▁Fr ench</w>
j o</w>
▁qu anti
▁min im
▁war ning</w>
▁s ave</w>
▁co ordin
▁r um
▁r ain
▁out door</w>
▁instit ute</w>
▁r ule</w>
▁c over
▁pl aced</w>
▁l ose</w>
▁Pr ev
ee ts</w>
▁help ed</w>
▁M ong
▁at titude</w>
▁ev entually</w>
▁emerg ed</w>
ul ating</w>
▁max imum</w>
▁corpor ations</w>
▁F amily</w>
t b
▁sn ow</w>
▁l ines</w>
▁accomp an
▁S NS</w>
▁l isted</w>
▁wat ched</w>
▁Super visory</w>
▁cour ses</w>
am ework</w>
▁oper ations</w>
▁foo t</w>
▁dist ance</w>
▁b ut
er o</w>
▁exc eed</w>
in ally</w>
emp loyed</w>
assad or</w>
▁level s</w>
▁t ro
▁sub jects</w>
▁fl ex
▁J ong
▁cosm etics</w>
▁cent ury</w>
ic ide</w>
i able</w>
▁p utting</w>
▁Fil m</w>
▁ha ven</w>
▁con gr
▁ann ounce</w>
g n
▁emerg ing</w>
amp les</w>
▁aw areness</w>
▁Hw as
c al</w>
▁som ew
▁j ourn
b ok</w>
▁see k</w>
▁20 20</w>
eor ological</w>
▁mar ried</w>
▁app eal</w>
▁conf idence</w>
▁Satur day</w>
▁Ind epend
▁Cheon an</w>
▁E s
id ays</w>
▁v eget
▁t ired</w>
▁achiev ed</w>
▁I mp
▁Gyeong nam</w>
▁s enti
▁complain t</w>
▁St adium</w>
av es</w>
▁mus ical</w>
▁m aster</w>
▁R yu</w>
v e
▁som etimes</w>
▁r an</w>
▁pref er
▁S ystem</w>
▁s inc
▁perf ect</w>
▁A ward</w>
u i</w>
j oo</w>
▁New s</w>
s tr
▁exten ded</w>
li f
▁v enture</w>
▁prem ium</w>
▁inten si
▁nat ur
▁m ot
▁Spea ker</w>
y al</w>
▁val ues</w>
▁resc ue</w>
an der</w>
▁pass ing</w>
▁doc tor</w>
▁K T</w>
j a</w>
▁p an
▁Seong nam</w>
▁Int ell
▁affili ated</w>
▁fir ms</w>
▁dr unk</w>
▁dis tricts</w>
▁ess ential</w>
▁earn est</w>
an ning</w>
▁st ations</w>
▁di al
kn own</w>
▁pri ority</w>
▁pl ed
▁exp end
s oon</w>
▁enjo yed</w>
oh ang</w>
og s</w>
▁scand al</w>
▁s ens
▁lect ures</w>
▁L aw</w>
ap s</w>
▁don ation</w>
as t
▁sh ipping</w>
▁inst all</w>
▁inconveni ence</w>
▁sec tors</w>
▁happ en</w>
▁dri ve</w>
▁col ors</w>
▁R ule</w>
▁trea ted</w>
▁cou p
ap ed</w>
▁applic ations</w>
▁J ang
wh ere</w>
b ed</w>
5 00</w>
▁transf erred</w>
▁dr ugs</w>
▁canc el</w>
d is
▁ep is
▁e x</w>
▁confir mation</w>
▁bott om</w>
▁ap p</w>
w ol</w>
iti sh</w>
omm od
eed s</w>
c om
▁tal ent</w>
▁su itable</w>
▁hosp itals</w>
▁ext ent</w>
▁discip linary</w>
▁Pa ju</w>
▁Hall yu</w>
" ).</w>
▁D ynasty</w>
▁str ike</w>
▁Af ric
▁th ous
▁manufac tur
▁grad es</w>
▁200 8</w>
z ing</w>
▁bro ken</w>
▁B ro
▁wor s
▁rea dy</w>
▁p ort</w>
▁fl ow</w>
▁equ ipped</w>
▁deb ut</w>
▁kindergar ten</w>
t ech</w>
▁cl in
▁birth day</w>
s et</w>
tic ally</w>
▁poll ution</w>
▁newsp aper</w>
▁app ears</w>
▁It al
▁In nov
▁H ak</w>
▁s ample</w>
▁em o
▁comb ined</w>
▁su it</w>
▁hur t</w>
▁har ass
▁gol f</w>
▁J un</w>
oun ts</w>
▁sprea ding</w>
▁mos tly</w>
k m</w>
▁Met eorological</w>
▁ob tain</w>
unic ations</w>
▁mis s
▁m eals</w>
▁judg ed</w>
▁am end
op h
as ted</w>
▁wea k
▁u pper</w>
▁l ux
▁contrac ts</w>
▁ac tions</w>
cl ass</w>
▁purch ased</w>
▁fig ures</w>
▁com fortable</w>
▁bel ong
▁ad d</w>
▁E v
▁earth qu
▁S oon</w>
▁P ower</w>
▁n ov
▁fea ture</w>
▁Br itish</w>
▁sl ugg
▁imm igr
▁fif th</w>
▁car rying</w>
▁adv ice</w>
▁diplom atic</w>
▁d rew</w>
▁cooper ative</w>
▁Se och
es us</w>
▁Ro ad</w>
oc k
el ings</w>
ed n
▁G ol
h i</w>
▁s etting</w>
▁as p
▁Kak ao</w>
eg n
▁lea gue</w>
▁in qu
▁dem anded</w>
▁acc ommod
▁P ohang</w>
▁perform ing</w>
▁concentr ation</w>
▁Han wha</w>
▁stor age</w>
▁is land</w>
▁fin ding</w>
▁cl im
▁pat h</w>
▁b ic
▁an x
▁Str ateg
▁passeng ers</w>
▁individ uals</w>
▁T ok
▁explan ation</w>
ro m
▁design ate</w>
us h</w>
▁E st
▁compl exes</w>
▁Comp any</w>
t ains</w>
iti gation</w>
h ab
▁fe elings</w>
▁L aw
▁regis ter</w>
▁hol idays</w>
▁fos ter</w>
▁arch it
▁3 2</w>
it or</w>
▁s tic
▁mus eum</w>
▁co ast</w>
▁challeng e</w>
on ent</w>
▁contrib ution</w>
▁all owing</w>
ular ly</w>
t own</w>
it ory</w>
ing ton</w>
▁exec ution</w>
▁dead line</w>
▁Pomp eo</w>
▁st ance</w>
▁ar tist</w>
▁C rea
or i
b rea
▁en th
▁compr ised</w>
▁clai ms</w>
ol ic</w>
ob ile</w>
▁ec os
▁benef it</w>
▁W est</w>
▁At ten
▁low est</w>
▁inj ury</w>
▁form ulate</w>
▁Con tro
▁Soc iety</w>
▁pl ays</w>
▁m ixed</w>
▁inv ited</w>
u ations</w>
▁stat utes</w>
▁ob tained</w>
▁hun dr
▁exp ression</w>
w or
▁notif ied</w>
▁aw are</w>
il ing</w>
G u</w>
▁fl owers</w>
▁sh ops</w>
r un</w>
▁Ye ou
▁M i</w>
g ressive</w>
E s</w>
y m
▁Christi an</w>
or al</w>
▁wor ry</w>
▁is n</w>
it es</w>
er ea
▁cro ss
ist an</w>
▁str a
▁recogn ition</w>
▁D ru
us i
▁shoo ting</w>
▁hydro gen</w>
▁ar rive</w>
▁Re p</w>
▁re or
▁Seoch o</w>
▁J esus</w>
ur ation</w>
▁rul ed</w>
▁g ain</w>
▁del icious</w>
▁behav ior</w>
▁un ve
▁main tained</w>
▁top ic</w>
▁Gr and</w>
▁un ification</w>
▁Chang won</w>
r an
edn esday</w>
▁c ool</w>
▁ap olog
▁conflic ts</w>
▁suspic ions</w>
▁supp orts</w>
▁custom ized</w>
▁Ch us
▁interv iew
▁pr a
▁offer ed</w>
▁effici ently</w>
▁ch e
▁O p
au d</w>
▁propor tion</w>
ir es</w>
g ence</w>
▁ne arly</w>
▁Chr ist
is ure</w>
in ks</w>
bo ard</w>
▁fr anch
▁commun ic
▁b onds</w>
▁SM Es</w>
▁A ud
▁shar p</w>
▁h ost</w>
i enti
▁enth usi
▁bul l
1 7</w>
▁unc er
▁su icide</w>
▁prom ised</w>
▁in n
▁guid elines</w>
▁car eful</w>
▁b and</w>
▁YouT ube</w>
inc es</w>
b e</w>
▁phenomen on</w>
▁demons tr
▁H ave</w>
▁natur ally</w>
▁Yeou ido</w>
▁W estern</w>
id den</w>
▁far m</w>
▁conveni ent</w>
▁canc eled</w>
▁ar ticles</w>
▁J ung
▁Gang neung</w>
▁Budd h
eti tion</w>
▁sl ightly</w>
▁negoti ation</w>
▁F is
ic iary</w>
z ens</w>
1 3</w>
▁alcoh ol</w>
st yle</w>
gr y</w>
d am
U S</w>
▁penal ty</w>
▁i gn
▁Philipp ines</w>
▁An alys
ed om</w>
▁C C
am a</w>
▁identi fied</w>
▁coo king</w>
▁concentr ated</w>
rim ination</w>
▁success fully</w>
▁pus hing</w>
▁pr egn
▁e ither</w>
▁ter m
▁proced ure</w>
▁minis try</w>
▁land sc
▁b ed</w>
▁rem ov
▁manag ing</w>
▁contrib uted</w>
▁bor der</w>
▁bl ue</w>
▁X i</w>
▁Wor kers</w>
▁Del iber
▁rap id</w>
▁ag ed</w>
▁Med ium</w>
b uilding</w>
▁sharehol ders</w>
▁decl ared</w>
▁clos ely</w>
▁aw arded</w>
nam ent</w>
▁stab il
▁smoo th</w>
▁r ating</w>
▁I CT</w>
for t</w>
▁teen agers</w>
▁senti ment</w>
▁commun icate</w>
▁Chus eok</w>
▁hel ps</w>
▁Des pite</w>
▁Yong in</w>
▁ag ree</w>
▁Mot ors</w>
▁Academ y</w>
a es
A T</w>
▁for um</w>
▁bu ying</w>
▁Yong san</w>
▁H o</w>
▁C ong
▁foo tball</w>
▁Chungch eong
▁W ednesday</w>
▁offer ing</w>
▁enterpr ise</w>
▁bl ock</w>
▁m outh</w>
▁tel ecomm
▁t esti
▁br ands</w>
term easures</w>
▁eng aged</w>
▁diver se</w>
▁R el
▁App le</w>
▁be er</w>
n a</w>
▁weap ons</w>
▁str ic
▁disp osal</w>
ampion ship</w>
▁typ hoon</w>
▁subsid y</w>
▁s igning</w>
▁exp osed</w>
▁exclus ive</w>
▁Mong ol
ri er</w>
ir ation</w>
▁sh ow
▁rep ea
▁eas e</w>
▁auth or</w>
▁W o
z ation</w>
1 1</w>
▁inev itable</w>
ep s</w>
▁rec ons
▁p ort
▁imp osed</w>
▁W ould</w>
l aration</w>
▁mean time</w>
▁cont ac
▁4 00</w>
▁oper ators</w>
▁dro pped</w>
▁Ch a</w>
▁B ased</w>
ill a</w>
ari ffs</w>
▁st ability</w>
ul ted</w>
▁subs crib
▁cul tiv
ess ors</w>
▁Sun day</w>
j un</w>
ij ing</w>
▁un us
▁m ic
▁Con c
at ri
▁st atistics</w>
▁c overed</w>
▁bat tle</w>
n ight</w>
ap ers</w>
▁t ests</w>
▁slugg ish</w>
▁grow n</w>
▁deg ree</w>
▁Sh im</w>
▁sp ending</w>
▁hon or
▁rep ly</w>
ist ant</w>
er ate</w>
ent ally</w>
▁t ariffs</w>
▁relig ious</w>
▁ins pec
▁Commun ity</w>
ud den</w>
▁hand ed</w>
▁Bur eau</w>
▁An san</w>
▁fis cal</w>
▁Tok yo</w>
ail and</w>
▁athlet es</w>
▁Pro t
▁stud ies</w>
▁resol ved</w>
▁mut ual</w>
▁ill eg
▁fac tor</w>
▁Agric ulture</w>
▁invol ving</w>
▁far ms</w>
▁b ills</w>
p a</w>
▁str ess</w>
▁pr ime</w>
▁dispat ched</w>
▁Ar my</w>
▁sec ret</w>
▁cont aining</w>
▁competi tive</w>
ect ly</w>
c o
▁vo ting</w>
▁h iring</w>
▁dem ands</w>
s ue</w>
▁w edding</w>
▁dis hes</w>
▁5 2</w>
nam ese</w>
▁shar ply</w>
▁plan e</w>
▁p ul
▁Un ification</w>
▁Pl anning</w>
▁los ing</w>
▁g ained</w>
▁F T
is ition</w>
▁sl ow</w>
▁S S</w>
▁Gre en</w>
epr ene
▁smartph ones</w>
▁sh ip
▁o bl
▁beg un</w>
▁Eng ineering</w>
▁Innov ation</w>
issi ons</w>
▁pr o</w>
▁rece ives</w>
▁in aug
▁K o</w>
▁canc ell
z b
lus ion</w>
emp loyment</w>
▁public ly</w>
▁Be ijing</w>
row n</w>
▁monit oring</w>
▁eas ier</w>
▁Ur ban</w>
um ed</w>
or ting</w>
Kor ea</w>
▁vo ices</w>
▁ac ts</w>
▁For est</w>
▁Th ailand</w>
▁H ol
am m
▁pro hib
▁los ses</w>
▁des ire</w>
oo king</w>
▁trans par
▁s udden</w>
▁clean ing</w>
▁car ds</w>
l ity</w>
▁Y eon
▁Mar ine</w>
o ice</w>
▁un con
▁th ough
▁sec uring</w>
▁ag ing</w>
si l</w>
▁eng ine</w>
at eral</w>
▁deliber ate</w>
▁commerc ial
▁S in
▁G lobal</w>
▁G al
▁obl ig
▁fun eral</w>
▁Braz il</w>
enc ing</w>
▁g aining</w>
▁Viet namese</w>
▁m al
▁ecos ystem</w>
▁s ear
▁h ike</w>
▁evalu ated</w>
ash ington</w>
S h
▁rej ected</w>
▁ab and
▁S al
illi ons</w>
' .</w>
▁differ ences</w>
▁bloc ked</w>
▁ar my</w>
p ower</w>
▁fun dam
▁car efully</w>
g ang</w>
▁Am id</w>
▁pay ments</w>
▁continu ing</w>
▁G or
ub s</w>
pro f
▁m ass</w>
▁im ages</w>
▁re d
▁pret ty</w>
▁continu ous</w>
▁Un til</w>
m as</w>
icul um</w>
▁tro ops</w>
▁li b
▁ass et</w>
▁inves tments</w>
▁introduc ing</w>
▁exc eeded</w>
▁a id</w>
▁Y un</w>
▁s ust
▁Gyeongsang nam</w>
n e</w>
▁wh om</w>
▁ref ers</w>
ib ility</w>
▁investig ated</w>
▁fac ing</w>
▁charg ed</w>
▁chann el</w>
▁G un
▁Dec laration</w>
▁C ap
s e
▁w ake</w>
▁superv ision</w>
▁satis faction</w>
▁prov inces</w>
▁perm an
▁mist ake</w>
▁advertis ing</w>
▁Hous ing</w>
▁Bo ard</w>
▁rea lized</w>
▁quanti ty</w>
▁a irc
▁Es pecially</w>
C omm
▁ver sion</w>
▁respon ded</w>
▁T emple</w>
▁Mus ic</w>
n y</w>
ect ors</w>
▁vill ages</w>
▁exten sion</w>
▁b ags</w>
▁3 4</w>
▁power ful</w>
▁m ail</w>
▁l itigation</w>
▁identi ty</w>
ough ly</w>
▁sem ester</w>
ati zation</w>
▁sm o
▁dial ogue</w>
▁cap abilities</w>
▁agric ulture</w>
▁O peration</w>
res ident</w>
▁fl ower</w>
▁dri vers</w>
▁W ashington</w>
t ings</w>
▁compet ent</w>
▁s ad</w>
▁lea ds</w>
▁expend iture</w>
▁Ex p
▁Cheong ju</w>
armac eu
▁amend ment</w>
ee k</w>
ar m</w>
▁comb ination</w>
▁B ea
▁Atten tion</w>
▁det ected</w>
▁big ger</w>
r a</w>
od ies</w>
ed eral</w>
a h
▁inves ted</w>
▁e th
▁C er
tic ultural</w>
ad v
▁S enior</w>
▁M y
▁Citiz ens</w>
os s</w>
en ary</w>
▁su ffer</w>
▁purchas ing</w>
▁post p
▁down town</w>
err ing</w>
▁pic k</w>
▁S ol
ect ure</w>
▁f ear</w>
▁entr ust</w>
▁C ol
▁un less</w>
▁t ea</w>
▁initi al</w>
▁Independ ence</w>
ar ity</w>
▁An g
▁1 4
▁ul tr
▁prosec utors</w>
▁Ac tor</w>
▁organ ize</w>
▁comp ly</w>
A c
▁resear chers</w>
▁orig inally</w>
▁Strateg y</w>
▁Pen sion</w>
ch ange</w>
▁requir ements</w>
▁d ark</w>
▁D r
▁sp okesman</w>
▁Administr ative</w>
▁wh enever</w>
▁schol ar
▁hum an
ign ation</w>
▁sw eet</w>
▁s ensi
▁recogn ize</w>
▁legis lation</w>
▁Coll ege</w>
oc ked</w>
ass y</w>
▁cat ch</w>
▁Tw o</w>
▁K wang</w>
▁Hwas eong</w>
▁trans l
▁sh r
▁retur ning</w>
▁rec ip
▁dou b
▁dec or
on er</w>
▁was n</w>
▁sur face</w>
▁imp orted</w>
▁Indus tries</w>
of f</w>
▁tal ked</w>
▁pos itions</w>
▁Gang seo</w>
▁c entered</w>
▁acc el
eas ury</w>
▁vis its</w>
▁tr ends</w>
▁s eri
▁requ ests</w>
▁merch ants</w>
▁man d
▁memor ial</w>
g oing</w>
▁sing ing</w>
▁s a
▁g one</w>
▁1 3
C EO</w>
▁fr aud</w>
▁Cong r
▁specif ied</w>
▁sim ply</w>
ad ing</w>
▁reg ard</w>
▁categ ory</w>
con trac
▁le isure</w>
at ures</w>
▁fir ef
▁Inv estig
ut ers</w>
f ying</w>
S S</w>
1 6</w>
▁vis ion</w>
▁lin ked</w>
▁4 5</w>
1 4</w>
▁multi ple</w>
▁help ing</w>
▁happ iness</w>
▁fac ts</w>
▁Mat ters</w>
av ing</w>
▁stra ight</w>
▁predic t</w>
▁im ag
▁6 5</w>
ver si
ti se</w>
oc i
▁det ail</w>
▁collap se</w>
▁allow ances</w>
▁airc raft</w>
▁Z one</w>
▁Christ mas</w>
t op</w>
r am</w>
▁win s</w>
▁over l
▁beh alf</w>
▁K OS
▁Gyeong buk</w>
m a</w>
▁sing ers</w>
▁T own</w>
▁200 7</w>
an si
▁c ross</w>
et te</w>
▁prot est</w>
▁v eter
▁h ot
ay ment</w>
K im</w>
▁kn ew</w>
▁Ta x</w>
s y</w>
m ore</w>
ag er</w>
▁sh oes</w>
▁no tic
y ang
▁win ner</w>
▁m unicipal</w>
z z
▁res erv
▁p age</w>
▁earthqu ake</w>
▁citiz en</w>
uc t
▁star ts</w>
▁expl os
ye ol</w>
comm ittee</w>
▁passeng er</w>
▁disc rimination</w>
m it</w>
e el</w>
ch eol</w>
▁reas onable</w>
▁f uel</w>
▁U zb
u an</w>
1 9
▁cr ack
▁aff ect</w>
▁extr eme</w>
▁entrus tment</w>
▁ra w</w>
▁pl enary</w>
in k
g il</w>
▁w ill
▁pr e
s ang</w>
▁tur ning</w>
▁hand ling</w>
▁day care</w>
▁applic ant</w>
h yeon</w>
al ent</w>
▁pack age</w>
▁med al</w>
▁Str eet</w>
▁Reg ional</w>
i et</w>
ens us</w>
▁wor se</w>
▁sp aces</w>
▁ju ven
▁fil ming</w>
▁d er
▁appro ach</w>
▁M ad
aw ei</w>
an am</w>
▁urg ed</w>
▁sk y</w>
▁dang erous</w>
▁contro versi
▁caf e</w>
▁techn i
▁r ally</w>
▁fre ely</w>
ori ented</w>
ist ence</w>
im ming</w>
d ily</w>
▁v oc
▁tour nament</w>
▁revital ize</w>
▁repl ace</w>
▁rail way</w>
▁h owever</w>
▁br ight</w>
▁B uc
adv ant
▁un like</w>
▁num b
▁Malaysi a</w>
▁L ove</w>
▁Br idge</w>
▁or dinance</w>
▁gr ew</w>
▁M ilitary</w>
ud i</w>
▁y our
▁wid ely</w>
▁t ons</w>
▁mus c
ti le</w>
▁O ther</w>
▁respon d
▁m erg
▁inf l
▁B efore</w>
ol l</w>
▁th ank</w>
▁sit uations</w>
▁bor row
▁N et
on ial</w>
▁tou ch</w>
▁fi erce</w>
ur ement</w>
▁dismis sed</w>
▁ad ults</w>
ow ned</w>
▁sub st
▁r ace</w>
▁grea ter</w>
▁3 6</w>
▁repl aced</w>
▁purp oses</w>
▁des crib
k yu</w>
▁journ al
▁cont ain
▁Jong no</w>
▁J o</w>
k y
eas ure</w>
az a</w>
ac ific</w>
▁s ac
▁ran king</w>
▁mar ine</w>
▁curr iculum</w>
▁W in
▁Ex pr
▁tow ards</w>
▁de ems</w>
▁d edic
▁bur eau</w>
eng th</w>
1 00</w>
▁gather ing</w>
▁f all
▁Pro duc
▁Je ong
ition ally</w>
▁ann ually</w>
▁Gw an
▁vot es</w>
▁pleas ant</w>
▁lis tening</w>
▁Exper ts</w>
uc ks</w>
t ories</w>
it ations</w>
ar a</w>
▁emp ty</w>
▁F oll
▁rel ief</w>
▁id ol</w>
▁disc overed</w>
▁dis advant
▁def ic
▁fri endly</w>
▁rem ove</w>
▁r ide</w>
▁pro mp
▁acqu isition</w>
▁J udg
▁consid er
▁3 8</w>
s ook</w>
rea m</w>
▁lea ves</w>
▁fam iliar</w>
▁attend ance</w>
iz z
▁trou ble</w>
▁Nor thern</w>
inc luding</w>
id ity</w>
E D</w>
▁wind ow</w>
▁r iver</w>
▁m el
▁F ree</w>
l ands</w>
▁re ward</w>
▁ch ose</w>
▁Hu awei</w>
▁1 5
▁l ease</w>
▁fav or</w>
un ior</w>
▁ref r
▁d ogs</w>
2 3</w>
▁cons ists</w>
▁adj ust</w>
▁W on
b ack</w>
▁Par ticip
os en</w>
▁up coming</w>
▁memor ies</w>
▁M e
w ater</w>
ol es
ing d
er ies</w>
▁respond ents</w>
overn ing</w>
▁aw ards</w>
▁B ae</w>
enti a</w>
▁though ts</w>
▁res idence</w>
▁k een</w>
▁fa ith</w>
▁disapp eared</w>
▁comp osition</w>
▁Intell igence</w>
▁replac ement</w>
▁part ner</w>
▁bu yers</w>
▁On ly</w>
it ch
d aemun</w>
I N
y friend</w>
▁succ eeded</w>
▁intern et</w>
▁un exp
▁instit utes</w>
▁N ex
▁Ear lier</w>
as an</w>
▁v ess
▁us age</w>
▁hon or</w>
▁Sp ain</w>
u al
p yo</w>
ect ual</w>
oo ks</w>
▁exc av
▁cons ent</w>
▁Sa udi</w>
i k</w>
▁E ach</w>
oti onal</w>
▁n erv
▁exam ine</w>
▁autom atically</w>
▁Jeoll anam</w>
pp ing</w>
▁your self</w>
▁sec urities</w>
▁rel ation</w>
▁Ever y
oc ated</w>
? "</w>
▁r are</w>
▁in form</w>
▁commun ities</w>
▁b re
▁H ang
▁G o</w>
emb ers</w>
▁unus ual</w>
▁Star ting</w>
▁Dis aster</w>
it or
g u
ev en</w>
▁won der</w>
▁trav eling</w>
▁m ood</w>
▁c ode</w>
▁Coo peration</w>
erea ved</w>
▁see king</w>
▁in her
▁aud iences</w>
▁ag ent</w>
▁Bi g</w>
▁gr and</w>
h our</w>
▁ste el</w>
▁st eps</w>
▁discl osed</w>
▁bo at</w>
▁Her itage</w>
▁E m
▁C el
▁chann els</w>
▁bo ost</w>
w on
un j
ap o</w>
▁view s</w>
▁sh ut
▁Th ose</w>
▁S elf</w>
▁ow ned</w>
▁br ain</w>
▁1 6
ograp hy</w>
l ey</w>
armaceu tical</w>
2 4</w>
▁p op</w>
▁apprec iate</w>
▁pain tings</w>
▁Shin han</w>
k et
▁rev olution</w>
▁lif elong</w>
▁Gyeongsang buk</w>
re ement</w>
ond ary</w>
d ae</w>
▁Han oi</w>
▁Th anks</w>
▁P o
▁Comm and</w>
urs day</w>
t d</w>
▁par ti
▁l ov
▁dedic ated</w>
▁Il bo</w>
▁k ing</w>
▁sem in
▁demons tration</w>
▁adop ted</w>
▁P as
▁Analys ts</w>
▁st aying</w>
▁sm ile</w>
▁favor able</w>
▁f aster</w>
▁el imin
▁r om
▁H on
▁prof essors</w>
▁gar den</w>
▁fe els</w>
▁S ur
b on</w>
▁El ementary</w>
▁Con t
g eun</w>
▁mis s</w>
▁det eri
▁log istics</w>
▁entr eprene
▁M ok
▁Fis heries</w>
, '</w>
▁viol ations</w>
▁sc ienti
▁rec over</w>
▁pil ot</w>
▁mur der</w>
▁k imchi</w>
▁j ump
▁flex ible</w>
▁T u
▁up lo
▁p ip
or hood</w>
it ual</w>
ar ian</w>
▁sub ordin
▁pr im
▁don ated</w>
▁S om
ing ing</w>
▁z ones</w>
▁under ground</w>
▁s it</w>
▁manag ers</w>
▁lux ury</w>
▁cons ensus</w>
A l
▁epis ode</w>
▁illeg ally</w>
▁def in
o x
▁y ellow</w>
▁withdraw al</w>
▁gr ant</w>
▁cl ubs</w>
▁N ong
▁st ood</w>
▁bl ind</w>
m ail</w>
Th is</w>
▁coll ecting</w>
w r
▁ver ification</w>
▁D an
▁strength ened</w>
▁kil om
▁Nav er</w>
ech eon</w>
ang ing</w>
▁legis l
▁exemp tion</w>
▁accompan ied</w>
in o</w>
▁Turk ey</w>
▁J oint</w>
ti ous</w>
in et</w>
el i
▁th us</w>
▁regul atory</w>
▁prom ise</w>
▁inspec tions</w>
▁b ereaved</w>
estiv als</w>
▁sur p
▁m ission</w>
▁civ ilian</w>
▁rem ained</w>
▁no ise</w>
▁hundr eds</w>
▁ac tress</w>
▁Y eon</w>
▁St ore</w>
▁Sing er</w>
ax y</w>
▁diagn osis</w>
▁Res idents</w>
c ase</w>
▁surpr ised</w>
▁person ality</w>
▁numb ers</w>
▁disapp oin
▁conf ron
▁acqu ain
▁ab und
ri f
o ted</w>
i os
er ship</w>
ati s</w>
▁ful f
▁fall en</w>
▁K um
r aid</w>
▁V ol
ific ations</w>
▁vac c
▁l ess
▁foun ded</w>
ir th</w>
▁St and
os ite</w>
is ional</w>
▁19 7
▁unve iled</w>
▁dr y</w>
ffici als</w>
ef s</w>
▁s tim
▁f ing
ri ers</w>
ent um</w>
ass ed</w>
▁work sh
▁pr iv
▁m all</w>
▁af raid</w>
▁Ins p
▁p ed
▁For um</w>
s ch
l om
f f</w>
▁op tim
▁An other</w>
▁dest ination</w>
▁adjus tment</w>
▁R ural</w>
ous ness</w>
il s</w>
▁val u
▁volunt ary</w>
▁disch arg
▁conc lusion</w>
▁Song pa</w>
▁6 00</w>
ang h
4 5</w>
% ),</w>
▁tea ching</w>
▁rem oved</w>
▁pers pective</w>
▁hea d
▁C are</w>
x es</w>
▁smo king</w>
▁mess ages</w>
▁Th ree</w>
essi ons</w>
G un</w>
▁writ er</w>
▁unc om
▁pat ent</w>
▁cor ner</w>
▁ch osen</w>
▁H ar
▁s ick</w>
▁J u</w>
▁Foll owing</w>
▁B el
am ic</w>
Comm ittee</w>
▁exper tise</w>
▁employ ed</w>
▁belong ing</w>
▁Tw itter</w>
S T</w>
▁he ight</w>
▁f ill</w>
▁drea ms</w>
▁doll ar</w>
▁O fficials</w>
▁K ia</w>
tiv ely</w>
m aking</w>
▁t ears</w>
▁stea dily</w>
▁begin s</w>
▁Wh ich</w>
▁S u</w>
it r
ent y</w>
and is</w>
▁prev enting</w>
▁ins tr
▁classi fied</w>
▁bur d
w ise</w>
oc king</w>
▁sec ret
▁mut atis</w>
▁exten d</w>
▁com ment</w>
ell o</w>
▁strateg ic</w>
▁deep ly</w>
▁sol o</w>
▁smoo thly</w>
▁harass ment</w>
▁K oo</w>
ograp h
g o</w>
▁ac kn
▁Gir ls</w>
▁Deliber ation</w>
▁us ual</w>
▁mut andis</w>
▁mus ic
▁V alley</w>
▁Ar ticles</w>
▁res ignation</w>
▁her itage</w>
▁accum ulated</w>
ing ness</w>
igh ters</w>
▁sharehol der</w>
▁restric tions</w>
▁ph ones</w>
▁g ate</w>
▁f estivals</w>
lud e</w>
▁stud ied</w>
▁sof t</w>
▁prev iously</w>
▁p our
▁gener ations</w>
▁forg et</w>
▁clos ing</w>
▁P anm
ad es</w>
▁ref used</w>
▁rec ording</w>
ti n</w>
or e
az on</w>
▁v it
▁serv ing</w>
▁perman ent</w>
▁T el
▁Sh ow</w>
▁L un
▁3 7</w>
3 5</w>
▁opp onent</w>
▁m om</w>
▁Do osan</w>
▁B ang</w>
igh ter</w>
▁sust ain
▁supp lied</w>
▁pea k</w>
▁manip ulation</w>
▁f it</w>
▁Enter tainment</w>
hib ition</w>
ar ious</w>
2 7</w>
▁st adium</w>
▁repea tedly</w>
▁viol ating</w>
▁tr i
▁ma p</w>
▁hol ds</w>
▁compet e</w>
▁certif ied</w>
▁bri b
in ations</w>
▁uncom fortable</w>
▁mil k</w>
▁mar tial</w>
▁investig ations</w>
▁fre edom</w>
▁H ead</w>
▁Gwan ak</w>
on c
▁saf ely</w>
▁issu ance</w>
▁I l</w>
S t
2 8</w>
▁bo y</w>
▁P OS
▁miss ile</w>
▁M apo</w>
ic ated</w>
▁pres ence</w>
▁landsc ape</w>
▁gu il
▁H app
▁Ch un</w>
▁Buc heon</w>
u ff
l et</w>
▁s ources</w>
▁frequ ent</w>
▁fir es</w>
▁M oo</w>
c r
▁rou tes</w>
▁mas sive</w>
▁g e
▁discl ose</w>
ay ers</w>
▁inqu ir
▁Comp etition</w>
▁20 00</w>
um i</w>
▁sol id</w>
▁resul ting</w>
▁rest oration</w>
▁out come</w>
▁gu ests</w>
▁f ake</w>
▁clim ate</w>
▁c ells</w>
▁Contro l</w>
▁str eets</w>
▁d educ
▁boo k
▁bat tery</w>
▁aut umn</w>
▁aut o</w>
▁an ticip
▁Sou theast</w>
▁rec yc
▁n utr
▁h idden</w>
▁govern ed</w>
▁A uth
won do</w>
or ney</w>
▁mag az
▁fe et</w>
▁Mar itime</w>
y a</w>
id er</w>
▁recru it</w>
▁aim s</w>
ed y</w>
ab inet</w>
▁achiev ements</w>
▁supp lies</w>
▁exp ense</w>
▁em otional</w>
▁cancell ation</w>
h at</w>
▁serv ants</w>
▁por tr
▁implem enting</w>
▁ext ingu
if f</w>
ab led</w>
a x</w>
▁trans port</w>
▁clos er</w>
▁anx iety</w>
2 1</w>
▁sett led</w>
▁exhib itions</w>
▁Br anch</w>
▁s qu
▁thor oughly</w>
▁collap sed</w>
s al</w>
ail s</w>
▁sub contrac
▁fea sibility</w>
▁Panm unj
is h
▁up d
▁pro sp
▁forec ast</w>
▁B re
ell a</w>
▁t ar
▁sinc er
▁k eeping</w>
▁form ation</w>
▁custom s</w>
▁M ich
▁will ingness</w>
▁Se wol</w>
▁H ong
▁Asi ana</w>
t age</w>
il os
g eneration</w>
e in</w>
▁imp ort</w>
▁fru it</w>
▁fl ag</w>
▁S en
t able</w>
ass es</w>
▁por tion</w>
▁inc or
▁dis h</w>
▁ad ap
▁inter ior</w>
▁c ited</w>
▁Ex change</w>
prof it</w>
l led</w>
i ums</w>
▁pen insula</w>
▁enjo ying</w>
▁K w
at ch</w>
▁mom entum</w>
▁ir reg
▁L td</w>
▁subsid iary</w>
▁displ ayed</w>
▁R eal</w>
▁Aut onom
2 2</w>
▁symp ath
▁el ect
▁Am azon</w>
e ing</w>
▁mob il
▁mat ches</w>
▁fac tories</w>
▁J ak
os t
air ed</w>
▁J ud
ig ar
▁volunt arily</w>
▁kilom eters</w>
▁any more</w>
at h</w>
all er</w>
20 18</w>
▁the ory</w>
▁main taining</w>
▁Buddh ist</w>
▁sel ecting</w>
▁fur n
▁K BS</w>
▁prop os
▁dis asters</w>
▁bic ycle</w>
▁answ ers</w>
ech an
▁On ce</w>
lu b</w>
h room</w>
ag g
▁s oup</w>
▁rep eated</w>
n orm
▁identi fy</w>
▁Th ursday</w>
▁G ar
os un</w>
is s</w>
ard ian</w>
▁tr ansi
▁qu ick</w>
▁mul ticultural</w>
▁Par is</w>
ket ball</w>
g es</w>
▁sh ips</w>
▁s ix
▁s eal</w>
▁Jeon ju</w>
if ts</w>
▁wat er
▁col or
▁acquain t
▁Gwang jin</w>
or ter</w>
▁sol ar</w>
▁Ab e</w>
r ed</w>
p ing</w>
▁utiliz e</w>
▁somew hat</w>
▁c ake</w>
▁L ibr
▁sol ved</w>
▁coun termeasures</w>
▁busin ess
▁tex tb
▁s eni
▁ref er</w>
▁proc essed</w>
▁opp osed</w>
▁dom in
▁a ired</w>
l friend</w>
▁st ates</w>
▁practic es</w>
▁p ork</w>
▁gl ass</w>
u ition</w>
▁sc r
▁honor ary</w>
ob by</w>
ilit ation</w>
▁w ine</w>
▁gradu ate</w>
▁1 20</w>
ther wise</w>
▁hom et
▁char m</w>
▁1 7
▁strugg ling</w>
▁lim itations</w>
▁earn ings</w>
▁T echn
▁arrang ed</w>
▁adm itted</w>
▁Hy ung</w>
▁imp ose</w>
▁Res ources</w>
▁supp osed</w>
▁harm ony</w>
▁ex h
▁celebr ate</w>
▁b all
▁ass embly</w>
▁dep ic
▁cl ou
▁bal anced</w>
▁T imes</w>
▁Sum mit</w>
▁S quare</w>
▁Gal axy</w>
l aw</w>
ab oration</w>
▁refug ees</w>
▁princip al</w>
▁mand atory</w>
▁comp ar
▁A wards</w>
ic op
arb age</w>
▁ev ac
▁abs ence</w>
▁Ne xt</w>
▁M ike</w>
▁Cons titutional</w>
ol es</w>
j ang</w>
▁stat ements</w>
▁res truc
▁p al
▁gu ess</w>
▁f ighting</w>
rop s</w>
▁piec es</w>
ou ldn</w>
▁sw imming</w>
▁Yeong d
m ark</w>
am ber</w>
▁str ange</w>
▁satis fied</w>
▁perc ent
▁c up</w>
▁br idge</w>
▁Cor p</w>
▁C al
▁wor st</w>
▁ris ks</w>
▁analy ze</w>
▁st ages</w>
▁imp orts</w>
P ark</w>
▁strateg ies</w>
is on
▁produc ing</w>
▁mis sed</w>
▁ins u
▁esc ape</w>
▁bea t</w>
▁M od
▁3 9</w>
on ents</w>
ac tly</w>
▁work place</w>
▁tim ing</w>
▁certif ic
▁b id
op ol
ood les</w>
▁win ners</w>
▁ph ase</w>
▁neighb ors</w>
▁larg er</w>
▁disp utes</w>
▁Th eater</w>
os u</w>
eli hood</w>
▁start ups</w>
▁neighb orhood</w>
▁inc umb
▁R ob
▁re un
▁k itch
▁coun ter
▁clo thing</w>
▁Sw ed
▁POS CO</w>
▁M an</w>
▁inform ed</w>
▁extr em
▁congr at
▁accur ate</w>
▁Ch un
mak er</w>
I C
E R
▁fail s</w>
▁dem entia</w>
▁assa ulted</w>
▁Olymp ic</w>
▁Conf erence</w>
P h
▁low ered</w>
▁hum ans</w>
▁controversi al</w>
▁F uture</w>
ign ment</w>
ch estr
art a</w>
▁sp icy</w>
▁nar row</w>
▁ad ult</w>
▁Des ign</w>
b irth</w>
▁reg arded</w>
▁gr anted</w>
▁differ enti
▁Tu esday</w>
▁Tr aining</w>
▁M er
▁exp iration</w>
▁eng ineering</w>
▁Uzb ek
▁sm oke</w>
▁join ing</w>
▁inaug uration</w>
▁abund ant</w>
▁E U</w>
3 2</w>
▁exp lo
wh ile</w>
urr ence</w>
▁ro yal</w>
▁percent age</w>
▁Fr amework</w>
▁prov ision</w>
▁Prot ection</w>
▁G uro</w>
o h</w>
d ang</w>
D o</w>
▁prob ably</w>
▁ph ilos
▁gu ard</w>
▁dis or
▁crack down</w>
▁allow ance</w>
▁Pl an</w>
▁Da ew
▁subordin ate</w>
▁ris en</w>
▁cur ious</w>
▁H a
ci ent</w>
c el
b in</w>
ap y</w>
▁pref er</w>
▁gu est</w>
▁gener ated</w>
▁Enter pr
▁seri ously</w>
▁incumb ent</w>
▁cons ist
▁bo yfriend</w>
▁b odies</w>
b y
▁w aves</w>
▁Un ions</w>
6 5</w>
▁insp ect</w>
▁circ les</w>
▁bi o</w>
▁O s
▁M BC</w>
un der
j or</w>
f ast</w>
app ing</w>
▁attemp t</w>
il iation</w>
ener y</w>
▁veget ables</w>
▁n ote</w>
▁j us
▁g arbage</w>
▁cop y</w>
▁Th e
ult an
▁off ers</w>
▁Jak arta</w>
ang ible</w>
2 9</w>
▁er ror</w>
▁Uzbek istan</w>
▁Pas tor</w>
id arity</w>
g uk</w>
2 6</w>
▁partic ularly</w>
▁mis sion
▁E d
▁Comm erce</w>
▁C ath
z en</w>
l ication</w>
al ize</w>
▁pos s
▁C lub</w>
▁Pr ize</w>
▁El ection</w>
form ed</w>
▁slow down</w>
▁prom ising</w>
▁consult ations</w>
itic al</w>
▁oper ates</w>
▁l ink</w>
▁f as
▁consult ative</w>
▁Ch osun</w>
arg o</w>
▁st ayed</w>
▁seni ors</w>
▁hel icop
▁H ere</w>
▁Ex hibition</w>
ch on</w>
▁s outh</w>
▁dr aft</w>
▁an gry</w>
a ult</w>
▁utiliz ing</w>
▁perc eption</w>
▁parti ally</w>
▁indic ators</w>
▁Coo per
▁C amp
er g</w>
ach eon</w>
▁roo f</w>
▁insu fficient</w>
k yun</w>
ij eong
Wh en</w>
▁review s</w>
▁inten ded</w>
if ying</w>
f amily</w>
d ays</w>
▁tempor arily</w>
▁sw it
▁Chung nam</w>
" ),</w>
▁fl av
▁E g
▁CC TV</w>
▁w arm
▁se w
▁pas sion</w>
▁Gor yeo</w>
ot o</w>
ital ization</w>
▁k ey
▁fac ed</w>
▁Est ablis
▁D i
ub lic
tw are</w>
▁thor ough</w>
▁den ied</w>
▁def end
▁t emple</w>
▁eff ectively</w>
▁d eal
▁M ir
w in</w>
r ies</w>
on a</w>
F A</w>
▁k illing</w>
▁O kay</w>
x im
ot a</w>
▁ins isted</w>
ell er</w>
▁review ing</w>
▁harm ful</w>
▁b ar</w>
▁Pres idential</w>
▁Jeon nam</w>
ur ches</w>
os s
ijeong bu</w>
▁temper atures</w>
▁wil d</w>
▁sac rif
▁dism ant
▁Sa em
▁G ood</w>
▁D oes</w>
u ate</w>
▁separ ated</w>
▁at trib
▁M embers</w>
▁K ook
▁Hy o</w>
▁Ar ab
ess way</w>
▁un r
▁fa ith
▁W ater</w>
ri d</w>
m other</w>
▁unexp ected</w>
▁uncer tain
▁t uition</w>
▁inv oice</w>
▁5 5</w>
h am</w>
Ch airman</w>
▁f erry</w>
▁Jo b</w>
▁H ist
▁C S
p il</w>
▁reg ret</w>
▁n orth</w>
▁expl ains</w>
▁ex actly</w>
rea t</w>
▁scholar ship</w>
▁re vers
▁di e</w>
▁ass istance</w>
▁Pro per
ac ing</w>
▁piec e</w>
▁en ac
▁Air lines</w>
E X</w>
▁pas tor</w>
▁instit utional</w>
▁ear ned</w>
▁c iting</w>
▁ass igned</w>
▁abs ol
b s</w>
▁volunt eers</w>
▁stud io</w>
▁offici o</w>
▁man power</w>
▁answ ered</w>
▁R ed</w>
▁M yeong</w>
s ang
M W</w>
▁sim ultan
▁refl ecting</w>
▁pres ervation</w>
▁exc luding</w>
▁don ations</w>
▁di et</w>
wh el
▁f ro
▁expr essing</w>
▁critic al</w>
▁consider able</w>
▁com fort</w>
▁advertis ement</w>
▁4 2</w>
on ding</w>
f led
ed ing</w>
u ous</w>
id ers</w>
fled ged</w>
con t
▁su n</w>
▁sit ting</w>
▁m inistr
▁loc als</w>
▁Wh o</w>
▁F oo
▁D e
m yeong</w>
h ow</w>
angh ai</w>
I S</w>
▁sc ores</w>
▁ministr ies</w>
▁mar ks</w>
▁let ters</w>
▁f ab
▁exh aus
▁U ijeongbu</w>
▁strugg le</w>
▁str onger</w>
▁eas ing</w>
su k</w>
ret e</w>
▁sensi tive</w>
▁sa uce</w>
▁pur sue</w>
▁franch ise</w>
▁certific ates</w>
▁b ond</w>
▁subscrib ers</w>
▁sex ually</w>
▁fun ding</w>
▁cli ent</w>
▁artis tic</w>
▁ab norm
▁Con test</w>
o tic</w>
▁Libr ary</w>
ul p
l er</w>
ih eung</w>
un ication</w>
for ce</w>
T X</w>
▁tax p
▁fin es</w>
▁coll aboration</w>
▁Ital y</w>
▁Am b
▁200 6</w>
urr y</w>
s pec
at ings</w>
ac le</w>
▁en v
▁const antly</w>
▁system atic</w>
▁sol utions</w>
▁over whel
▁cons ult</w>
▁co ol
▁brea king</w>
▁Gim po</w>
d ly</w>
▁str ea
▁liter ature</w>
▁Gang dong</w>
▁For ce</w>
o ong</w>
e tit
bl ing</w>
ac hing</w>
▁st ake</w>
▁fos tering</w>
sh in</w>
en th</w>
▁w est</w>
▁Lun ar</w>
fort un
ey ed</w>
e k</w>
▁n oodles</w>
o x</w>
m m</w>
igh ted</w>
▁hear ts</w>
▁dec eased</w>
▁ar b
▁Environ mental</w>
os eong</w>
en tives</w>
▁memb ership</w>
▁m ass
▁c utting</w>
▁an ti
▁Kook min</w>
▁H ome</w>
▁A s
▁202 2</w>
▁academ y</w>
▁P ur
▁w illing</w>
▁up gr
▁sustain able</w>
▁scen es</w>
▁l ength</w>
▁appoin t</w>
▁K E
▁Investig ation</w>
▁Cons um
ed it</w>
▁to il
▁sh ipment</w>
▁prec ious</w>
▁bea ch</w>
▁Hea vy</w>
end ship</w>
9 0</w>
▁was tes</w>
▁tr uck</w>
▁six th</w>
▁sec ondary</w>
▁review ed</w>
▁fac es</w>
▁Rev olution</w>
▁G iven</w>
x it</w>
sib ilities</w>
ond on</w>
n ame</w>
▁tea ch</w>
▁res erve</w>
▁m ir
▁g as
▁e ast</w>
▁crea m</w>
▁affili ates</w>
▁sp ect
▁rev eal</w>
▁emo tions</w>
ro oms</w>
▁subs cription</w>
▁pers u
▁o therwise</w>
▁am az
▁2 50</w>
ur ies</w>
A n
▁manufactur ers</w>
▁interpr et
▁Sh anghai</w>
al uation</w>
P resident</w>
▁rec ession</w>
▁pit cher</w>
▁l ights</w>
▁l ab
ordin ary</w>
ag on</w>
U n
▁succ eed</w>
▁interview s</w>
▁ten sion</w>
▁sti p
▁min or</w>
▁Ever y</w>
▁tar iff</w>
▁r ock</w>
▁T ot
▁S ung
w ork</w>
u pp
ab out</w>
G eneral</w>
▁n av
▁mov es</w>
▁be ef</w>
▁Afric a</w>
o ir</w>
▁trea t</w>
▁short ly</w>
▁fundam ental</w>
▁ass oci
hy uk</w>
▁l ong
▁imp ressive</w>
▁homet own</w>
▁Ma jor</w>
et h</w>
▁th ea
▁o d
▁k ids</w>
▁col onial</w>
▁calc ulated</w>
▁L ondon</w>
li n</w>
a ud
▁inten sive</w>
▁fol k</w>
▁an ger</w>
▁Ch ae</w>
m ade</w>
▁kitch en</w>
▁h in
▁guil ty</w>
▁b an</w>
▁T our</w>
▁J ohn</w>
▁Gyeong ju</w>
oo den</w>
ios ity</w>
▁tr ain
▁gradu ates</w>
▁evalu ate</w>
▁coll ective</w>
b ong</w>
▁prefer ential</w>
▁advertis ements</w>
▁My anm
▁Ir an
▁Han a</w>
▁viol ated</w>
▁pr oud</w>
▁ne ti
▁gir lfriend</w>
▁cont ain</w>
▁conc rete</w>
▁L eg
▁4 1</w>
w ood</w>
r ight</w>
oun ded</w>
▁restric ted</w>
▁1 19</w>
▁sh el
▁qual ification</w>
▁attrac tion</w>
▁achiev ement</w>
▁Trans portation</w>
▁tal ented</w>
▁rea lis
▁Proper ty</w>
▁Judg e</w>
3 7</w>
▁weap on</w>
▁m arg
▁jo y</w>
▁equ ity</w>
▁eng age</w>
it ely</w>
em atic
▁aband oned</w>
▁V arious</w>
▁H ello</w>
▁Bre xit</w>
▁4 8</w>
os c
g yu</w>
▁tur ns</w>
▁rum ors</w>
▁par ks</w>
▁P ost</w>
▁Eu i</w>
in ent</w>
▁deleg ation</w>
▁character ized</w>
▁car bon</w>
▁attrac tions</w>
▁K in
o g</w>
ak ers</w>
▁re hab
▁m agn
▁h ired</w>
▁gre en
▁c y
▁a im</w>
▁Stud ents</w>
▁Eng land</w>
▁Reg ulations</w>
▁K O
itt ees</w>
▁p ending</w>
▁Win ter</w>
chestr a</w>
Jap anese</w>
Jap an</w>
3 1</w>
▁refl ects</w>
▁promo tional</w>
▁inc entives</w>
▁boo ked</w>
▁J am
ul l</w>
b ing</w>
▁wit n
▁expect ation</w>
▁child birth</w>
▁Eg yp
▁utiliz ation</w>
▁tit led</w>
▁conv ention</w>
▁color ful</w>
▁al liance</w>
▁Se od
▁O b
▁Conf uc
ym n
w ith
anc ement</w>
a eg
▁w estern</w>
▁un ions</w>
▁rev ise</w>
▁r atings</w>
▁hea ting</w>
▁fin als</w>
▁Prev ention</w>
▁M emor
li k
is hes</w>
il or</w>
. '</w>
▁worksh op</w>
▁targ ets</w>
▁sub committee</w>
z h
it ability</w>
P I</w>
▁sol ving</w>
▁div id
▁L ike</w>
▁C ustom
ay be</w>
▁rel ocation</w>
▁f ail</w>
▁Myanm ar</w>
▁w alls</w>
▁sav ings</w>
▁pregn ant</w>
▁analy zing</w>
▁Pers ons</w>
▁Exc ept</w>
▁Dong daemun</w>
al ities</w>
20 19</w>
▁sett le</w>
▁m ent
▁ind oor</w>
▁cons ol
▁Wo ori</w>
▁Panmunj om</w>
▁4 3</w>
es ides</w>
▁restruc turing</w>
▁extr a
▁cont ained</w>
▁Ye osu</w>
▁Ch an</w>
▁‘ ‘</w>
▁sof tware</w>
▁revital ization</w>
▁cur iosity</w>
▁c igar
▁P eri
▁M ac
▁I ts</w>
bl ed</w>
▁sm ell</w>
▁mon etary</w>
▁imp ea
▁every day</w>
▁brea d</w>
▁b ow
▁H eo</w>
▁An y</w>
ri c</w>
et e</w>
▁uni form</w>
▁opp osite</w>
▁mar ked</w>
▁h as
▁Jeon buk</w>
▁Co ast</w>
▁B ible</w>
▁200 5</w>
enti ve</w>
M Z</w>
▁enti ty</w>
on ly</w>
iv alent</w>
▁ind ir
▁C and
▁B o</w>
th erm
▁suppor ters</w>
▁ch urches</w>
ul atory</w>
▁un pr
▁su fficient</w>
▁democr acy</w>
▁construc ted</w>
er ated</w>
▁un employment</w>
▁spons ored</w>
▁rob ot</w>
▁dem anding</w>
▁crow ded</w>
▁clai ming</w>
▁c argo</w>
▁4 4</w>
qu es</w>
▁I m
▁Daew oo</w>
rup ted</w>
ess ly</w>
) "</w>
▁sh ock</w>
▁semin ar</w>
▁pled ge</w>
▁p ace</w>
▁hea v
▁gl ad</w>
▁ear th</w>
id ate</w>
i aries</w>
h un</w>
ea ble</w>
▁minim ize</w>
▁Lea der</w>
▁B und
ear ning</w>
▁nur sing</w>
▁hom ep
▁furn iture</w>
▁c ycle</w>
▁accommod ation</w>
▁Prosec utor</w>
▁Or gan
▁Establis hment</w>
▁Chungcheong nam</w>
th w
g yo</w>
ach es</w>
▁so il</w>
▁nov el</w>
▁fre e
▁R en
▁Jin ju</w>
fin ding</w>
▁S o
▁C ard</w>
res sions</w>
erg ency</w>
b eom</w>
5 5</w>
▁rest ore</w>
▁respon ses</w>
▁Sp an
▁S BS</w>
▁Foo tball</w>
vis or</w>
man agement</w>
S C</w>
M y</w>
▁surpr ise</w>
▁r ow</w>
▁happ ens</w>
▁equ ality</w>
▁ch at</w>
▁ch a
▁C J</w>
▁t on
▁g am
▁conf usion</w>
▁c ust
▁b ear</w>
▁Democr acy</w>
ou ts</w>
g eneral</w>
en a</w>
e xt</w>
am ination</w>
S ince</w>
▁wel come</w>
▁w ooden</w>
▁sc enery</w>
▁cong lom
▁Expr essway</w>
▁Amb assador</w>
unc tion</w>
row ing</w>
m ission</w>
▁mak eup</w>
▁conf ident</w>
▁acqu ired</w>
▁L ooking</w>
▁F ur
▁F SS</w>
eep er</w>
ag ram</w>
▁philos op
▁extra ordinary</w>
▁c at</w>
▁Ab ove</w>
et ro
▁res ource</w>
▁occ as
▁dist ingu
▁acc es
ran king</w>
e ul</w>
▁win ds</w>
▁mov ements</w>
▁h ole</w>
▁h ire</w>
▁corresp onding</w>
▁coll ea
▁st om
▁ex ist</w>
▁co al</w>
▁cl er
▁ch ron
▁Pl aza</w>
▁Offic ial</w>
os ted</w>
▁sm aller</w>
▁kn ows</w>
▁gir ls</w>
▁calc ulation</w>
g ers</w>
aes ong</w>
▁help ful</w>
▁d ealing</w>
▁cl oud</w>
▁ap ology</w>
u h
sh aped</w>
il eg
g ues</w>
▁surv ival</w>
▁instruc tors</w>
▁ex it</w>
▁any where</w>
▁M un
▁Int egr
▁G umi</w>
ymn as
li m</w>
ig rap
ar i</w>
▁li ked</w>
▁doc um
▁Pr ivate</w>
▁D ream</w>
w er</w>
b ak</w>
▁legisl ative</w>
▁corresp ond
▁abs or
▁O k
ver se</w>
over s</w>
em por
ag eous</w>
C C</w>
▁ste pped</w>
▁m ort
▁hop es</w>
▁en ds</w>
▁defic it</w>
D A
▁rehab ilitation</w>
▁r oll
▁dang er</w>
▁ch ampionship</w>
us an</w>
V s</w>
▁symb ol
▁kn owing</w>
▁in ning</w>
▁g ifts</w>
▁ackn owled
▁Peri od</w>
ir t</w>
▁thous ands</w>
▁gener ally</w>
▁det ention</w>
▁Inst ead</w>
ul ates</w>
on t
g ent
▁spec ies</w>
▁m echan
▁guarant eed</w>
▁f ever</w>
▁charg ing</w>
▁Span ish</w>
▁L i
▁J a</w>
eung po</w>
d eok</w>
▁st ro
▁Aud it</w>
k age</w>
al k
2 00</w>
▁magaz ine</w>
▁intell ectual</w>
udg et</w>
or c
em a</w>
▁valu able</w>
▁pro l
▁B MW</w>
si us</w>
0 5</w>
▁se ts</w>
▁politic ians</w>
▁pat ro
▁disp osition</w>
al ition</w>
▁L ake</w>
▁Dru g</w>
A N</w>
▁tr a
▁tal ents</w>
▁propos als</w>
▁pr ide</w>
▁obs erv
4 8</w>
▁nerv ous</w>
▁h ate</w>
▁T ea
▁M ean
us h
il ateral</w>
i ors</w>
en ues</w>
▁attemp ted</w>
▁advis ory</w>
▁adjus ted</w>
form ing</w>
▁suppl ementary</w>
▁spea king</w>
▁mo ist
▁h itting</w>
▁des per
▁apolog ize</w>
▁T aek
▁Cr itic
p oint</w>
f ood</w>
as tically</w>
ak a</w>
▁recons truction</w>
▁fl oo
▁ass istant</w>
▁Ac tress</w>
aw n</w>
▁gr ound
▁dismis sal</w>
▁cons ci
▁D r</w>
uc tion</w>
ik es</w>
▁r us
▁imp ression</w>
▁grad uation</w>
▁at e</w>
▁W ill</w>
mon th</w>
ett es</w>
b ur
3 3</w>
▁t un
▁ref er
▁monit or</w>
▁equ ivalent</w>
▁bas ketball</w>
▁G ap
▁B uilding</w>
p ut</w>
▁withdr aw</w>
▁notif ication</w>
iti s</w>
as hed</w>
▁s amples</w>
▁dr ess</w>
▁R ail
▁Auth ority</w>
▁7 5</w>
l im
eal ed</w>
ad y</w>
▁rem in
▁quar ters</w>
▁inst alling</w>
▁S il
▁Op en</w>
tern s</w>
duc tion</w>
Al though</w>
▁no ted</w>
▁l yr
▁inn oc
▁fl u
▁exchang ed</w>
▁comm ander</w>
▁Stud ies</w>
3 4</w>
▁st ands</w>
▁c ast</w>
▁Yeongd eungpo</w>
▁Mongol ia</w>
▁Ad v
im p
▁liv elihood</w>
▁form s</w>
▁D oo</w>
▁D aily</w>
S E
▁typ ical</w>
▁o o</w>
▁conn ecting</w>
▁competi tions</w>
at eful</w>
▁war ned</w>
▁un known</w>
▁sp ar
▁renew able</w>
▁homep age</w>
▁Offic er</w>
▁N ot
ut ation</w>
▁t end
▁inten se</w>
▁exc eeding</w>
▁el ements</w>
▁def eat</w>
▁Ang el
f ic</w>
az e</w>
▁res ume</w>
▁psych ological</w>
▁experi encing</w>
▁doc tors</w>
▁ch ances</w>
▁b id</w>
▁G ender</w>
▁Ag reement</w>
▁Y e</w>
▁Th ai</w>
▁Han jin</w>
▁Cel sius</w>
▁Ar gent
or tion</w>
in ery</w>
c m</w>
▁virt ual</w>
▁show case</w>
un ded</w>
ch ment</w>
▁l ot
▁jud iciary</w>
▁dea ths</w>
▁F C</w>
▁Bo th</w>
all igrap
▁depar ture</w>
▁St ar</w>
▁19 6
▁moun tains</w>
▁m ys
▁fac ilit
▁exc ited</w>
▁autom obile</w>
▁Swed en</w>
▁E mb
od es</w>
g ar</w>
▁targ eting</w>
▁acc ept
▁W e
▁Pr em
▁Mean while</w>
es h
enti ally</w>
▁pos ting</w>
▁minis ters</w>
▁immedi ate</w>
▁chea p</w>
▁cas ual
▁telecomm unication</w>
▁sl eeping</w>
▁max im
▁break fast</w>
▁Rep ublic
▁N etw
▁Is ra
▁F ederal</w>
m o</w>
ingd om</w>
▁tel eph
▁prim ary</w>
▁accoun ted</w>
▁Insp ection</w>
r ep
i efs</w>
av il
▁succ ession</w>
▁p ool</w>
▁conver gence</w>
empor ary</w>
. .</w>
▁i Ph
▁ex istence</w>
▁c ute</w>
▁arb itr
▁T om
▁I D</w>
▁C as
▁Bro adc
al y
▁st y
▁pos ts</w>
▁orig in</w>
▁an cient</w>
▁St art
▁K az
▁Con v
ch o</w>
▁hea ded</w>
▁coup les</w>
▁Ind ian</w>
▁Conf ederation</w>
▁7 00</w>
▁m ine</w>
▁celebr ities</w>
▁Ky ung
s eon</w>
el ection</w>
▁semiconduc tors</w>
▁chea per</w>
▁Ac ts</w>
ectiv eness</w>
anti al</w>
▁start up</w>
▁govern ance</w>
▁arg ument</w>
▁af ter
▁R ather</w>
▁libr aries</w>
▁extrem ely</w>
▁estim ate</w>
▁diver si
▁dec isions</w>
▁b oss</w>
▁Seod aemun</w>
▁D MZ</w>
▁Ch e
▁Al l
us tment</w>
per ity</w>
lik ely</w>
it ably</w>
i g</w>
cl ock</w>
▁sign al</w>
▁pro ve</w>
▁U K</w>
ay a</w>
A I
▁ob st
▁mis under
▁h ub</w>
▁ear n</w>
▁Sub s
▁An yang</w>
ap es</w>
▁urg ently</w>
▁Sch ol
ti s</w>
eti n</w>
ch un</w>
ab uk</w>
▁tri als</w>
▁spec ulation</w>
▁sc ulp
▁destro yed</w>
▁confron tation</w>
▁attrac tive</w>
▁G reat</w>
▁ret ail</w>
▁har v
▁finis hing</w>
▁disch arge</w>
▁compl icated</w>
▁M c
▁FT C</w>
5 3</w>
▁ped estr
▁o x
el ine</w>
▁un likely</w>
▁coun ter</w>
▁P C</w>
▁tr ips</w>
▁gen re</w>
at o</w>
▁virt ually</w>
▁mo thers</w>
▁Sm art</w>
▁E un
▁res istance</w>
▁remov al</w>
▁Me eting</w>
▁Man ch
▁L if
▁CS AT</w>
▁Bel g
▁B u
h yung</w>
h ak</w>
▁flo ors</w>
▁circ le</w>
▁c able</w>
▁Iran ian</w>
▁Congr ess</w>
▁B ang
un gr
oun ting</w>
iver s</w>
ir able</w>
app ropriate</w>
0 1</w>
▁str i
▁see kers</w>
▁pr ed
▁pass es</w>
▁organ ic</w>
▁conn ect</w>
▁char t</w>
▁boo th</w>
j ak</w>
▁ph armaceutical</w>
▁pea c
▁neighb oring</w>
▁me ets</w>
▁g ri
▁chem ical</w>
▁H oll
ang yo</w>
▁slow ly</w>
▁n ative</w>
an ches</w>
▁wit ness</w>
▁stric t</w>
▁prol ong
▁off line</w>
▁fin alized</w>
▁ch eering</w>
▁br inging</w>
▁P ri
▁Inst agram</w>
li ances</w>
er ator</w>
▁sav ed</w>
▁obs erved</w>
▁law yers</w>
▁laun ching</w>
▁incor por
▁K n
▁At t
g i
▁short age</w>
▁s ounds</w>
▁dist inc
▁discus sing</w>
▁G un</w>
▁y ou
▁sp ot
▁num erous</w>
▁norm ally</w>
▁Ch amp
ten ham</w>
n ia</w>
it ain</w>
▁super ior</w>
▁recip i
▁rain y</w>
▁comm and</w>
▁Law maker</w>
▁B udget</w>
er ti
▁philosop hy</w>
▁op tion</w>
▁jump ed</w>
▁for t
▁amb assador</w>
▁Y eong</w>
▁Chung buk</w>
▁Ar ea</w>
e z</w>
anc er</w>
am un</w>
▁re tr
▁pr ay</w>
▁inf ants</w>
▁inev itably</w>
▁emb arr
▁communic ations</w>
▁ban king</w>
u el
is s
▁pan el</w>
▁ordin ances</w>
▁m illions</w>
▁Cr edit</w>
str eam</w>
si n</w>
over ing</w>
lif e</w>
all ery</w>
▁rad io</w>
▁ra ises</w>
▁part ners</w>
▁ir on</w>
▁form al</w>
▁contr ary</w>
▁contain er</w>
▁analys ts</w>
▁Com par
with standing</w>
▁resul ted</w>
▁pra ised</w>
▁par ent</w>
▁l ed
▁hea tw
▁coll abor
▁U N</w>
▁T ower</w>
ra is
or ship</w>
in ite</w>
▁purchas es</w>
▁ow nership</w>
▁interpret ation</w>
▁immigr ants</w>
▁fru its</w>
▁compl eting</w>
▁Bl ack</w>
▁B ong</w>
ot ten</w>
in f
▁threa t</w>
▁t ied</w>
▁se iz
▁decl ined</w>
▁Stand ards</w>
▁A v
ro c
4 9</w>
▁sign ature</w>
▁integr ation</w>
▁chron ic</w>
▁Rev iew</w>
▁Pal ace</w>
ten sion</w>
ow ad
▁t ough</w>
▁princip les</w>
▁leg s</w>
▁en ters</w>
▁cons titutional</w>
▁autonom y</w>
▁E as
Ac t</w>
3 8</w>
▁reor ganization</w>
▁ref erence</w>
▁cons isting</w>
▁Mok po</w>
▁Jin ping</w>
owad ays</w>
ea h</w>
▁w all
▁un cl
▁rea ching</w>
▁h its</w>
▁b on
▁s essions</w>
▁laug h
▁M o
y wood</w>
f ather</w>
at er
▁week ends</w>
▁separ ation</w>
▁larg ely</w>
▁inter f
▁diagn osed</w>
▁ban ned</w>
▁Pro gr
▁Memor ial</w>
▁C N
▁4 6</w>
c end
▁tas tes</w>
▁casual ties</w>
▁br anches</w>
v ement</w>
lo or</w>
al ism</w>
▁ret al
▁regul arly</w>
▁inves ting</w>
▁identi fication</w>
▁dr inks</w>
▁corr ection</w>
▁adv ised</w>
▁M ic
▁I m</w>
min ute</w>
b or
an tic</w>
▁cult ures</w>
▁contac ted</w>
▁b lo
▁Go v</w>
▁Comm unications</w>
form ance</w>
em pl
e ously</w>
▁lea ked</w>
▁indic ted</w>
▁ex trac
▁cl imb
▁chec ks</w>
▁S im
▁wor ld
▁pref erence</w>
▁m oon</w>
▁d e</w>
▁U n</w>
▁Su per</w>
▁Cap ital</w>
A m
▁sil ver</w>
▁repres enting</w>
▁man ual</w>
▁democr atic</w>
▁8 00</w>
ea ting</w>
▁c ook</w>
▁Re form</w>
su pp
eep s</w>
▁par agraphs</w>
▁fair ness</w>
▁crea tes</w>
▁ar ms</w>
▁For ces</w>
j ud
ins eng</w>
▁teleph one</w>
▁sem i</w>
▁produc er</w>
▁pass age</w>
▁lyr ics</w>
▁hea ted</w>
▁comb ines</w>
▁Commun ication</w>
oc ol
in t</w>
▁stea dy</w>
▁pursu ed</w>
▁nec k</w>
▁n ights</w>
▁mat h</w>
▁el ev
▁correspond ent</w>
▁but ton</w>
▁an c
▁K B
) ."</w>
▁un s
▁ship building</w>
▁sc oring</w>
▁commercial ization</w>
▁S iheung</w>
pl us</w>
h t</w>
▁ton ight</w>
▁proc esses</w>
▁impea chment</w>
▁Y eo</w>
▁P acific</w>
▁D om
ur er</w>
e zz
ac ter
▁trans lation</w>
▁produc ers</w>
▁out brea
▁loc ations</w>
▁high l
▁heal ing</w>
▁exper im
▁Gim hae</w>
f all</w>
D P</w>
▁en ding</w>
▁bur ied</w>
▁Cheong do</w>
▁le g</w>
▁foun der</w>
▁Al ong</w>
y b
f ield</w>
P l
▁un av
▁pat tern</w>
▁netw orks</w>
▁dis b
▁comm od
▁bo xes</w>
▁T est</w>
▁Kin dergar
on ic</w>
m un</w>
▁wors ening</w>
▁uncl ear</w>
▁prem iums</w>
▁juven ile</w>
▁fri endship</w>
▁c oin
▁Tr ad
▁Gwang hw
▁Em ergency</w>
ul ative</w>
i ers</w>
▁sec onds</w>
▁person ally</w>
▁grand mother</w>
▁encour aged</w>
▁discharg ed</w>
▁P angyo</w>
▁G ame</w>
yang ju</w>
▁susp end</w>
▁sev enth</w>
▁outl ook</w>
▁bat hroom</w>
▁E quality</w>
▁D av
▁Ch amber</w>
▁B ol
▁B al
um es</w>
oun ted</w>
m eter</w>
ematic s</w>
avil ion</w>
▁decr easing</w>
▁amaz ing</w>
▁Br itain</w>
▁B yeong</w>
xim ately</w>
se op</w>
s el</w>
p ool</w>
ac tive</w>
▁un ified</w>
▁ultr a</w>
▁s an
▁r iding</w>
▁jus tif
▁h es
▁equ al</w>
▁dir ected</w>
▁ar gue</w>
▁S orry</w>
▁F our</w>
▁laugh ter</w>
▁instruc tor</w>
▁bid ding</w>
h e</w>
▁us eful</w>
▁threa tened</w>
▁t rop
▁symb ol</w>
▁sw ing</w>
▁sp ots</w>
▁l isting</w>
▁inj uries</w>
▁ill ness</w>
▁const ant</w>
▁cond ition
▁bull etin</w>
▁Sec ond</w>
▁4 7</w>
g ok</w>
▁refug ee</w>
▁r oles</w>
▁in appropriate</w>
▁cal m</w>
▁am ounts</w>
▁Gun san</w>
▁Emb assy</w>
n ec
ch airperson</w>
▁prolong ed</w>
▁port al</w>
▁lif ted</w>
▁des truction</w>
▁c rew</w>
▁Ch ar
in v
▁s and
▁p apers</w>
▁enc oun
id able</w>
ee ing</w>
G yeong
▁or dering</w>
▁fis heries</w>
▁entreprene urs</w>
▁encour aging</w>
▁emb ezz
▁D a</w>
▁Consum er</w>
▁ver ify</w>
▁sugg est</w>
▁pic ked</w>
▁har der</w>
▁hand led</w>
▁L ord</w>
▁B er
t ural</w>
ac ket</w>
▁vis ible</w>
▁design s</w>
▁cons tit
w are</w>
▁w ouldn</w>
▁rep ayment</w>
▁reac tion</w>
▁pl ung
▁pl ate</w>
▁pat terns</w>
▁o m
▁l on
▁j unior</w>
▁dispat ch</w>
▁def ined</w>
▁attac ks</w>
▁Nam yangju</w>
ab b
▁t ight</w>
▁t ab
▁iPh one</w>
▁comp rom
▁cler k</w>
▁arr ival</w>
▁Inter ior</w>
▁5 1</w>
▁4 9</w>
pr iced</w>
onc iliation</w>
ific ally</w>
d ep
▁thous and</w>
▁invol vement</w>
sch ool</w>
▁sub stances</w>
▁over h
▁neti zens</w>
▁d orm
▁T or
▁Bi o
ungr i</w>
t a</w>
pl aces</w>
l ong</w>
al es</w>
3 6</w>
▁under way</w>
▁st ating</w>
▁pat ri
▁inves tor</w>
▁ex amples</w>
▁des k</w>
▁Kum ho</w>
▁Dong jak</w>
▁Budd ha</w>
tion ary</w>
st ory</w>
▁sl og
▁pr estig
▁V al
▁N ak
▁Hist ory</w>
▁trad ition</w>
▁techni ques</w>
▁rep utation</w>
▁r ains</w>
▁pass port</w>
▁distrib ute</w>
▁Pro c
▁Cooper ative</w>
r an</w>
▁professi on
▁part nership</w>
▁f at</w>
▁compl ained</w>
▁S an</w>
▁N A
▁Gwanghw amun</w>
▁Conv ention</w>
y oon</w>
att ached</w>
▁spea ker</w>
▁sl ump</w>
▁f eared</w>
▁B ong
▁t igh
▁stat ue</w>
▁seiz ure</w>
▁nom in
▁Every one</w>
▁Ass et</w>
▁An n
ter ies</w>
▁retur ns</w>
▁perm it</w>
▁investig ative</w>
▁e gg
▁Y eah</w>
▁Sh ins
▁Bur ning</w>
s let
5 6</w>
▁att orney</w>
▁Jeoll abuk</w>
b al</w>
C D</w>
5 8</w>
▁vess els</w>
▁schol ars</w>
▁n ations</w>
▁has n</w>
ob ong</w>
▁sh ift</w>
▁prot ecting</w>
▁patro l</w>
▁l od
▁inf r
▁g lob
▁eng in
▁deteri or
g overning</w>
es is</w>
▁war eh
▁tax ation</w>
▁t end</w>
▁shou lder</w>
▁immigr ation</w>
▁hop ed</w>
▁bloc king</w>
▁D ok
st an</w>
m oon</w>
em an</w>
▁system atically</w>
▁reor gan
▁r ank</w>
▁prof itability</w>
▁M il
▁K aesong</w>
re ts</w>
▁reg eneration</w>
▁realis tic</w>
▁Se ungri</w>
▁An y
n i</w>
es th
an ting</w>
. “</w>
▁roo t</w>
▁rel atives</w>
▁hor se</w>
▁harm on
▁cap tured</w>
▁S an
or ized</w>
hy up</w>
es p
▁t ac
▁sh ipped</w>
▁mon opol
▁mat h
▁h an
r ont</w>
k g</w>
▁sugg ests</w>
▁s ought</w>
▁pres erve</w>
▁pos iti
▁obj ection</w>
▁des irable</w>
▁cons ervation</w>
▁camer as</w>
▁agre ements</w>
▁W ol
▁Lif elong</w>
▁Ac t
tion ally</w>
l ad
er ates</w>
ent o</w>
em ical</w>
▁ter min
▁prot ected</w>
▁fil es</w>
▁dis ability</w>
▁boo m</w>
▁Taek wondo</w>
▁S uch</w>
▁Man ager</w>
▁H ope</w>
am ing</w>
▁pub lication</w>
▁gr ateful</w>
▁determ ination</w>
▁US D</w>
▁S sang
▁Arab ia</w>
reg ular</w>
ison ment</w>
ak ed</w>
9 2</w>
7 5</w>
▁writ ers</w>
▁qu iet</w>
▁pun ished</w>
▁fl uct
▁Tot tenham</w>
▁P u
▁Kw ak</w>
A r
▁abol ition</w>
▁In c
▁Ar ch
r ae</w>
ar c
▁su per</w>
▁stom ach</w>
▁rep lied</w>
▁opp osing</w>
▁cos t
▁concentr ate</w>
▁commemor ate</w>
▁Turk ish</w>
▁S illa</w>
▁Co ach</w>
▁Chil d</w>
h ery</w>
ap h
an ies</w>
▁produc tivity</w>
▁fres h
▁exp ressions</w>
▁ch ain</w>
▁Austral ian</w>
▁mas k</w>
▁fea turing</w>
▁dep end
▁def eated</w>
▁Represent atives</w>
co in</w>
▁t ower</w>
▁hea ding</w>
▁fe wer</w>
▁f are</w>
ene z
▁peti tions</w>
▁in ner</w>
▁in duc
▁fri ed</w>
▁deleg ated</w>
▁app liances</w>
▁H ae
ir s</w>
e try</w>
b orn</w>
S A</w>
5 7</w>
▁week ly</w>
▁r ises</w>
▁quar ant
▁mot or</w>
▁fea tured</w>
▁dir ections</w>
▁dep r
▁decor ated</w>
▁Vol unt
▁N uclear</w>
▁Hu h</w>
▁t ens</w>
▁surv ive</w>
▁su gar</w>
▁sav ing</w>
▁mist akes</w>
▁laug h</w>
▁grow s</w>
▁d ic
▁U N
▁D oc
▁200 4</w>
yc les</w>
eg ae</w>
5 2</w>
▁med iation</w>
▁bur ned</w>
▁app ar
▁V enez
s l
g y
▁seas ons</w>
▁propor tional</w>
▁log ic</w>
▁fr ame</w>
▁en em
▁dep ends</w>
Ch airperson</w>
▁tr easury</w>
▁gu ys</w>
▁eff ectiveness</w>
▁clin ical</w>
▁199 0</w>
us ted</w>
ain t</w>
ER S</w>
▁t ells</w>
▁Sou thern</w>
▁200 2</w>
therm ore</w>
▁transi tion</w>
▁per p
▁issu ing</w>
▁ec ological</w>
▁Exper ience</w>
▁Conc ert</w>
▁C abinet</w>
ch airman</w>
DA Q</w>
▁term inal</w>
▁t elling</w>
▁pro gressive</w>
▁business men</w>
▁R ight</w>
uc k
ri ental</w>
on ze</w>
▁th ick</w>
▁rad i
▁increas ingly</w>
▁h i
▁Re uters</w>
▁Med ia</w>
▁Indones ian</w>
▁C amp</w>
r yong</w>
5 1</w>
3 00</w>
▁vis ual</w>
▁underst ood</w>
▁irreg ular
▁comp etit
▁Techn o</w>
▁Netw ork</w>
▁Gap yeong</w>
ill er</w>
f ish</w>
am iliar</w>
3 9</w>
▁l ighting</w>
▁exc iting</w>
▁coordin ation</w>
▁Venez uel
▁Kindergar ten</w>
▁D et
es el</w>
ec e</w>
L ee</w>
▁impr isonment</w>
▁firef ighters</w>
▁class ical</w>
▁ch air</w>
▁bel t</w>
▁Po cheon</w>
p ublic</w>
o y</w>
at ching</w>
▁mach ines</w>
▁id e
▁exc eeds</w>
▁G M</w>
▁Cand idate</w>
ri p
enti onal</w>
▁w ir
▁reg ret
▁k eeps</w>
▁heatw ave</w>
▁V eter
ev ision</w>
▁we b</w>
▁special izing</w>
▁Kak a
▁Holl ywood</w>
▁Bund ang</w>
w eek</w>
ug ht</w>
od a</w>
li t</w>
ast al</w>
ass ing</w>
▁vis a</w>
▁recru iting</w>
▁pur if
▁p ure</w>
▁lik es</w>
▁em issions</w>
▁d ump
▁clos ure</w>
▁O ut
▁N a
▁B lo
u ating</w>
tur n</w>
O s</w>
N G</w>
4 6</w>
▁t esting</w>
▁d awn</w>
▁d ancing</w>
▁Dis abled</w>
▁C ent
in ter
eti me</w>
▁W ang</w>
os h
it ary</w>
is k</w>
g an</w>
ec om</w>
c omp
▁ther apy</w>
▁subm ission</w>
▁roo f
▁p et</w>
▁n or</w>
▁m alls</w>
▁Prev iously</w>
▁M unicipal</w>
l arg
▁t ools</w>
▁stor ed</w>
▁prohib ited</w>
▁pr ayer</w>
▁obj ects</w>
▁l inking</w>
▁flav or</w>
▁defend ant</w>
▁asp ects</w>
▁No h</w>
▁Compar ed</w>
y nam
ig ent</w>
i z</w>
▁requ esting</w>
▁mo tiv
▁mission ary</w>
▁bir ds</w>
▁autom atic</w>
▁M e</w>
▁Dis c
▁5 4</w>
at ell
▁trav el
▁sc at
▁dr iven</w>
▁Shins egae</w>
▁P ay</w>
” ,</w>
um a</w>
am ation</w>
a ul</w>
▁technolog ical</w>
▁sn acks</w>
▁repres ent</w>
▁pros pective</w>
▁p ig
▁hos ting</w>
▁ed ge</w>
▁disapp ear</w>
▁dep loyed</w>
▁book st
▁W all</w>
▁R ea
▁Not withstanding</w>
▁I cheon</w>
▁B io</w>
▁Autonom y</w>
ul ty</w>
oc ket</w>
angu ages</w>
▁pref erred</w>
▁l ending</w>
▁fl ood</w>
▁fail ing</w>
▁dis ag
▁comp eting</w>
▁c au
▁bel ongs</w>
▁ar en</w>
▁Chun cheon</w>
▁1 80</w>
slet ter</w>
lis t</w>
▁struc tural</w>
▁restric tion</w>
▁l ugg
▁k ill</w>
▁fir ed</w>
▁expl aining</w>
▁bl ow</w>
▁Kaz ak
izz a</w>
S e
I A</w>
▁th row</w>
▁sear ching</w>
▁res ort</w>
▁re ign</w>
▁h urry</w>
▁exemp ted</w>
▁en able</w>
▁d ign
▁app ropri
▁ag ents</w>
▁U p
▁H om
▁Dru king</w>
▁19 80</w>
forc ed</w>
aw a</w>
ati t
▁wat ers</w>
▁st er
▁serv er</w>
▁led ger</w>
▁is ol
▁dist ur
▁C O
w ord</w>
pr ing</w>
▁st ops</w>
▁rea pp
▁mid st</w>
▁mar itime</w>
trib ution</w>
atis tical</w>
0 8</w>
▁poll ut
▁S ure</w>
▁Happ y</w>
▁Gu ard</w>
ous es</w>
▁you ths</w>
▁wh oles
▁l abor
▁V is
▁En tr
w anese</w>
% ).</w>
▁relation ships</w>
▁h al
▁Angel es</w>
r es</w>
M ayor</w>
▁was hing</w>
▁unav o
▁scienti fic</w>
▁negl igence</w>
▁interv ention</w>
▁g un</w>
▁f ant
▁Sun cheon</w>
▁N ations</w>
ye om</w>
4 7</w>
▁viol ent</w>
▁syn ergy</w>
▁compens ate</w>
▁commemor ative</w>
▁co ex
▁c alligrap
▁S em
▁Argent ina</w>
b ody</w>
am i</w>
ac ts</w>
▁uni forms</w>
▁t ies</w>
▁manufactur er</w>
▁hy gi
▁foo tage</w>
▁egg s</w>
▁ch ocol
▁T ong
▁Is l
n ings</w>
mo king</w>
k ings</w>
▁prec ed
▁fulf ill</w>
▁day time</w>
▁The ir</w>
▁Res p
iv ely</w>
g e
▁thr ew</w>
▁publis hing</w>
▁lugg age</w>
▁inv ite</w>
▁form ing</w>
▁exc ep
▁elect oral</w>
▁down lo
▁cl ar
▁Tai wanese</w>
▁O per
▁L os</w>
▁E th
▁B an
▁w ealth</w>
▁journal ists</w>
▁fl ights</w>
▁exam s</w>
▁acc us
▁T alk</w>
▁KOS PI</w>
▁shoo t</w>
▁quarant ine</w>
▁green house</w>
▁coun sel</w>
▁comp onents</w>
▁character istic</w>
▁S k
urr ing</w>
s ection</w>
m ony</w>
id ation</w>
A D</w>
▁qu it</w>
▁out s
▁child hood</w>
▁categ ories</w>
in qu
dr y</w>
▁rec overed</w>
▁pres enting</w>
▁pour ed</w>
▁met al</w>
▁l anguages</w>
▁disp os
▁describ ed</w>
▁concer ts</w>
▁c ope</w>
▁aud itor</w>
▁Y eo
▁Nex en</w>
▁B it
▁An seong</w>
▁world wide</w>
▁s ing</w>
▁resc ued</w>
▁recyc ling</w>
▁rec all</w>
▁outbrea k</w>
▁op ens</w>
▁ob ject</w>
▁gu ards</w>
▁absol ute</w>
▁Yang cheon</w>
▁Eas tern</w>
▁Critic s</w>
im a</w>
der ful</w>
cont in
▁veter ans</w>
▁unf amiliar</w>
▁sew age</w>
▁r ot
▁public ity</w>
▁peac eful</w>
▁ob v
▁esc al
▁enthusi astic</w>
▁bat t
▁G oseong</w>
▁D al
▁7 2</w>
▁prov ed</w>
▁depos its</w>
▁b ad
▁W ith
▁Ev aluation</w>
rais al</w>
e ived</w>
b ang</w>
ant a</w>
5 9</w>
▁unavo idable</w>
▁tr ig
▁play ground</w>
▁lic ens
▁her self</w>
▁gu ardian</w>
▁cl us
▁Yeon cheon</w>
▁M el
n ic</w>
m ly</w>
ess ary</w>
▁transpar ent</w>
▁simultan eously</w>
▁pain ful</w>
▁mar king</w>
▁hot els</w>
▁Bas ic</w>
esti ons</w>
atit ude</w>
▁p ill
▁fin ancing</w>
▁circum st
▁W r
▁D obong</w>
▁Broadc asting</w>
ur ers</w>
und ae</w>
in ning</w>
h ers</w>
h aps</w>
av ed</w>
▁str eam</w>
▁reb ound</w>
▁n ob
▁k ick</w>
▁contro lled</w>
▁ag es</w>
▁Ch ul</w>
▁Afric an</w>
▁202 1</w>
ec tion
ail ing</w>
0 7</w>
▁wor ship</w>
▁thea ters</w>
▁ta ught</w>
▁music ians</w>
▁dem ol
▁cap able</w>
▁C E
▁< <</w>
it er</w>
eb y</w>
▁pres ents</w>
▁negoti ating</w>
▁challeng es</w>
▁archit ecture</w>
▁KOS DAQ</w>
▁D ance</w>
is ms</w>
G A</w>
▁rel iev
▁re verse</w>
▁prin ting</w>
▁obj ective</w>
▁ex ists</w>
▁bel ief</w>
▁Confuc ian</w>
y m</w>
i ated</w>
E ven</w>
▁s ells</w>
▁rob ots</w>
▁obs ervation</w>
▁m igr
▁imp osition</w>
▁exp osure</w>
▁St atistics</w>
▁S ok
ymnas ium</w>
▁sal t</w>
▁mach inery</w>
▁influ enced</w>
▁conf essed</w>
▁celebr ation</w>
▁bu yer</w>
▁Hw a</w>
w a</w>
r ase</w>
in ary</w>
c ent</w>
T r
▁tr ag
▁quar ter
▁prestig ious</w>
▁Tr easury</w>
▁Pr ess</w>
▁Comp anies</w>
▁6 3</w>
ic ked</w>
▁outl ets</w>
▁op tions</w>
▁lif est
▁l aid</w>
▁er r
▁confir ming</w>
▁boo ths</w>
▁R oom</w>
▁Champ ions</w>
▁Bea ch</w>
pr ivate</w>
osp el</w>
g overnment</w>
d ney</w>
▁prov isional</w>
▁histor ic</w>
▁contrib uting</w>
▁c uts</w>
▁Ch eol</w>
▁B ook</w>
rov ement</w>
dro me</w>
con s
b ae</w>
▁wh e
▁w ishes</w>
▁reveal ing</w>
▁gradu ated</w>
▁draw s</w>
▁chec k
▁camp ing</w>
▁Progr am</w>
▁Dok do</w>
▁Cons titution</w>
▁5 9</w>
os a</w>
or able</w>
ar io</w>
4 1</w>
▁testi mony</w>
▁t emp
▁stabil ize</w>
▁retir ed</w>
▁ran kings</w>
▁func tional</w>
▁cover age</w>
▁Trad itional</w>
▁Prem ier</w>
▁H er</w>
▁Ex tension</w>
ail ed</w>
ad o</w>
▁work places</w>
▁parliam ent</w>
▁over time</w>
▁in land</w>
▁happ ening</w>
▁go alk
▁for ests</w>
▁fl ag
▁faith fully</w>
▁bot tle</w>
▁Sy ri
▁G eo
u ated</w>
ivers al</w>
eng er</w>
a uth
4 3</w>
▁s oph
▁inv itation</w>
▁inv ent
▁ess ay</w>
▁Sy dney</w>
▁Super intendent</w>
▁Fac ilities</w>
r on</w>
ew or
H e</w>
4 4</w>
▁brib ery</w>
▁Sh ip
▁N ak</w>
▁H am
w ang
l eep</w>
ag o</w>
ac c
▁uplo aded</w>
▁un st
▁trans formed</w>
▁organiz ing</w>
▁n on
▁merg er</w>
▁excav ation</w>
▁class room</w>
▁bl ack
ver y</w>
▁plat forms</w>
▁min i</w>
▁b ound
▁R om
▁Pol itical</w>
our ney</w>
a j
a c</w>
▁t ank</w>
▁qual ifications</w>
▁irregular ities</w>
▁hom eless</w>
▁d il
t oon</w>
ec k</w>
ain ts</w>
▁r ar
▁n ose</w>
▁m ention</w>
▁bas ement</w>
▁D eok
▁B est</w>
ons ei</w>
in ity</w>
▁schedul es</w>
▁indic tment</w>
▁dep ression</w>
▁bl oss
▁K imchi</w>
r ing</w>
i for
▁lif ting</w>
▁judg ing</w>
▁H igh
▁F ive</w>
▁B or
r en
ll ing</w>
iti m
at ural</w>
as te</w>
▁won derful</w>
▁wal ked</w>
▁str et
▁prot ests</w>
▁on going</w>
▁m ol
▁k id
▁design er</w>
▁conduc ts</w>
▁Pers on
▁K B</w>
▁Cor ps</w>
▁Cath olic</w>
▁B uk
▁B ento</w>
▁A par
ec ed
▁co astal</w>
▁acknowled ged</w>
▁Republic an</w>
▁M O
▁L earning</w>
▁scre ened</w>
▁every where</w>
▁defin itely</w>
▁cr u
▁air line</w>
▁add itionally</w>
▁Th ough</w>
▁M yeong
▁L iving</w>
4 2</w>
▁surv eys</w>
▁shou ldn</w>
▁s id
▁mer it</w>
▁li e</w>
▁Ear th</w>
ileg ed</w>
▁surp assed</w>
▁rom ance</w>
▁rar ely</w>
▁helicop ter</w>
▁eas tern</w>
▁contrib utions</w>
▁Yang ju</w>
▁Os aka</w>
d on</w>
▁t all</w>
▁pas sion
▁par ad
▁ne utr
▁exc it
▁di esel</w>
▁d ating</w>
▁conc lude</w>
▁M ul
▁Gol den</w>
▁Counc ilor</w>
our se</w>
ifor nia</w>
brea king</w>
▁serv es</w>
▁inc idents</w>
▁fro zen</w>
▁fi x</w>
▁dr astically</w>
▁US A</w>
▁Integr ated</w>
▁Ad visory</w>
or king</w>
fortun ately</w>
eb ack</w>
▁un nec
▁sp oke</w>
▁sl owing</w>
▁rem od
▁ph rase</w>
▁perp etr
▁fl at</w>
▁borrow ed</w>
▁ban k
▁af term
▁Pa ul
▁voc ational</w>
▁transpar ency</w>
▁telecomm unications</w>
▁sp l
▁promp tly</w>
▁occ asion</w>
▁fr amework</w>
▁conglom erates</w>
▁ar med</w>
▁al g
▁R ef
▁Is n</w>
▁200 3</w>
▁1 30</w>
up yeong</w>
rup t</w>
▁textb ooks</w>
▁rest ored</w>
▁mic ro
▁Bas eball</w>
▁B en
l ai
ewor thy</w>
P S</w>
▁z ero</w>
▁un d
▁crea tivity</w>
▁Z h
▁5 3</w>
k ie</w>
er age</w>
▁t ool</w>
▁recru ited</w>
▁manufac tured</w>
▁econom ies</w>
▁advant ages</w>
▁Or chestra</w>
▁M ERS</w>
▁KB O</w>
▁Fur thermore</w>
g ye</w>
dep th</w>
am en</w>
▁s li
▁k m</w>
▁des ired</w>
▁conver sion</w>
▁aff ection</w>
▁T rea
▁Crea tive</w>
w ing</w>
vers ity</w>
ac ent</w>
T O</w>
▁respon ding</w>
▁prot ested</w>
▁grea test</w>
▁gre eting</w>
▁foc uses</w>
▁Sh opping</w>
▁G ong
O P</w>
▁wor n</w>
▁tr ucks</w>
▁th inks</w>
▁high way</w>
▁afterm ath</w>
▁L e
ot t</w>
O K</w>
▁wor ries</w>
▁re wards</w>
▁not eworthy</w>
▁new sletter</w>
▁l ies</w>
▁g inseng</w>
▁er ad
▁di ab
▁comm itment</w>
▁a uction</w>
▁Cal ifornia</w>
P ro
5 4</w>
▁tou ching</w>
▁toil et</w>
▁instruc tions</w>
▁guarant ees</w>
▁facilit ate</w>
▁f ly</w>
▁dom inated</w>
▁del inqu
▁Mexic an</w>
▁L a
an es</w>
▁vot ers</w>
▁terr or
▁refr ig
▁docum entary</w>
▁disappoin ted</w>
▁Sur v
▁J ourn
▁El ectric</w>
▁Cr iminal</w>
▁Blo omb
ol s</w>
ie ties</w>
eal thy</w>
9 5</w>
▁ter ri
▁super visor</w>
▁subsid ized</w>
▁r ush</w>
▁pr izes</w>
▁inform atization</w>
▁explos ion</w>
▁disc over</w>
▁L iter
▁An ti</w>
▁ther efore</w>
▁tend ency</w>
▁p ack</w>
▁oper ational</w>
▁mass age</w>
▁del eted</w>
▁dec ade</w>
▁Y onsei</w>
▁S ar
▁N ight</w>
▁M u
▁K ang
▁H ye
p e</w>
im al</w>
end ers</w>
end ations</w>
ell ed</w>
e over</w>
A R
0 4</w>
▁special ty</w>
▁prin t</w>
▁postp oned</w>
▁p ine</w>
▁ir r
▁d ess
▁Fr anc
▁Bloomb erg</w>
i ant</w>
E S
▁surv e
▁ste ering</w>
▁shel ter</w>
▁musc les</w>
▁fa ult</w>
▁broadc aster</w>
▁attrib uted</w>
▁Ital ian</w>
▁F ri
itor ium</w>
▁wil d
▁weak ened</w>
▁somew here</w>
▁necess ity</w>
▁gr atitude</w>
▁d rove</w>
▁camp us</w>
▁Ph il
▁B ul
em atic</w>
amp s</w>
D irector</w>
, “</w>
▁tr ib
▁sp lit</w>
▁nom ination</w>
▁goalk eeper</w>
▁attemp ts</w>
▁accept ance</w>
▁D od
ut ures</w>
6 4</w>
▁rem ote</w>
▁collea gues</w>
▁b arr
▁att ach</w>
▁app lies</w>
▁al ive</w>
▁Som etimes</w>
▁J ames</w>
▁Gw acheon</w>
▁G ye
▁For tress</w>
u ing</w>
ec tious</w>
b ook</w>
0 2</w>
▁un p
▁ther ef
▁te eth</w>
▁sear ched</w>
▁rel easing</w>
▁photograp hs</w>
▁fr ustr
▁dec entr
▁critic s</w>
▁c e
▁ass ist</w>
▁apar t</w>
▁abol ished</w>
▁W ell</w>
▁Tr affic</w>
▁Gar den</w>
▁E ul
▁Chr ist</w>
▁Ch i</w>
res si
li x</w>
▁vir us</w>
▁supp lement</w>
▁str aw
▁ren ov
▁rea ders</w>
▁occup ation</w>
▁indic ating</w>
▁heav ily</w>
▁Sh ould</w>
▁6 8</w>
u it</w>
s am</w>
per s
▁sh ut</w>
▁sh aking</w>
▁dign ity</w>
▁Ch ampionship</w>
u ro
m outh</w>
ic als</w>
empl ary</w>
ath y</w>
L ED</w>
▁unpr eced
▁lod ging</w>
▁dis tr
▁des cend
▁T ime</w>
▁Song do</w>
▁Geum cheon</w>
pl ay</w>
and a</w>
E C</w>
6 2</w>
▁sever ely</w>
▁sec tions</w>
▁profession als</w>
▁f ellow</w>
▁ag gressive</w>
▁St aff</w>
▁Nav y</w>
▁Egyp t</w>
id enti
e ff
c er
▁sti r</w>
▁res igned</w>
▁repres ents</w>
▁heal th
▁gol den</w>
▁experi ment</w>
▁crow d</w>
▁b acter
▁accur ately</w>
▁Pl ant</w>
▁5 7</w>
i ance</w>
W ith</w>
▁tr ip
▁tax is</w>
▁l ap
▁initi ative</w>
▁h ip</w>
▁chocol ate</w>
▁b omb
▁Acc ounting</w>
re en</w>
P CO</w>
4 00</w>
▁wir eless</w>
▁swit ch</w>
▁frequ ency</w>
▁def ects</w>
▁ab ilities</w>
▁M as
▁Jam sil</w>
um ing</w>
u ff</w>
ro ads</w>
l ings</w>
ital ized</w>
al ist</w>
▁infr ing
▁cultiv ation</w>
▁co alition</w>
▁al t
▁Sh aring</w>
term easure</w>
om pl
li ers</w>
ili ans</w>
▁ref res
▁pow der</w>
▁lif t</w>
▁lib eral</w>
▁inf lation</w>
▁flo ating</w>
▁eng ines</w>
▁diss em
▁ass essed</w>
▁aff ord</w>
▁S ite</w>
▁B upyeong</w>
p ur
on to</w>
h ong</w>
f lix</w>
et o</w>
and o</w>
am in</w>
ad ong</w>
6 7</w>
▁vol ati
▁sh eet</w>
▁rel uct
▁red evelopment</w>
▁hab its</w>
▁T ake</w>
par ty</w>
h stan</w>
emb le</w>
al ed</w>
ad uate</w>
▁liter ary</w>
▁inter m
▁g un
▁em ission</w>
▁do ors</w>
▁consist ently</w>
▁congrat ulatory</w>
▁al um
▁ag gr
▁ab ortion</w>
on n
k es</w>
ff ers</w>
▁s atell
▁overwhel ming</w>
▁expl ore</w>
▁comprom ise</w>
▁c rops</w>
▁bat teries</w>
▁L ater</w>
urs ement</w>
er s
▁unnec essary</w>
▁ret ail
▁ref erring</w>
▁low ering</w>
▁l acking</w>
▁h ide</w>
▁T ri
▁Braz ilian</w>
▁8 5</w>
th rough</w>
is try</w>
eas onable</w>
▁sugg esting</w>
▁sc rip
▁poin ting</w>
▁med als</w>
▁lea k</w>
▁excit ement</w>
▁differenti ated</w>
▁comb ining</w>
▁Sok cho</w>
▁Seong dong</w>
▁F I
ul s
qu al
il ization</w>
ect ural</w>
com ed</w>
at ever</w>
▁uncertain ty</w>
▁shut down</w>
▁rev enues</w>
▁oblig ation</w>
▁disor der</w>
▁appear ing</w>
y l
ob ac
hy th
ex c
er or</w>
er a</w>
▁wid th</w>
▁rev ive</w>
▁p es
▁cong estion</w>
▁Manch ester</w>
▁M un</w>
rea d</w>
ir ts</w>
▁su m</w>
▁fe ed</w>
▁deliver ing</w>
▁cover ing</w>
▁car di
▁I mm
h eung</w>
erm al</w>
▁res ign</w>
▁rem emb
▁pregn ancy</w>
▁oc ean</w>
▁initi ally</w>
▁f at
▁dr one</w>
▁al ert</w>
▁Su k</w>
▁M ob
▁Kazak hstan</w>
▁A san</w>
ox ide</w>
k uk</w>
fort ably</w>
ch il
Am eric
▁techni que</w>
▁st agn
▁r itual</w>
▁mid term</w>
▁clou ds</w>
▁bor row</w>
▁acquaint ances</w>
▁V lad
▁V I
▁Pu tin</w>
▁K wan</w>
▁Ex po</w>
uc ky</w>
ir o</w>
in ema</w>
am ent</w>
▁y uan</w>
▁wel comed</w>
▁s ight</w>
▁s ang</w>
▁qu ota</w>
▁pack aging</w>
▁inquir ies</w>
▁ch amp
▁car riers</w>
▁Mad rid</w>
▁F ir
▁200 1</w>
T BC</w>
▁sn ow
▁sincer ely</w>
▁res id
▁newsp apers</w>
▁activ ists</w>
▁Isra el</w>
▁FT A</w>
▁Canad ian</w>
▁6 4</w>
r ise</w>
▁wholes ale</w>
▁w ood</w>
▁sk ill</w>
▁rec rea
▁leg itim
▁j ourney</w>
▁fr ag
▁cons c
▁attrac ts</w>
▁a mp
or ters</w>
imb ap</w>
ib ly</w>
▁supp r
▁superv ise</w>
▁prom inent</w>
▁meas urement</w>
▁inquir y</w>
▁el ectr
▁doub t</w>
▁diplom acy</w>
▁all ey</w>
un t</w>
ill ance</w>
fin als</w>
e uk
▁respon sibilities</w>
▁renew ed</w>
▁inf ant</w>
▁grand father</w>
▁gr ace</w>
▁dec ades</w>
▁comp uters</w>
▁accep ting</w>
▁Nong hyup</w>
▁Net flix</w>
▁Comm issi
▁8 4</w>
k l
1 8
▁var i
▁obs erve</w>
▁liqu or</w>
▁l ying</w>
▁instr uments</w>
▁impr essed</w>
▁g ains</w>
▁ev il</w>
▁com fortably</w>
▁acqu ire</w>
▁Veter ans</w>
▁6 6</w>
u ality</w>
c up
S am
▁unst able</w>
▁tru ly</w>
▁taxp ayer</w>
▁rel ieve</w>
▁pi ano</w>
▁occup ied</w>
▁nom inated</w>
▁enh ancing</w>
▁critic izing</w>
▁clin ic</w>
▁app rove</w>
▁Tor onto</w>
▁T ell</w>
▁K yu</w>
tr ack</w>
SE AN</w>
▁wareh ouse</w>
▁tr acking</w>
▁sh ower</w>
▁sh ots</w>
▁relig ion</w>
▁al i
▁ab used</w>
▁Ssang yong</w>
▁Pr ince</w>
▁J echeon</w>
▁Chung ju</w>
s moking</w>
ig a</w>
S outh</w>
9 9</w>
▁tr ies</w>
▁tex ture</w>
▁prop ose</w>
▁pain ted</w>
▁off ensive</w>
▁ob taining</w>
▁imm un
▁fl ying</w>
▁execu ted</w>
▁cho osing</w>
▁bar riers</w>
ig rant</w>
ar ization</w>
I T</w>
6 3</w>
▁was h</w>
▁view ing</w>
▁ste pping</w>
▁rom antic</w>
▁r ough</w>
▁ce iling</w>
▁av iation</w>
▁announc ing</w>
▁H ung
▁E X
▁5 8</w>
r y
is c
i w
ens ation</w>
edic ine</w>
H A
▁supp liers</w>
▁struc tures</w>
▁hon est</w>
▁excell ence</w>
▁anticip ated</w>
▁abs ent</w>
▁Str eam</w>
▁KE PCO</w>
▁Conc er
▁5 6</w>
pro duc
oc ate</w>
m u</w>
7 7</w>
▁math ematics</w>
▁hes it
▁g ard
▁fis hery</w>
▁exp ecting</w>
▁cl ause</w>
▁app eals</w>
▁advant ageous</w>
▁F ed</w>
▁Enterpr ises</w>
▁B ay</w>
ul ent</w>
over ty</w>
man ned</w>
ess man</w>
es try</w>
emb ly
emb ang</w>
af e</w>
▁unpreced ented</w>
▁sinc ere</w>
▁pre emp
▁negl ected</w>
▁cat s</w>
▁aud ition</w>
▁Subs id
▁Il san</w>
▁Go chang</w>
s ub
ow ns</w>
n is</w>
bo x</w>
▁ther eby</w>
▁sh ocked</w>
▁rep ro
▁po is
▁exc eption</w>
▁cont ext</w>
▁St eering</w>
▁Paul o</w>
▁P ung
▁In ter</w>
t less</w>
oin ted</w>
B A</w>
▁under m
▁sh ocking</w>
▁lea kage</w>
▁in tr
▁h obby</w>
▁f ought</w>
▁di versity</w>
▁bea ting</w>
▁as leep</w>
▁Se og
▁Particip ants</w>
▁Exc use</w>
▁Chungcheong buk</w>
ic ations</w>
O S</w>
▁under go</w>
▁ro ad
▁inf ection</w>
▁har sh</w>
▁exclus ively</w>
▁err ors</w>
▁contr ast</w>
▁alleg edly</w>
▁adop tion</w>
▁abnorm al</w>
or gan
o ked</w>
e p</w>
dr iving</w>
O r
▁questi oning</w>
▁pra ise</w>
▁p izza</w>
▁p ays</w>
▁juven iles</w>
▁inn ings</w>
▁fe ed
▁cr af
▁Jo ong</w>
st op</w>
row th</w>
evelop ed</w>
at ar</w>
Y ou</w>
0 6</w>
▁hygi ene</w>
▁f erti
▁exam ined</w>
▁conver ted</w>
▁Liber al</w>
▁Jud icial</w>
pr iv
ensi vely</w>
av el</w>
Sh e</w>
▁requir ing</w>
▁positi vely</w>
▁i ll</w>
▁hab it
▁foun ding</w>
▁disc ounts</w>
▁d eals</w>
▁Se on</w>
▁S t</w>
▁N ob
▁D ang
▁6 1</w>
in i</w>
b ok
A I</w>
▁sea food</w>
▁pit chers</w>
▁integr ity</w>
▁flag ship</w>
▁comm ent
▁G yeong</w>
k ey</w>
it arian</w>
e um
6 00</w>
0 9</w>
▁upd ate</w>
▁represent ation</w>
▁renew al</w>
▁remar k
▁r u
▁prosp ects</w>
▁l iver</w>
▁gener ate</w>
▁fil med</w>
▁do zens</w>
▁d ynam
▁b ound</w>
▁Z eal
▁O ver</w>
▁6 2</w>
oun g
is tic
en z
en tic
ati n</w>
N A</w>
8 5</w>
6 6</w>
▁vo ted</w>
▁pred ec
▁emerg e</w>
sh aring</w>
ortun ately</w>
et es</w>
e ur</w>
▁vit ality</w>
▁res erved</w>
▁cy ber</w>
▁ch ap
▁brea ks</w>
▁atten ds</w>
▁G i</w>
▁F re
▁Cl ass</w>
k wan</w>
h igh</w>
g ung</w>
F C</w>
▁sincer ity</w>
▁revital izing</w>
▁occ urrence</w>
▁h alls</w>
▁gen res</w>
▁ex agg
▁embezz lement</w>
▁ear s</w>
▁an g
▁Seong buk</w>
▁L anguage</w>
▁spec ifically</w>
▁questi oned</w>
▁o uter</w>
▁lifest yle</w>
▁l oud</w>
▁T ex
▁Con ver
k ets</w>
ig ital</w>
ed ge</w>
a el</w>
6 1</w>
▁suspic ious</w>
▁sur ge</w>
▁r ear</w>
▁i c
▁hom ework</w>
▁car rier</w>
▁bat ting</w>
or ruption</w>
M A</w>
▁ten ants</w>
▁sh orter</w>
▁lea p</w>
▁down ward</w>
▁distrib uting</w>
▁asp ect</w>
▁Gu arant
▁Camp us</w>
priv ileged</w>
ot es</w>
of t</w>
m ember</w>
▁ten nis</w>
▁p etro
▁men us</w>
▁ex emplary</w>
▁cap tain</w>
▁bar rier</w>
▁L ive</w>
▁G y
sp eed</w>
p i
ob iles</w>
▁ul tim
▁train ees</w>
▁to x
▁r ing</w>
▁ar tw
d est</w>
ann a</w>
ach e</w>
▁tom b</w>
▁st uck</w>
▁st amp</w>
▁par tial</w>
▁manag es</w>
▁e at
▁ch est</w>
▁Zeal and</w>
▁V ision</w>
▁M ag
▁Dom estic</w>
▁war nings</w>
▁trav eled</w>
▁musc le</w>
▁mobil ized</w>
▁lis tened</w>
▁instr ument</w>
▁imm er
▁eth ics</w>
▁develop ers</w>
▁conn ects</w>
▁as ide</w>
▁Yeo ju</w>
▁V ic
▁V R</w>
▁Ship building</w>
▁H yeon</w>
▁H o
▁G l
ight eous</w>
essi onal</w>
enc ement</w>
c omes</w>
ari at</w>
Wh at</w>
A E</w>
▁threa tening</w>
▁su its</w>
▁s en
▁r ub
▁lon ely</w>
▁gr as
▁desper ate</w>
▁deal t</w>
▁Tel ecom</w>
▁M aybe</w>
▁J TBC</w>
s ts</w>
d am</w>
an ity</w>
ak er</w>
G ang
▁vac ancy</w>
▁top ics</w>
▁terr itory</w>
▁secret ly</w>
▁qual ified</w>
▁pursu ing</w>
▁produc es</w>
▁hosp italized</w>
▁f ederal</w>
▁comm encement</w>
▁S and
▁K TX</w>
▁Gir l</w>
▁F ortunately</w>
▁Ber lin</w>
▁Baek je</w>
▁9 00</w>
w e</w>
us ive</w>
o T</w>
er ted</w>
▁wind ows</w>
▁var iable</w>
▁tr ained</w>
▁so ared</w>
▁moist ure</w>
▁gr ass</w>
▁form at</w>
▁eas ed</w>
▁displ ays</w>
▁dis inf
▁che ese</w>
▁accoun t
▁T o
▁Hae undae</w>
▁D ata</w>
k won</w>
it z
▁unr easonable</w>
▁under privileged</w>
▁tr ains</w>
▁t or
▁meas uring</w>
▁insp ector</w>
▁en ro
▁c an
▁bo ats</w>
▁St eel</w>
▁E c
r ange</w>
if ted</w>
▁theref or</w>
▁sp ort</w>
▁prov en</w>
▁caf es</w>
▁b ilateral</w>
▁Nor theast</w>
m br
as m</w>
D S</w>
▁sur plus</w>
▁res umed</w>
▁innoc ent</w>
▁consci ousness</w>
▁bel ong</w>
▁K on
ac tion</w>
▁netw orking</w>
▁bur ning</w>
▁bro thers</w>
▁Ta x
▁Hon am</w>
u is
im m
ic on</w>
G overning</w>
▁vess el</w>
▁soph istic
▁l uck</w>
▁Pri or</w>
▁M t</w>
w ar</w>
s man</w>
s eung</w>
ign s</w>
▁up ward</w>
▁subst ance</w>
▁pres erved</w>
▁me ant</w>
▁inf ectious</w>
▁constit u
▁ch eer</w>
▁autom obiles</w>
▁ar m</w>
▁ar ise</w>
▁aim ing</w>
▁T ong</w>
f ighting</w>
ang ed</w>
M art</w>
▁wor e</w>
▁uncer tain</w>
▁tel evision</w>
▁slog an</w>
▁in equ
▁human ities</w>
▁e g
▁det ection</w>
▁comm endation</w>
▁believ ing</w>
▁all ocation</w>
▁W al
▁I d
▁Bi eg
ti er</w>
d es
as c
arb ucks</w>
▁rel ics</w>
▁p overty</w>
▁organiz ational</w>
▁m ix
▁corr ective</w>
▁conf idential</w>
▁ben ch
▁Volunt eer</w>
es l
b i</w>
L ea
9 8</w>
8 8</w>
0 3</w>
▁t um
▁notic eable</w>
▁n in
▁budg ets</w>
▁acquaint ance</w>
▁Yang pyeong</w>
▁Se ver
▁Res erve</w>
▁D ub
un a</w>
ol ine</w>
et h
▁v alley</w>
▁sol idarity</w>
▁sh ed</w>
▁res iding</w>
▁res h
▁passion ate</w>
▁laun dry</w>
▁divid end</w>
▁cap ture</w>
▁any time</w>
▁U se</w>
▁Produc ts</w>
▁Par tic
▁Imp rovement</w>
n ae</w>
gr ade</w>
b les</w>
D A</w>
▁ver ified</w>
▁sw eat</w>
▁surve illance</w>
▁s eller</w>
▁perf ectly</w>
▁mort g
▁marg in</w>
▁gr amm
▁fl ows</w>
▁expl oration</w>
▁cour age</w>
▁char ts</w>
▁ch erry</w>
▁auth entic
▁Guarant ee</w>
▁19 70</w>
tif ication</w>
thw est</w>
r ate</w>
i an
▁t is
▁susp ects</w>
▁suppl ying</w>
▁r hyth
▁pos ter</w>
▁po et</w>
▁mod ern
▁enter tain
▁e igh
▁dismis s</w>
▁disc overy</w>
▁cru ise</w>
▁conv ey</w>
▁compreh ensively</w>
▁cau tious</w>
▁am ended</w>
▁S U
▁Res ear
▁Mor ning</w>
▁M s</w>
y gen</w>
row s</w>
reh ensive</w>
c entered</w>
E n
▁stric tly</w>
▁run ner</w>
▁l ay</w>
▁h all
▁ev ol
▁disc r
▁cop ies</w>
▁comm ittees</w>
▁Se osan</w>
▁P M</w>
or ce</w>
d ier</w>
augh ters</w>
▁targ eted</w>
▁remov ing</w>
▁mak ers</w>
▁dr ones</w>
▁d ried</w>
▁ac id</w>
▁Start ups</w>
▁G eneration</w>
t or
iz ations</w>
it ness</w>
ch ief</w>
c ol
C s</w>
A t</w>
A fter</w>
▁trad ed</w>
▁scat tered</w>
▁s and</w>
▁insp ected</w>
▁brea thing</w>
▁Up on</w>
▁Sp ace</w>
▁Pl us</w>
in y</w>
h ui</w>
duc heon</w>
d e</w>
L et</w>
K RW</w>
E x
8 4</w>
6 8</w>
▁rail road</w>
▁pl ain
▁ind uce</w>
▁emo tion</w>
▁dram atic</w>
▁Stud ent</w>
▁Sol idarity</w>
▁Se on
▁Mongol ian</w>
▁Eun pyeong</w>
ti ll</w>
ad a</w>
▁won dering</w>
▁wh er
▁scen ario</w>
▁pleas ure</w>
▁pip e</w>
▁p acked</w>
▁har m</w>
▁der eg
▁cool ing</w>
▁conv entional</w>
▁conserv atives</w>
▁cat ching</w>
▁c a
▁Ta eg
▁Belg ium</w>
zh ou</w>
tif f</w>
dr iven</w>
▁th in</w>
▁pun ish</w>
▁pal ace</w>
▁fac ial</w>
▁d ad</w>
▁contrac tor</w>
▁adj acent</w>
▁St ock</w>
▁K e
ur a</w>
om b</w>
R A</w>
7 1</w>
) :</w>
▁tr aces</w>
▁stic k</w>
▁sp eeding</w>
▁s ad
▁r ac
▁m ill
▁lib eration</w>
▁fab ric</w>
▁eat en</w>
▁dou bled</w>
▁diab etes</w>
▁competit ors</w>
▁L iv
g a</w>
en ings</w>
em en</w>
O C</w>
▁viol ate</w>
▁t ie</w>
▁sympath y</w>
▁subs titute</w>
▁pow ers</w>
▁pedestr ian</w>
▁circ ulation</w>
▁achiev ing</w>
▁acces sibility</w>
▁St arbucks</w>
▁Pa ul</w>
▁Christi ans</w>
s eason</w>
ap ing</w>
▁witn esses</w>
▁t opped</w>
▁subm itting</w>
▁sc or
▁pois oning</w>
▁min ds</w>
▁l anding</w>
▁introduc es</w>
▁dec is
▁conv ened</w>
▁com eback</w>
▁attac ked</w>
▁V iol
n ix</w>
▁wall et</w>
▁un manned</w>
▁tex tile</w>
▁res trict</w>
▁p upp
▁obv ious</w>
▁fort un
▁design ers</w>
▁cr ashed</w>
▁con j
▁c akes</w>
▁Wor king</w>
▁R em
▁Partic ularly</w>
▁K h
▁Ind ex</w>
▁I k</w>
ok en</w>
l ash</w>
id ated</w>
hy ang</w>
eas tern</w>
ar k
T A</w>
IC E</w>
▁pollut ants</w>
▁f illing</w>
▁civ ilians</w>
▁V enture</w>
▁Ren ault</w>
▁Gyeong g
▁G S</w>
▁Conver gence</w>
w oong</w>
uls ory</w>
k erage</w>
em et
d rew</w>
ag oda</w>
▁s over
▁rum or</w>
▁resol ving</w>
▁peti tion
▁main stream</w>
▁h ang</w>
▁conf used</w>
▁cap ability</w>
▁Res t
▁P ort
▁Oc t</w>
▁I I</w>
▁Gwang myeong</w>
” .</w>
ea ge</w>
comm erce</w>
ac t
▁under going</w>
▁exam ining</w>
un ds</w>
okes person</w>
mar ket</w>
ffici ency</w>
ath on</w>
N o</w>
G overnor</w>
▁for ever</w>
▁fis her
▁cr uc
▁coo ked</w>
▁celebr ity</w>
▁199 8</w>
ill board</w>
ell ers</w>
▁sh ake</w>
▁rem ark</w>
▁reluct ant</w>
▁gu it
▁fin ed</w>
▁differ ently</w>
▁be ings</w>
▁N on
▁J unior</w>
▁J e</w>
▁G ymnasium</w>
▁G i
▁A SEAN</w>
or ds</w>
f iel
emet ery</w>
ed ian</w>
eas ant</w>
auth orized</w>
T alk</w>
▁wal ks</w>
▁view ed</w>
▁se qu
▁prin ted</w>
▁pour ing</w>
▁ju ice</w>
▁enem y</w>
▁bab ies</w>
▁F arm
▁All ow
z o</w>
ic ted</w>
air y</w>
. )</w>
▁surpr ising</w>
▁off ense</w>
▁n ick
▁mid night</w>
▁l ev
▁Da eh
l ea
ip o</w>
ch eok</w>
b us
b al
▁y ard</w>
▁tr ash</w>
▁stat ute</w>
▁r anks</w>
▁mon ument</w>
▁l ay
▁explos ive</w>
▁exc ess</w>
▁ev asion</w>
▁dispos able</w>
▁determ ining</w>
▁depic ts</w>
▁calc ulating</w>
▁Venezuel a</w>
▁Dong ducheon</w>
▁1 10</w>
s ong</w>
m oo</w>
e way</w>
d a
ans eong</w>
8 00</w>
▁v ary</w>
▁ref unded</w>
▁h anging</w>
▁exhaus ted</w>
▁exc lude</w>
▁deliber ated</w>
▁cred ibility</w>
▁app ealed</w>
▁S us
▁S pring</w>
▁R eal
▁J i
▁Crea tion</w>
larg est</w>
ec onom
L og
7 8</w>
▁sl owed</w>
▁r ounds</w>
▁qu oted</w>
▁journal ist</w>
▁inst ant</w>
▁h ikes</w>
▁bi ke</w>
▁app s</w>
▁U i</w>
▁Pyeong chang</w>
▁M ount</w>
▁Hol dings</w>
▁Exp enses</w>
▁Dav id</w>
▁Americ ans</w>
o tive</w>
f t</w>
at oes</w>
7 6</w>
6 9</w>
▁wel coming</w>
▁r ivers</w>
▁pre jud
▁pot tery</w>
▁p en</w>
▁fun ny</w>
▁fl owing</w>
▁enthusi asm</w>
▁deteri oration</w>
▁b illions</w>
▁ad oles
▁Cent ers</w>
th eastern</w>
s ity</w>
r ef
ir atory</w>
en ic</w>
▁t one</w>
▁refl ection</w>
▁rec eption</w>
▁prepar ations</w>
▁ox ygen</w>
▁inf ected</w>
▁don ate</w>
▁ac ted</w>
▁W il
▁Sen ate</w>
▁S i
▁K ingdom</w>
▁F loor</w>
▁7 3</w>
tic es</w>
p en</w>
▁st airs</w>
▁rel ative</w>
▁r anging</w>
▁pul led</w>
▁occup ancy</w>
▁not able</w>
▁h at</w>
▁exerc ises</w>
▁bow l</w>
▁appro ached</w>
▁adop t</w>
▁C ross</w>
▁An dong</w>
es ity</w>
P acific</w>
▁y en</w>
▁min ority</w>
▁less on</w>
▁en tit
▁d aughters</w>
▁coll usion</w>
▁ch air
▁appro aching</w>
s tic
og i</w>
i f</w>
er ating</w>
9 6</w>
▁trans por
▁predic ts</w>
▁p ants</w>
▁long est</w>
▁fin ds</w>
▁discr imin
▁activ ist</w>
▁Enterpr ise</w>
▁Cont ent</w>
d ue</w>
I C</w>
▁su preme</w>
▁prev ented</w>
▁pes tic
▁notic ed</w>
▁nomin ee</w>
▁m ac
▁dr essed</w>
▁ch ore
▁assa ulting</w>
▁O k</w>
▁Han yang</w>
▁D ir
▁B an</w>
or ities</w>
ie vers</w>
▁roof top</w>
▁rel i
▁on to</w>
▁mak er</w>
▁less ons</w>
▁emphas izing</w>
▁break through</w>
▁bas es</w>
▁b ub
▁Person nel</w>
▁N IS</w>
t an</w>
s erv
r im</w>
op ic</w>
isd om</w>
es h</w>
d an</w>
and ong</w>
▁tou ched</w>
▁sol dier</w>
▁f ati
▁emphas is</w>
▁def ectors</w>
▁associ ations</w>
▁Wh ether</w>
▁O ver
▁L u
▁B uk</w>
th ere</w>
ro se</w>
ic a</w>
ep ts</w>
b erry</w>
▁trans mission</w>
▁th ir
▁t eas
▁proper ties</w>
▁predec essor</w>
▁om itted</w>
▁f ate</w>
▁convers ations</w>
▁6 7</w>
O N</w>
▁travel ers</w>
▁succ essor</w>
▁se ized</w>
▁reduc es</w>
▁proc eeded</w>
▁occ urring</w>
▁j ump</w>
▁inequ ality</w>
▁highl ighted</w>
▁dorm itory</w>
▁deduc tion</w>
▁d oll</w>
▁comm uting</w>
▁apolog ized</w>
un der</w>
P r
Gyeong gi</w>
▁str ang
▁rec alled</w>
▁pi g</w>
▁p ink</w>
▁nar row
▁mob ility</w>
▁exten uating</w>
▁esc aped</w>
▁compar ison</w>
▁c um
▁bur st</w>
▁brib es</w>
▁ar m
▁apprec iation</w>
▁R onal
▁M easures</w>
▁H eung
▁1 60</w>
h ans
▁seas onal</w>
▁k id</w>
▁feed back</w>
▁exp ired</w>
▁div orce</w>
▁depos ited</w>
▁T yp
▁B at
▁Ar ound</w>
▁Ar ab</w>
▁7 1</w>
▁1 40</w>
▁( -</w>
s ter</w>
f ire</w>
ac les</w>
T C</w>
▁textb ook</w>
▁sn ack</w>
▁shut tle</w>
▁sent ences</w>
▁repres ented</w>
▁m ay
▁gl asses</w>
▁enac ted</w>
▁comp are</w>
▁anc es
▁R i</w>
▁3 50</w>
h osted</w>
7 2</w>
▁t ub
▁t oo
▁pi on
▁m ix</w>
▁hous ew
▁hor iz
▁gramm ar</w>
▁emb ro
▁cons p
▁P atri
▁M om</w>
▁K C
▁Fin ally</w>
▁Comp ensation</w>
st ate</w>
s ea</w>
ow ners</w>
▁st ones</w>
▁pl enty</w>
▁lin eup</w>
▁indir ect</w>
▁ch ef</w>
▁anim ation</w>
▁H oe</w>
▁Bio Log
▁B us</w>
h ol
9 4</w>
▁so aring</w>
▁practic ing</w>
▁kn ee</w>
▁imm une</w>
▁dep th</w>
▁back lash</w>
▁all ocated</w>
▁U i
▁Sum mer</w>
▁Qu ality</w>
▁Gol f</w>
▁Bol ton</w>
uff le</w>
ro k</w>
oo t</w>
it o</w>
c om</w>
at edly</w>
al ing</w>
M S</w>
8 6</w>
7 4</w>
▁war r
▁signific ance</w>
▁replac ing</w>
▁prescrib ing</w>
▁prefer entially</w>
▁met er</w>
▁m ound</w>
▁interm edi
▁indic ates</w>
▁hab it</w>
▁gri ev
▁exerc ising</w>
▁eigh th</w>
▁decis ive</w>
▁br illi
▁bo asts</w>
▁S am</w>
▁Gwang yang</w>
x ing</w>
on ym
it ance</w>
ili ary</w>
h rooms</w>
ang el
al ists</w>
7 3</w>
▁r ig
▁outl et</w>
▁fi erc
▁elimin ated</w>
▁clou dy</w>
▁bro kerage</w>
▁arr ange</w>
▁ad ds</w>
▁P sy</w>
▁L ED</w>
▁Kaka o
▁H el
▁H adong</w>
▁Gwang gyo</w>
▁G ang</w>
▁Al liance</w>
▁Adv anced</w>
▁9 5</w>
y t
▁po em</w>
▁l overs</w>
▁int angible</w>
▁cover s</w>
▁comp ulsory</w>
▁com edy</w>
▁bo ys</w>
▁bo il
▁Yeong dong</w>
▁S ept</w>
▁Rep ort</w>
▁R am
▁N atural</w>
h ear
an i</w>
B l
▁struc k</w>
▁st aged</w>
▁pr on
▁l over</w>
▁l acks</w>
▁hop ing</w>
▁cop yr
▁caf é</w>
▁b esides</w>
▁al arm</w>
▁adm issions</w>
w oon</w>
su ally</w>
or ti
d o
▁reveal s</w>
▁persu ade</w>
▁mot orc
▁miss iles</w>
▁maxim ize</w>
▁ingredi ent</w>
▁h iding</w>
▁cr ude</w>
▁cigar ette</w>
▁br onze</w>
▁bacter ia</w>
▁b un
▁G ong</w>
▁8 2</w>
an b
▁week days</w>
▁under w
▁sid ew
▁pros titution</w>
▁opp ose</w>
▁gu y</w>
▁ess ence</w>
▁embarr assed</w>
▁down turn</w>
▁def ensive</w>
▁archit ectural</w>
▁appro ximately</w>
▁Y oung
▁Rel ations</w>
▁L atin</w>
▁Commissi oner</w>
▁Bieg un</w>
ter ious</w>
tain ly</w>
st one</w>
it a</w>
ip e</w>
em n
9 7</w>
) ,"</w>
▁surv eyed</w>
▁stri ker</w>
▁satell ite</w>
▁rel iable</w>
▁rec urrence</w>
▁eg g</w>
▁b one</w>
▁air lines</w>
▁Surv ey</w>
▁R ad
▁Ge or
▁D eok</w>
s m
ic ks</w>
el ly</w>
7 9</w>
▁warr ants</w>
▁tour s</w>
▁strong est</w>
▁sil ent</w>
▁rus hed</w>
▁ren owned</w>
▁par c
▁mod e</w>
▁inst ability</w>
▁ge ograph
▁emphas izes</w>
▁descend ants</w>
▁deb ts</w>
▁St ory</w>
▁I P
▁H un
▁D am
▁Custom s</w>
▁B os
▁Act ually</w>
y al
oll ey
f ol
er pr
P G</w>
▁wa ited</w>
▁transl ated</w>
▁ten ant</w>
▁res ting</w>
▁pros perity</w>
▁par ade</w>
▁liqu id</w>
▁inten tionally</w>
▁fr aud
▁fati gue</w>
▁consist ent</w>
▁condition er</w>
▁c ell
▁as ks</w>
▁activ ated</w>
▁a rose</w>
▁Sal es</w>
▁Ronal do</w>
▁Rob ert</w>
▁P at
▁F ourth</w>
▁7 4</w>
z y</w>
d able</w>
▁over coming</w>
▁mortg age</w>
▁inconveni ences</w>
▁imag ination</w>
▁gam bling</w>
▁decr eases</w>
▁cum ulative</w>
▁che ered</w>
▁car ing</w>
▁avo iding</w>
▁With out</w>
▁Tom orrow</w>
▁Pur su
▁M erc
▁Da es
▁199 7</w>
us al</w>
duc t</w>
cel ona</w>
) '</w>
▁weak ness</w>
▁v end
▁trea ty</w>
▁surroun ded</w>
▁subst antial</w>
▁remark able</w>
▁reb orn</w>
▁realiz ing</w>
▁proc eeding</w>
▁probl ematic</w>
▁pas sive</w>
▁is lands</w>
▁en ables</w>
▁dereg ulation</w>
▁d ens
▁coll eg
▁car p
▁b ell</w>
▁an ch
▁altern atives</w>
▁Par ents</w>
▁O san</w>
▁M osc
▁Isl amic</w>
▁D SC</w>
▁BioLog ics</w>
r s</w>
or ous</w>
olley ball</w>
erg e</w>
e b</w>
b i
8 7</w>
▁uti lity</w>
▁su b</w>
▁prosp ect</w>
▁fil ing</w>
▁conc epts</w>
▁br ings</w>
▁V er
▁Nex on</w>
▁FI FA</w>
▁Ex ecutive</w>
▁7 7</w>
us ement</w>
ial ized</w>
ad ded</w>
Se oul</w>
D s</w>
▁wr apped</w>
▁unf air
▁u mbr
▁rec onciliation</w>
▁pe ts</w>
▁lea king</w>
▁l ucky</w>
▁l asted</w>
▁diss atis
▁comp liance</w>
▁cli ents</w>
▁broadc asted</w>
▁adjus ting</w>
▁Un it</w>
▁S ky</w>
▁D P
su p</w>
ati al</w>
ampion ships</w>
8 9</w>
▁th rowing</w>
▁sophistic ated</w>
▁se eds</w>
▁schol ar</w>
▁reac tions</w>
▁id eal</w>
▁bic ycles</w>
p ol
id em
▁threa ts</w>
▁ta p</w>
▁pub lish</w>
▁l obby</w>
▁ind is
▁floo ded</w>
▁dic t
▁corr ected</w>
▁cigar ettes</w>
▁Prof essional</w>
▁L o
▁G en
▁Dis ease</w>
▁Ch alleng
inis ter</w>
ed r
ect ations</w>
▁wr ap</w>
▁s oul</w>
▁reserv ations</w>
▁re forms</w>
▁r amen</w>
▁pen etr
▁emphas ize</w>
▁dec ides</w>
▁c uis
▁b arg
▁Yeong am</w>
▁K yo</w>
▁Hy nix</w>
▁F ol
▁Bar celona</w>
tr esses</w>
ter ior</w>
ig m</w>
fl ow</w>
Americ an</w>
▁subsid iaries</w>
▁st uff</w>
▁so yb
▁sacrif ice</w>
▁rel ax
▁r id</w>
▁prev ents</w>
▁g lo
▁for th</w>
▁elev ator</w>
▁abol ish</w>
▁P an
▁Leg is
▁Han bok</w>
▁199 9</w>
s ome</w>
ic t</w>
h o
erm inal</w>
equ ate</w>
and om</w>
HA AD</w>
▁sp ouse</w>
▁sh or
▁sens or</w>
▁sc ent</w>
▁pres umed</w>
▁pres idents</w>
▁hur ts</w>
▁foreign er</w>
▁entit led</w>
▁ed ition</w>
▁cr y</w>
▁conv ene</w>
▁chem istry</w>
▁aud itorium</w>
y i</w>
urr ent</w>
ly w
ic iaries</w>
h op</w>
d ir
▁un employed</w>
▁un authorized</w>
▁sw ept</w>
▁rea ches</w>
▁l ady</w>
▁inher itance</w>
▁ign ored</w>
▁d ental</w>
▁br east</w>
▁alleg ation</w>
▁abs ur
▁T ig
▁St at
▁Rail road</w>
▁Gyeongg ido</w>
l ock</w>
ear ly</w>
d om
c y</w>
E CD</w>
D I</w>
▁uti lized</w>
▁up set</w>
▁tun nel</w>
▁stand ard
▁ref use</w>
▁impos ing</w>
▁imag ine</w>
▁exemp t</w>
▁S l
▁N on</w>
▁J an</w>
▁Ind eed</w>
▁H am</w>
▁B esides</w>
ph one</w>
j ustment</w>
▁v ig
▁trea tments</w>
▁trans pl
▁star ring</w>
▁s at</w>
▁pol l</w>
▁penal ties</w>
▁par ked</w>
▁p an</w>
▁inter section</w>
▁econom ics</w>
▁cross ed</w>
▁cr ying</w>
▁ch at
▁aw k
▁U sually</w>
▁St atistical</w>
▁Qu een</w>
▁Exp ectations</w>
▁D igital</w>
▁Bit coin</w>
oo dle</w>
h el
ar ized</w>
▁val id</w>
▁syn drome</w>
▁rev oke</w>
▁po etry</w>
▁mys terious</w>
▁inter im</w>
▁fair ly</w>
▁bo arding</w>
▁attac hing</w>
▁Sp ir
▁Mosc ow</w>
▁Jin cheon</w>
▁Aut om
▁Ass essment</w>
ounc il</w>
n t</w>
▁trop ical</w>
▁terri ble</w>
▁sugg estions</w>
▁spea kers</w>
▁recipi ents</w>
▁intensi vely</w>
▁indir ectly</w>
▁estim ates</w>
▁cr imin
▁cons titution</w>
▁c ave</w>
▁W i</w>
▁Mir ae</w>
▁G il</w>
▁F utures</w>
uc h
rea l</w>
lim ited</w>
a ison</w>
R A
O ne</w>
▁th ank
▁pos ture</w>
▁misunder st
▁contro lling</w>
▁acc ess
▁Tea chers</w>
▁Or ig
▁Dub ai</w>
▁Citiz en</w>
o ting</w>
h ments</w>
ea th</w>
N ew</w>
N ational</w>
M O
▁v iv
▁teas er</w>
▁out put</w>
▁indic ated</w>
▁evalu ating</w>
▁en orm
▁electr ical</w>
▁el der</w>
▁dram atically</w>
▁an k
▁Th us</w>
▁Pursu ant</w>
▁Oc ean</w>
▁Malaysi an</w>
▁Cons ult
▁7 6</w>
supp ort</w>
pro of</w>
os ting</w>
i ang</w>
f or</w>
c ost</w>
app y</w>
▁v in
▁un j
▁sel ects</w>
▁se es</w>
▁res umption</w>
▁distr ust</w>
▁def end</w>
▁conveni ently</w>
▁S n
▁Pres by
▁Per formance</w>
▁Par t
▁Nam san</w>
▁Gu ang
▁Ch oo</w>
wr itten</w>
p ose</w>
T o</w>
▁un iversal</w>
▁t ill</w>
▁streng ths</w>
▁soc ially</w>
▁shr ine</w>
▁r id
▁portr ait</w>
▁p ages</w>
▁ob esity</w>
▁mo tion</w>
▁h acking</w>
▁gas oline</w>
▁g ent
▁evalu ations</w>
▁decentr alization</w>
▁coup on</w>
▁contain ers</w>
▁comb ine</w>
▁bel atedly</w>
▁C ode</w>
is an</w>
bo ards</w>
ar a
amb ur
ES CO</w>
Ch ang</w>
▁work week</w>
▁res tr
▁intensi fied</w>
▁el ectronics</w>
▁cons ist</w>
▁Ch oe</w>
ov iet</w>
h ic</w>
g on</w>
er land</w>
d eveloped</w>
cl osure</w>
▁w ire</w>
▁vill agers</w>
▁sun set</w>
▁fing erpr
▁em br
▁clus ter</w>
▁c ot
▁br id
▁b omb</w>
▁Sp okesman</w>
▁Pl ay</w>
▁Han am</w>
▁G a</w>
▁wh atever</w>
▁rep eat</w>
▁mat ure</w>
▁mas ks</w>
▁ha ir
▁decl are</w>
▁cr ack</w>
▁bel ievers</w>
▁b ird</w>
▁Per haps</w>
▁Ju ven
▁H oon</w>
▁G ate</w>
▁1 70</w>
ud es</w>
obac co</w>
id a</w>
i est</w>
▁vac ant</w>
▁t ail
▁special ist</w>
▁recomm endations</w>
▁r ib
▁lov ely</w>
▁inten tions</w>
▁influ ential</w>
▁inconveni ent</w>
▁improv ements</w>
▁cross ing</w>
▁colleg es</w>
▁acc id
▁M ess
▁M aster</w>
▁Hang eul</w>
h and</w>
erc ial</w>
enn ale</w>
▁un ity</w>
▁recogn izes</w>
▁gen etic</w>
▁elimin ate</w>
▁dr ag
▁dess ert</w>
▁c abinet</w>
▁burd ened</w>
▁broadc asts</w>
▁bott les</w>
▁air pl
▁a ides</w>
▁Se ok
▁Mich ael</w>
▁M ake</w>
▁H aving</w>
▁Autonom ous</w>
ipp le</w>
es ters</w>
▁wh eel</w>
▁viol ates</w>
▁vari ables</w>
▁unf av
▁un ited</w>
▁sun light</w>
▁nur se</w>
▁epis odes</w>
▁arr iving</w>
▁W ar
▁S yn
▁Kakao Talk</w>
▁Journ al</w>
▁G overn
▁E duc
itz erland</w>
in ate</w>
az y</w>
9 3</w>
▁t ol
▁stabil ization</w>
▁realiz ation</w>
▁pain t</w>
▁mon k</w>
▁invent ory</w>
▁develop mental</w>
▁def ect</w>
▁cer tainly</w>
▁broadc asters</w>
▁b arb
▁Schol astic</w>
▁D u
▁D en
▁Ab ility</w>
rel iance</w>
jo ong</w>
crip tions</w>
T E</w>
▁withdraw n</w>
▁veter an</w>
▁t ested</w>
▁r ival</w>
▁proc eeds</w>
▁mat ching</w>
▁d im
▁comm it</w>
▁St eph
▁G a
▁B e</w>
▁An imal</w>
il ater
ean ing</w>
M C</w>
▁w isdom</w>
▁uncertain ties</w>
▁summ oned</w>
▁rep atri
▁rememb ered</w>
▁over night</w>
▁mod ified</w>
▁conv eyed</w>
▁clear ed</w>
▁challeng ing</w>
▁ass ignment</w>
▁appl ause</w>
▁T erminal</w>
▁Sw itzerland</w>
▁Pr ef
▁Cer emony</w>
▁C amb
mb ud
ial ization</w>
i el</w>
em ocr
ectiv es</w>
▁rel ax</w>
▁refr ain</w>
▁pen sions</w>
▁o ld
▁hun gry</w>
▁fac tion</w>
▁el dest</w>
▁bloc ks</w>
▁aff air</w>
▁W ork</w>
▁Un der
▁T ae
onal ism</w>
om an</w>
ig ation</w>
gr ounds</w>
ar ch
▁y ield</w>
▁ten sions</w>
▁sh ook</w>
▁sh aken</w>
▁serv ant</w>
▁photograp hy</w>
▁nin th</w>
▁harv est</w>
▁enh anced</w>
▁emb assy</w>
▁cultiv ate</w>
▁comm erce</w>
▁brea th</w>
▁artif acts</w>
▁advis or</w>
▁UN ESCO</w>
▁Shin zo</w>
▁Pal dang</w>
▁M all</w>
▁Ins tit
▁9 9</w>
ist ent</w>
ea k</w>
▁we igh
▁warm ing</w>
▁tw in</w>
▁revers al</w>
▁nur ses</w>
▁f erm
▁Won ju</w>
▁Ins ide</w>
▁Dod gers</w>
z es</w>
ux iliary</w>
asc ular</w>
Sam sung</w>
Or dinance</w>
B ecause</w>
▁remod eling</w>
▁reapp ointed</w>
▁re imb
▁negoti ate</w>
▁lab el</w>
▁l as
▁fisher men</w>
▁f ence</w>
▁conv inc
▁che er
▁bro ad
▁Sen ator</w>
▁O ld</w>
y ard</w>
g wang</w>
C ons
▁un ilater
▁spect ators</w>
▁peri ods</w>
▁parad igm</w>
▁o ur
▁lov es</w>
▁inter c
▁d ates</w>
▁comm only</w>
▁K IN
▁Est ate</w>
ur ious</w>
it ude</w>
▁tur n
▁taxp ayers</w>
▁s ound
▁pr ea
▁phys ically</w>
▁old est</w>
▁l ayer</w>
▁decl ining</w>
▁cuis ine</w>
▁accomp lis
▁Y eom</w>
▁Reg ulation</w>
▁M iss</w>
▁Co ordin
▁B ok</w>
▁6 9</w>
t een</w>
er ly</w>
ati tis</w>
M ar
▁trig g
▁t ip</w>
▁receip ts</w>
▁our selves</w>
▁m ock</w>
▁dr ank</w>
▁cons ignment</w>
▁ass umed</w>
▁ances tors</w>
▁Ph ot
▁Gang buk</w>
▁Chil d
▁199 4</w>
▁1 12</w>
er ts</w>
dro p</w>
d ef
▁transf erring</w>
▁revers ed</w>
▁rev el
▁n arr
▁merch ant</w>
▁floo ding</w>
▁exp orted</w>
▁accel erate</w>
▁Th ings</w>
▁Camb od
ou l
essi vely</w>
d u</w>
P A</w>
A C
9 1</w>
▁special ists</w>
▁perm itted</w>
▁n owadays</w>
▁min us</w>
▁k icked</w>
▁han bok</w>
▁firef ighting</w>
▁cho ices</w>
▁bre eding</w>
▁all ev
▁advis er</w>
▁M asan</w>
▁L ight</w>
▁CO EX</w>
▁CN N</w>
▁B yun</w>
k a</w>
as ing</w>
▁term inated</w>
▁retail ers</w>
▁remin ds</w>
▁rad iation</w>
▁cons tr
▁b old</w>
▁F am
▁C ro
▁Ar ena</w>
wor king</w>
v ation</w>
f ies</w>
T EX</w>
P OP</w>
8 2</w>
▁v ag
▁unfav orable</w>
▁unf ol
▁suppl em
▁prot ein</w>
▁prejud ice</w>
▁leg ally</w>
▁dis contin
▁def ender</w>
▁b ean</w>
▁author ized</w>
▁affili ate</w>
▁O vers
▁In iti
▁H or
▁Gu id
tur ned</w>
th ird</w>
sh ine</w>
li fied</w>
igh tened</w>
▁wors ened</w>
▁str essing</w>
▁sec rets</w>
▁proc urement</w>
▁pro of</w>
▁pl ac
▁moun ting</w>
▁infl ow</w>
▁h ill</w>
▁gl ance</w>
▁g ood
▁forg ot</w>
▁enorm ous</w>
▁enjo y
▁conf er
▁be verage</w>
▁aud itors</w>
▁accord ingly</w>
▁No v</w>
▁Happ iness</w>
▁Gr and
▁199 5</w>
od o</w>
n et</w>
l etic</w>
ew orks</w>
erc ul
e ight</w>
am ics</w>
▁viv id</w>
▁th ick
▁reliev ed</w>
▁practic ed</w>
▁postp one</w>
▁hea ven</w>
▁critic ize</w>
▁associ ated</w>
▁X i
▁S even</w>
▁Eth ics</w>
u d</w>
crip t</w>
ain e</w>
ad d
Lea gue</w>
▁wid er</w>
▁w et</w>
▁trea ting</w>
▁t ort
▁destro y</w>
▁cooper atives</w>
▁co aches</w>
▁brilli ant</w>
▁bar ely</w>
▁CE Os</w>
▁C y
▁Apar tment</w>
s ely</w>
l ers</w>
g l
econom ic</w>
ar ea</w>
a xed</w>
▁upgr ade</w>
▁prev entive</w>
▁pres ent
▁p yeong</w>
▁p uts</w>
▁not es</w>
▁mag ic</w>
▁lect urer</w>
▁ide ology</w>
▁fol dable</w>
▁fac ulty</w>
▁f ib
▁cont emporary</w>
▁c en
▁bl oom</w>
▁benef iciaries</w>
▁avo ided</w>
▁adap t</w>
▁a uxiliary</w>
▁Subsid ies</w>
▁S oviet</w>
▁19 60</w>
ut ely</w>
st ar</w>
og ur
n ori</w>
it ch</w>
embly man</w>
eg a</w>
d ong
ar es</w>
and um</w>
▁volati lity</w>
▁sou ven
▁sign board</w>
▁resp ected</w>
▁r ape</w>
▁p ity</w>
▁over due</w>
▁lawsu its</w>
▁helicop ters</w>
▁encour agement</w>
▁discip line</w>
▁cour t
▁athlet e</w>
▁adoles c
u um</w>
s ports</w>
ol en</w>
ercul osis</w>
el ight</w>
e em</w>
I s</w>
▁th rown</w>
▁res ide</w>
▁pas te</w>
▁lun ar</w>
▁l ens</w>
▁g allery</w>
▁cal end
▁aud its</w>
▁R od
▁Mon etary</w>
▁L og
▁Gw ang</w>
▁F A</w>
▁Allow ances</w>
un ning</w>
or ic</w>
ear ance</w>
▁sugg estion</w>
▁shou ted</w>
▁prov iders</w>
▁politic ian</w>
▁pas tors</w>
▁fir mly</w>
▁divid ends</w>
▁comp aring</w>
▁climb ing</w>
▁be ans</w>
▁bal lo
▁add iction</w>
▁S ind
▁Her oes</w>
▁Gr aduate</w>
▁G rowth</w>
▁Contro versy</w>
eign ty</w>
e uk</w>
ak i</w>
▁youn gest</w>
▁urg ing</w>
▁sub j
▁sm iling</w>
▁shou l
▁reun ion</w>
▁moun tain
▁l ung</w>
▁j ail</w>
▁arrang ement</w>
▁Qu al
▁Pyeong Chang</w>
▁M rs</w>
▁Hy uk</w>
or a</w>
lis ted</w>
c ap
▁val idity</w>
▁th ermal</w>
▁rev ived</w>
▁rein forcement</w>
▁re w
▁public ize</w>
▁p orts</w>
▁norm alization</w>
▁m entally</w>
▁fil ter</w>
▁W eek</w>
▁S eries</w>
▁N C</w>
▁G eum</w>
▁G as</w>
▁G am
▁20 30</w>
k ook</w>
is co</w>
inc ess</w>
A R</w>
▁wor rying</w>
▁w oke</w>
▁sub tit
▁lot tery</w>
▁l end</w>
▁in tim
▁g ym</w>
▁fair y</w>
▁coun tless</w>
▁comp eted</w>
▁celebr ated</w>
▁Un fortunately</w>
▁R et
▁B u</w>
pur pose</w>
o v</w>
l ets</w>
is o</w>
edr al</w>
ab s</w>
a hn</w>
D is
8 1</w>
▁uncon sc
▁un ch
▁st olen</w>
▁sis ters</w>
▁regret table</w>
▁pip es</w>
▁new lyw
▁lo g</w>
▁inc in
▁for tress</w>
▁fl u</w>
▁environ ments</w>
▁demol ition</w>
▁comp onent</w>
▁cha eb
▁bor ing</w>
▁Syri a</w>
▁M edicine</w>
▁K im
▁A th
▁9 2</w>
trac t</w>
dquar ter</w>
▁work force</w>
▁trou pe</w>
▁squ ad</w>
▁rati fication</w>
▁pol arization</w>
▁perform ers</w>
▁meas ured</w>
▁inv asion</w>
▁inc entive</w>
▁hosp italization</w>
▁f usion</w>
▁f ighter</w>
▁cr ash</w>
▁comm ented</w>
▁coex ist</w>
▁clos est</w>
▁champ ion</w>
▁anx ious</w>
▁an onym
▁am usement</w>
▁a ide</w>
▁Resp on
▁New sp
▁L ong</w>
▁KIN TEX</w>
▁Hw ang
▁C os
s bur
k yo</w>
h ost</w>
aw s</w>
ann ers</w>
8 3</w>
▁w ard</w>
▁plan ted</w>
▁pass word</w>
▁investig ator</w>
▁hol es</w>
▁her o</w>
▁fin dings</w>
▁dr ought</w>
▁disor ders</w>
▁awk ward</w>
▁adv ancement</w>
▁Resear cher</w>
▁Gye yang</w>
▁Att orney</w>
▁Arch it
z one</w>
s en</w>
el v
el and</w>
D ec
▁sl ight</w>
▁rail ways</w>
▁pan els</w>
▁p air</w>
▁n one</w>
▁kn ife</w>
▁human itarian</w>
▁health care</w>
▁hard ly</w>
▁ha z
▁guit ar</w>
▁g ospel</w>
▁Spir it</w>
▁S in</w>
▁G allery</w>
iz er</w>
if ier</w>
eng e</w>
e ums</w>
d im
as y</w>
a que</w>
P GA</w>
▁trans m
▁reorgan ized</w>
▁rem itt
▁pat ents</w>
▁l ane</w>
▁intensi fying</w>
▁for ef
▁develop s</w>
▁calligrap hy</w>
▁bat ter</w>
▁Ro yal</w>
▁Pr ac
▁Dis p
▁Democr ats</w>
▁199 6</w>
es ome</w>
an ia</w>
' '</w>
▁ur ge</w>
▁term ination</w>
▁shoul ders</w>
▁sh ame</w>
▁mir ror</w>
▁emerg ence</w>
▁coordin ate</w>
▁c ut
▁any way</w>
▁St anding</w>
▁P op
▁F ashion</w>
▁B oo</w>
w ipo</w>
ul f
reg is
ens ome</w>
ar o</w>
P al
▁san itary</w>
▁exten ding</w>
▁d ur
▁cruc ial</w>
▁comp os
▁celebr ating</w>
▁burd ensome</w>
▁bookst ore</w>
▁bel ly</w>
▁b ones</w>
▁W an</w>
▁M a</w>
▁K iw
▁Hol y</w>
▁Gu ardian</w>
▁Dis play</w>
itor ial</w>
h anded</w>
▁v erge</w>
▁them es</w>
▁purif iers</w>
▁nutr i
▁inten d</w>
▁indus tr
▁enac tment</w>
▁el eg
▁deep ening</w>
▁d ual</w>
▁compl aining</w>
▁commod ities</w>
▁al b
▁acces sible</w>
▁Par liam
▁Ad d
u th</w>
overn mental</w>
orti um</w>
ensi onal</w>
7 00</w>
▁weak ening</w>
▁stro ke</w>
▁rel axed</w>
▁po or
▁p avilion</w>
▁misunder standing</w>
▁commemor ation</w>
▁cer em
▁bl ame</w>
▁b ak
▁Christi anity</w>
ter pi
T E
R E
▁sp atial</w>
▁priv acy</w>
▁pr essed</w>
▁pled ges</w>
▁oblig ations</w>
▁min ing</w>
▁j acket</w>
▁inten sity</w>
▁g all
▁farm land</w>
▁experim ents</w>
▁enti r
▁e ye
▁disadvant ages</w>
▁develop er</w>
▁cust om</w>
▁cons isted</w>
▁Tr avel</w>
▁Seog wipo</w>
▁Organ izations</w>
▁H ans
▁Coun sel
ter ian</w>
ore h</w>
ob b
it ers</w>
esp read</w>
ern ity</w>
▁upgr aded</w>
▁unilater ally</w>
▁under t
▁st opping</w>
▁spot light</w>
▁spec ifications</w>
▁sens ors</w>
▁scrip t</w>
▁prot oc
▁protoc ol</w>
▁happ ily</w>
▁h ung</w>
▁c ups</w>
▁b ol
▁Res ort</w>
▁Mer ch
▁K oh</w>
▁As ked</w>
ograph ic</w>
▁wid espread</w>
▁vacc ination</w>
▁stor m</w>
▁sk ating</w>
▁nur ture</w>
▁mechan ical</w>
▁install ment</w>
▁inj ection</w>
▁immun ity</w>
▁gr aph
▁f u
▁distingu ished</w>
▁conj unction</w>
▁communic ating</w>
▁coll ateral</w>
▁a d</w>
▁Coun termeasures</w>
▁Concer ns</w>
▁B illboard</w>
w ill</w>
tr a</w>
ti oned</w>
l o</w>
i os</w>
g yeom</w>
g ressi
▁tot ally</w>
▁symb olic</w>
▁rou t
▁rea d
▁pit ching</w>
▁meas les</w>
▁mar t
▁h yp
▁d in
▁bl u
▁back drop</w>
▁b itter</w>
▁H i</w>
▁H aw
▁C afe</w>
t op
om eter</w>
n ote</w>
k eun</w>
ir ang</w>
in t
fac tory</w>
am ine</w>
▁virt uous</w>
▁optim al</w>
▁nur s
▁lif etime</w>
▁j un
▁forg otten</w>
▁fas test</w>
▁d erm
▁cli p</w>
▁U p</w>
▁U k
▁Tong yeong</w>
▁Sy mp
▁M obile</w>
▁M i
t t
os ex
id eo</w>
ep l
▁vac uum</w>
▁tim ely</w>
▁surv iv
▁sem if
▁resp ective</w>
▁r ocks</w>
▁o riental</w>
▁mic ro</w>
▁m our
▁irreg ular</w>
▁gr av
▁fin tech</w>
▁design ating</w>
▁deleg ate</w>
▁ca ution</w>
▁benef icial</w>
▁J ew
▁Col omb
▁, ,</w>
op es</w>
l elight</w>
ash es</w>
ac ular</w>
F or</w>
▁veget able</w>
▁v ocal</w>
▁sim p
▁sc ared</w>
▁satis fy</w>
▁s ib
▁resh uffle</w>
▁plung ed</w>
▁manufac ture</w>
▁lux urious</w>
▁lun cheon</w>
▁free ze</w>
▁f its</w>
▁cust ody</w>
▁consid ers</w>
▁Overs eas</w>
▁Jud iciary</w>
▁Expr ess</w>
ver ages</w>
ir a</w>
Pl ease</w>
I D</w>
C l
▁tr ail</w>
▁tom bs</w>
▁so ju</w>
▁rej ection</w>
▁rein v
▁plan ting</w>
▁out comes</w>
▁mal icious</w>
▁lot us</w>
▁hol der</w>
▁foref ront</w>
▁elig ibility</w>
▁ear ning</w>
▁e uro
▁di ffer</w>
▁coun termeasure</w>
▁commod ity</w>
▁clean er</w>
▁Ye ons
▁Se ol</w>
▁S ea
▁Ch ange</w>
▁Any one</w>
u a</w>
inter est</w>
estig ation</w>
ed ay</w>
a very</w>
▁trans formation</w>
▁sculp ture</w>
▁prof ile</w>
▁pack ages</w>
▁int est
▁fl ed</w>
▁fing er</w>
▁cho ir</w>
▁bon us</w>
▁am ounted</w>
▁Wh enever</w>
▁S im</w>
▁N owadays</w>
▁E ag
pr ising</w>
p m</w>
os itory</w>
m ed
b ow</w>
as es</w>
ag en</w>
T Vs</w>
M F</w>
▁whe el
▁upd ated</w>
▁roo kie</w>
▁r ighteous</w>
▁p ick
▁p agoda</w>
▁fl ew</w>
▁exec ute</w>
▁exc essively</w>
▁employ ers</w>
▁dis qual
▁dep lo
▁d ining</w>
▁comp iled</w>
▁co aching</w>
▁bur n</w>
▁bench mark</w>
▁Prov isional</w>
▁Presby terian</w>
▁Or der</w>
▁Educ ational</w>
▁Dis abilities</w>
▁7 8</w>
pers ons</w>
eng ers</w>
ag on
Th ey</w>
▁ther eto</w>
▁supp lier</w>
▁sp are</w>
▁reserv es</w>
▁r aining</w>
▁pig s</w>
▁hi king</w>
▁hear ings</w>
▁exp ed
▁econom ically</w>
▁cot ton</w>
▁T ogether</w>
▁Mar t</w>
▁EX O</w>
▁Coll ection</w>
▁C ou
ver tis
ang san</w>
▁view er</w>
▁pic king</w>
▁mess enger</w>
▁log o</w>
▁hand ic
▁expr esses</w>
▁exchang ing</w>
▁evac uation</w>
▁enti ties</w>
▁determ ines</w>
▁Particip ation</w>
▁Net her
▁Law yer</w>
▁Kiw oom</w>
▁K ar
▁Ch oir</w>
▁C irc
uh ol</w>
ter f
oll i</w>
g yun</w>
C ouncil</w>
▁trag edy</w>
▁refer ee</w>
▁particip ates</w>
▁liqu idity</w>
▁inv ention</w>
▁det ective</w>
▁be ds</w>
▁all erg
▁T F</w>
▁O r</w>
▁J oh
▁I P</w>
qu et</w>
a eng</w>
1 5
▁trigg ered</w>
▁pl eased</w>
▁p ocket</w>
▁loc ked</w>
▁l ake</w>
▁improv es</w>
▁ill ustr
▁ex terior</w>
▁dist orted</w>
▁crimin als</w>
▁cr aze</w>
▁Y ellow</w>
▁Su h</w>
▁St art</w>
▁I k
▁De c</w>
▁Da ech
▁D on
y on</w>
s ites</w>
on ies</w>
lo yees</w>
▁wa ist</w>
▁uncon s
▁spect acular</w>
▁rel y</w>
▁r ail</w>
▁po ems</w>
▁pe pper</w>
▁hy per
▁fraud ulent</w>
▁demonstr ations</w>
▁dec iding</w>
▁calc ulate</w>
▁c ried</w>
▁attend ees</w>
▁accus ation</w>
▁Liv estock</w>
▁Bea uty</w>
amb oo</w>
▁v ibr
▁sover eignty</w>
▁sh ad
▁scholar ships</w>
▁mus eums</w>
▁mor al</w>
▁fin ances</w>
▁exam inations</w>
▁aggr eg
▁Tr ee</w>
▁S usp
ur ship</w>
ul us</w>
o ffs</w>
h ea
el e</w>
dim ensional</w>
cr imin
▁w ounds</w>
▁thank ful</w>
▁sal ad</w>
▁pit ch</w>
▁perform s</w>
▁frustr ated</w>
▁fierc ely</w>
▁exp ires</w>
▁en forced</w>
▁div ide</w>
▁disadvant age</w>
▁circ uit</w>
▁cha os</w>
▁b rown</w>
▁b ands</w>
▁amb ul
▁aff ects</w>
▁U ll
▁T ak
▁Mor eover</w>
▁Kn owledge</w>
▁Coordin ation</w>
▁C old</w>
oun ding</w>
i ency</w>
ensi c</w>
con n
al izing</w>
T U</w>
▁unp aid</w>
▁see ks</w>
▁se ed</w>
▁recipi ent</w>
▁p in
▁lat ter</w>
▁l ight
▁hundr ed</w>
▁fav ors</w>
▁eth nic</w>
▁del icate</w>
▁d uration</w>
▁coup ons</w>
▁cap tiv
▁b it
▁T HAAD</w>
▁M ang
▁M ain
▁Liter ature</w>
▁I oT</w>
▁Cl in
ro g
ation ally</w>
air e</w>
S m
▁umbr ella</w>
▁ta ek
▁subs equ
▁retal iation</w>
▁p ot</w>
▁mus hrooms</w>
▁mar ry</w>
▁depend ent</w>
▁cost umes</w>
▁arg uing</w>
▁W age</w>
▁O LED</w>
▁Mich uhol</w>
▁I C</w>
▁Comm ercial</w>
▁Ch emical</w>
▁C G
▁B et
▁B a
oc ial</w>
mbud sman</w>
▁vacc ine</w>
▁tr em
▁scre ens</w>
▁r ented</w>
▁pres cription</w>
▁nav al</w>
▁j ew
▁indic ator</w>
▁h ang
▁free zing</w>
▁ep idem
▁engin eers</w>
▁engin eer</w>
▁cour ts</w>
▁coun t</w>
▁b ail</w>
▁absur d</w>
▁Steph en</w>
▁Se o
▁P avilion</w>
▁Han ky
▁Dis tribution</w>
▁D uty</w>
y l</w>
in um</w>
es y</w>
c ar
ara oke</w>
▁wr ink
▁witn essed</w>
▁v enti
▁st ole</w>
▁prov ider</w>
▁poss ession</w>
▁overl apping</w>
▁end ure</w>
▁dynam ic</w>
▁calend ar</w>
▁bl owing</w>
▁b agg
▁a x
▁Th ird</w>
▁Saem aul</w>
▁K ids</w>
▁C ar</w>
▁8 1</w>
tis ts</w>
m et</w>
R ussi
▁qu iet
▁memor able</w>
▁key note</w>
▁individ ually</w>
▁e rupted</w>
▁consum ed</w>
▁bur ial</w>
▁boil er</w>
▁b ib
▁T op</w>
▁Inf inite</w>
▁H ill</w>
▁D A
▁At l
▁8 8</w>
par t</w>
m ates</w>
for d</w>
er b
el li
S p
▁testi fied</w>
▁stip ulated</w>
▁pul l</w>
▁pres erv
▁nutr ition</w>
▁maj ors</w>
▁land sl
▁infring ement</w>
▁exhib ited</w>
▁deliver s</w>
▁ch iefs</w>
▁Rail way</w>
▁P ay
▁In ha</w>
▁G ur
▁Da ed
▁Ass oci
us tration</w>
ul sion</w>
thw estern</w>
s ol
our c
iver pool</w>
in ding</w>
▁w and
▁tw enty</w>
▁tra uma</w>
▁stip ulates</w>
▁sprea ds</w>
▁rev ol
▁prot ective</w>
▁motiv ation</w>
▁med ication</w>
▁m aybe</w>
▁foo t
▁dev oted</w>
▁copyr ight</w>
▁coin c
▁c abb
▁S ix</w>
▁P ut</w>
▁Ob ama</w>
▁Ch ic
im i</w>
ed ness</w>
▁requir ement</w>
▁prop ag
▁predic ting</w>
▁f itness</w>
▁des cription</w>
▁campa igns</w>
▁c entr
▁adv ise</w>
▁Nether lands</w>
▁N uri</w>
▁L H</w>
▁CC TVs</w>
▁C P
▁8 3</w>
ye op</w>
ounc ed</w>
lus ive</w>
k oo</w>
er vers</w>
em per
d ness</w>
c in
b it</w>
▁taek wondo</w>
▁rep ay</w>
▁psych i
▁prot esting</w>
▁prom ul
▁poll s</w>
▁kid n
▁exc use</w>
▁counc il
▁commissi oner</w>
▁car ries</w>
▁Y G</w>
▁W W</w>
▁Uk r
▁P or
▁L as
▁Every thing</w>
▁Comp rehensive</w>
▁Challeng e</w>
▁C BS</w>
tif ied</w>
or us</w>
mak ers</w>
k in</w>
al a</w>
ai k</w>
▁with drew</w>
▁strugg led</w>
▁sh rim
▁practic ally</w>
▁inv al
▁gu ided</w>
▁ed iting</w>
▁di oxide</w>
▁comm entary</w>
▁brief ly</w>
▁bi ological</w>
▁T O
▁Sm artph
▁L A</w>
▁D eal</w>
▁Acc ord
is a</w>
exc luding</w>
az z</w>
▁s ellers</w>
▁s ed
▁qu an
▁pat h
▁main tains</w>
▁doub ts</w>
▁del ete</w>
▁comment ator</w>
▁car eers</w>
▁academ ia</w>
▁S on
▁B in</w>
▁8 6</w>
tw o</w>
ac tively</w>
▁uplo ad</w>
▁un l
▁st eep</w>
▁rev oked</w>
▁ref uted</w>
▁prob ation</w>
▁predic tion</w>
▁occas ions</w>
▁n eph
▁med i
▁lea ther</w>
▁l ad
▁h orm
▁gr ave</w>
▁ev enly</w>
▁encoun ter</w>
▁disadvant aged</w>
▁compl ain</w>
▁Pl at
▁M ary</w>
▁M C</w>
▁G yo</w>
▁G DP</w>
▁E arly</w>
▁Dep ending</w>
om i</w>
▁prob ability</w>
▁n oodle</w>
▁intell igent</w>
▁explo ded</w>
▁counsel ors</w>
▁counc ils</w>
▁coin s</w>
▁co in</w>
▁bor ne</w>
▁Z ero</w>
▁Y o
▁U AE</w>
▁Hanky oreh</w>
▁G old</w>
▁Cas tle</w>
yc ling</w>
ul ous</w>
m on</w>
fiel der</w>
es an</w>
by on</w>
ad ang</w>
An g</w>
▁var ieties</w>
▁pot atoes</w>
▁li aison</w>
▁in put</w>
▁clar ify</w>
▁c ap</w>
▁bloss oms</w>
▁app raisal</w>
▁Y u
▁Stud y</w>
▁SU V</w>
▁S ev
▁H en
▁Franc isco</w>
▁Fol k</w>
pl ayed</w>
op y</w>
op sy</w>
ir ds</w>
igr ation</w>
her ic</w>
en es</w>
eg oti
dis c
anc ers</w>
M P</w>
▁tub erculosis</w>
▁toil ets</w>
▁st ati
▁st aff
▁recons truc
▁prom ises</w>
▁present ations</w>
▁obst acles</w>
▁lap top</w>
▁l ef
▁high light</w>
▁evac uated</w>
▁def amation</w>
▁contac ts</w>
▁accommod ate</w>
▁S ector</w>
▁Or din
▁N an
▁Liber ation</w>
▁H ang</w>
▁E r
▁Cambod ia</w>
▁Accord ingly</w>
sh ore</w>
etr o</w>
am mation</w>
O n</w>
▁wheel ch
▁wat ch
▁was t
▁vit amin</w>
▁tr usted</w>
▁tis sue</w>
▁stati oned</w>
▁spir itual</w>
▁sal aries</w>
▁gu ard
▁end less</w>
▁en gr
▁bagg age</w>
▁b alls</w>
▁Typ hoon</w>
▁Ph armaceutical</w>
▁P il</w>
▁J us
▁C am
▁A li
ub lis
og a</w>
lai med</w>
is ter</w>
co al</w>
ch ae</w>
ang eum</w>
Gang nam</w>
▁str ive</w>
▁spl end
▁rep aired</w>
▁r amp
▁ow ns</w>
▁or al</w>
▁neighb or</w>
▁mission aries</w>
▁memor andum</w>
▁mat urity</w>
▁lect urers</w>
▁int ake</w>
▁excav ated</w>
▁di am
▁dest inations</w>
▁com for
▁col umn</w>
▁circumst antial</w>
▁chem icals</w>
▁ap titude</w>
▁T oo</w>
▁Sub way</w>
▁R OK</w>
▁M en</w>
▁F arm</w>
▁Chic ago</w>
um b</w>
to ons</w>
ti an</w>
i ro
eh ind</w>
d owns</w>
bok ki</w>
b ly</w>
▁wors en</w>
▁thr esh
▁tail ored</w>
▁rev ival</w>
▁explan ations</w>
▁disb ursement</w>
▁d ances</w>
▁corr ectly</w>
▁clo th</w>
▁break down</w>
▁ab using</w>
▁Ui wang</w>
▁T t
▁Stand ard</w>
▁S eason</w>
▁La os</w>
▁Emp ire</w>
▁198 8</w>
p ri
p ow
ion ally</w>
f irst</w>
d irector</w>
▁t oll</w>
▁s us
▁resp iratory</w>
▁refres hing</w>
▁los es</w>
▁isol ated</w>
▁h am
▁disp ose</w>
▁cost ume</w>
▁compan ion</w>
▁comm itting</w>
▁arr ives</w>
▁Yeong nam</w>
▁Trea tment</w>
▁Newsp aper</w>
▁Intell ectual</w>
▁G uri</w>
▁Ar med</w>
▁An t
▁Af ter
▁A j
ye on
un eration</w>
p resident</w>
is san</w>
i us</w>
C orruption</w>
▁v ou
▁sty les</w>
▁strea ming</w>
▁pain ter</w>
▁p ose</w>
▁investig ators</w>
▁distur b
▁dismant ling</w>
▁commercial ized</w>
▁bri qu
▁bound ary</w>
▁ar ises</w>
▁T en</w>
▁R ice</w>
▁L iverpool</w>
▁L ady</w>
s un
od ium</w>
l eum</w>
err ies</w>
enz a</w>
ad on</w>
D r
▁t ang
▁sh am
▁sea w
▁rel ay</w>
▁ref usal</w>
▁licens ing</w>
▁infl ammation</w>
▁des p
▁democr atization</w>
▁confer ences</w>
▁cond ol
▁clean ed</w>
▁bu mp
▁activ ate</w>
▁D am</w>
y an</w>
k ind</w>
h oe</w>
St ar</w>
Pal embang</w>
▁var ies</w>
▁t obacco</w>
▁star ter</w>
▁spons or</w>
▁rec overing</w>
▁kil og
▁int ent</w>
▁independ ently</w>
▁gr eet</w>
▁env oy</w>
▁entir ely</w>
▁doll s</w>
▁disapp earance</w>
▁det ect</w>
▁demonstr ated</w>
▁cr azy</w>
▁conduc tor</w>
▁V ir
▁Tex as</w>
▁S ook
▁Mob is</w>
▁Mess i</w>
▁H and
ul l
r ams</w>
olog ist</w>
k ok</w>
iti c</w>
g yeong</w>
B K</w>
▁web sites</w>
▁transf ers</w>
▁stagn ant</w>
▁simultan eous</w>
▁s am
▁rel ocated</w>
▁r ipple</w>
▁lic enses</w>
▁incorpor ated</w>
▁in h
▁equ ally</w>
▁d ying</w>
▁conf isc
▁boo king</w>
▁bo ards</w>
▁b ars</w>
▁Dong hae</w>
▁Deliber ative</w>
▁D asan</w>
▁Corpor ate</w>
▁Ch icken</w>
ont al</w>
om y</w>
nam ed</w>
est eem</w>
O ur</w>
C A</w>
▁roo ts</w>
▁rein force</w>
▁perpetr ator</w>
▁perm its</w>
▁n oon</w>
▁mil eage</w>
▁ign ore</w>
▁gras p</w>
▁det ached</w>
▁d rops</w>
▁cons equ
▁ch ew
▁cand lelight</w>
▁answ ering</w>
▁St yle</w>
▁Prosec ution</w>
▁In c</w>
▁For estry</w>
▁Bi ennale</w>
▁7 9</w>
um ber</w>
ran ked</w>
oc kchain</w>
l ow</w>
ew ard
eed ings</w>
▁v olleyball</w>
▁tas ting</w>
▁st ew</w>
▁s orrow</w>
▁regul ated</w>
▁promo tions</w>
▁petition er</w>
▁obst acle</w>
▁monopol y</w>
▁mar ch</w>
▁f ighters</w>
▁drea med</w>
▁det ained</w>
▁comp ati
▁ch eers</w>
▁alb ums</w>
▁N ar
▁I ce</w>
▁Har ry</w>
▁A ge</w>
▁9 8</w>
▁8 7</w>
▁199 2</w>
j eong
id al</w>
er en</w>
I S
▁tab let</w>
▁rain fall</w>
▁r oll</w>
▁pot ato</w>
▁l acked</w>
▁farm er</w>
▁exten sive</w>
▁el ement</w>
▁div iding</w>
▁distingu ish</w>
▁depr essed</w>
▁cont ests</w>
▁chaeb ol</w>
▁cer amic</w>
▁bri ef</w>
▁ball istic</w>
▁V ehic
▁Emp loyees</w>
us sion</w>
in als</w>
il le</w>
h os
ed es</w>
d ec
▁wr ong
▁t ak
▁spar ked</w>
▁sculp tures</w>
▁reli ability</w>
▁reg ain</w>
▁p iled</w>
▁jun iors</w>
▁id ols</w>
▁g ross</w>
▁downlo ad</w>
▁contr ad
▁airpl ane</w>
▁T Vs</w>
▁S W</w>
▁N ur
▁J er
▁Geo je</w>
w ar
res trial</w>
ge olli</w>
g overnmental</w>
c oun
an ic</w>
adem ic</w>
▁tox ic</w>
▁th ro
▁pursu it</w>
▁obs ervers</w>
▁moist ur
▁mas terpi
▁instruc ted</w>
▁id le</w>
▁fre ight</w>
▁forc ing</w>
▁disc re
▁dep end</w>
▁Bat tle</w>
▁B ill</w>
yal ty</w>
ug al</w>
sib ly</w>
o tics</w>
h arm
e ot
▁tex ts</w>
▁st ealing</w>
▁shou ting</w>
▁quanti ties</w>
▁norm alize</w>
▁m unicip
▁l ately</w>
▁head lines</w>
▁desper ately</w>
▁dep loyment</w>
▁arr ears</w>
▁administr ator</w>
▁Saem angeum</w>
▁Nob el</w>
▁E mir
▁Dan iel</w>
▁Cy ber</w>
▁Buddh ism</w>
▁Ag ainst</w>
um an</w>
ol a</w>
ir med</w>
fl ight</w>
euk gi</w>
eg ation</w>
all el</w>
▁w ise</w>
▁ver bal</w>
▁the ft</w>
▁quarter ly</w>
▁progr essed</w>
▁oper a</w>
▁nov els</w>
▁inv iting</w>
▁intern ally</w>
▁gu ides</w>
▁g iant</w>
▁fant astic</w>
▁faith ful</w>
▁demonstr ate</w>
▁cooper ating</w>
▁consci enti
▁cen tering</w>
▁c ath
▁br ush</w>
▁Sh imb
▁Shimb un</w>
▁N ote</w>
▁Min imum</w>
▁Ir a
▁C ome</w>
▁A h</w>
os ung</w>
m ok</w>
ic ing</w>
ex amination</w>
b aek</w>
Wh ile</w>
▁tigh tening</w>
▁spons orship</w>
▁rhyth m</w>
▁res emb
▁proc eedings</w>
▁or ange</w>
▁op enly</w>
▁in ad
▁guid eline</w>
▁exam in
▁emp athy</w>
▁el ders</w>
▁domin ant</w>
▁ch airs</w>
▁cap ital
▁be verages</w>
▁Legis lation</w>
ou dly</w>
on ia</w>
k wang</w>
ingd oms</w>
g ogi</w>
er als</w>
el sea</w>
d ol</w>
b eing</w>
at ab
ae ul</w>
▁sp okesperson</w>
▁pl aza</w>
▁narrow ed</w>
▁mom ents</w>
▁legitim ate</w>
▁gr ab
▁erad icate</w>
▁des ires</w>
▁U sing</w>
▁Sook myung</w>
▁S anta</w>
▁Nam daemun</w>
▁Inter est</w>
▁Ad vertis
res t
m entally</w>
her self</w>
fortun ate</w>
atri c</w>
at eness</w>
T F</w>
▁spea ks</w>
▁p ump
▁organiz ers</w>
▁nurs ery</w>
▁hea dquarter</w>
▁cosm etic</w>
▁ch ips</w>
▁business man</w>
▁barg aining</w>
▁attac king</w>
▁appar ently</w>
▁W illi
▁U ber</w>
▁O il</w>
▁H ear
▁Gr ade</w>
▁G ug
▁Ch ampionships</w>
▁9 1</w>
om a</w>
hy o</w>
f rom</w>
f er</w>
d ig
as hing</w>
▁so ap</w>
▁sk illed</w>
▁ph ishing</w>
▁p acking</w>
▁od ds</w>
▁medic ines</w>
▁gent le</w>
▁educ ate</w>
▁dr astic</w>
▁div isions</w>
▁depic ted</w>
▁d ol
▁contac ting</w>
▁coll ision</w>
▁c enti
▁b amboo</w>
▁autom otive</w>
▁adv oc
▁absol utely</w>
▁St one</w>
▁Se x
▁SM E</w>
▁Mad uro</w>
▁K ol
▁C inema</w>
▁Ac tiv
v N</w>
pp ers</w>
ent ures</w>
em ale</w>
e c</w>
att ack</w>
as ia</w>
al t</w>
O n
▁ver ifying</w>
▁t ables</w>
▁som eday</w>
▁sil ence</w>
▁s et
▁retal i
▁re forming</w>
▁pl acing</w>
▁new born</w>
▁nerv es</w>
▁n ight
▁leg end</w>
▁land l
▁l ined</w>
▁h itter</w>
▁gr ay</w>
▁gen u
▁forec asts</w>
▁col ored</w>
▁cer amics</w>
▁attac hment</w>
▁arg ues</w>
▁acqu iring</w>
▁Yong byon</w>
▁U s
▁Stud io</w>
▁S ection</w>
▁S a</w>
▁P aik</w>
▁L NG</w>
▁J ack
rea s</w>
per formance</w>
li ve</w>
f ried</w>
air ing</w>
S pec
P ar
▁vol c
▁stea k</w>
▁soc ial
▁s ons</w>
▁rec k
▁promp t</w>
▁ph armac
▁pat hs</w>
▁mark et
▁m ud
▁interv ene</w>
▁inher ited</w>
▁human ity</w>
▁disc om
▁deterior ated</w>
▁an th
▁Pol and</w>
▁F ine</w>
▁Ex amination</w>
▁B um</w>
▁Ass istant</w>
▁19 50</w>
un ch</w>
sh r
is y</w>
est os</w>
en ant</w>
9 00</w>
▁w ound</w>
▁sh ifted</w>
▁scienti sts</w>
▁plain tiff</w>
▁pl ates</w>
▁parc el</w>
▁ne ither</w>
▁l anes</w>
▁intermedi ate</w>
▁hon ey
▁blo g</w>
▁apprec iated</w>
▁am at
▁a sh
▁O ut</w>
▁H ot
▁F eb</w>
▁B ot
ut able</w>
th ree</w>
il a</w>
ic king</w>
i als</w>
esl a</w>
el ve</w>
ch emical</w>
S u
▁voc ab
▁unfair ly</w>
▁uncon d
▁termin ate</w>
▁prob e</w>
▁pres ided</w>
▁pr essing</w>
▁pos sibilities</w>
▁pled ged</w>
▁or gan</w>
▁mel ody</w>
▁lo ad</w>
▁innoc ence</w>
▁housew ives</w>
▁hard ships</w>
▁excep tional</w>
▁ev angel
▁enh ancement</w>
▁du pl
▁def ending</w>
▁com ic</w>
▁climb ed</w>
▁bas ically</w>
▁app le</w>
▁access ories</w>
▁T V
▁Start up</w>
▁St e
▁Nam won</w>
▁Gre en
▁G od
▁Exc ell
▁Counsel ing</w>
▁A k
▁199 1</w>
t ual</w>
d uk</w>
D B</w>
AI ST</w>
▁thresh old</w>
▁prom otes</w>
▁pedestr ians</w>
▁k araoke</w>
▁fav ored</w>
▁fal sely</w>
▁exp orting</w>
▁del aying</w>
▁arbitr ation</w>
▁ali en
▁VI P</w>
▁P ow
▁Mod ern</w>
▁Gol d
▁Fac tory</w>
▁E qu
tit udes</w>
ter ial</w>
liz ation</w>
i won</w>
▁won dered</w>
▁v ast</w>
▁stab bed</w>
▁sp ac
▁sh oe</w>
▁refrig erator</w>
▁preemp tive</w>
▁port fol
▁par allel</w>
▁menti oning</w>
▁govern ors</w>
▁geograph ical</w>
▁gard ens</w>
▁g otten</w>
▁for eg
▁ex isted</w>
▁cli ff</w>
▁challeng ed</w>
▁bro ad</w>
▁appoin tments</w>
▁R ose</w>
▁L arge</w>
▁Dong tan</w>
▁B ab
tif icial</w>
n yeong</w>
erea b
end ous</w>
R K</w>
H ow</w>
▁st alled</w>
▁prof itable</w>
▁p enc
▁employ er</w>
▁aut opsy</w>
▁Sung ky
▁Mar k</w>
▁D NA</w>
▁Bang kok</w>
▁202 5</w>
s m</w>
p ros
m eters</w>
it z</w>
is su
in ts</w>
es ide</w>
es c
arb or</w>
H y
▁terror ist</w>
▁sl ept</w>
▁sc al
▁s ake</w>
▁res urr
▁rad ar</w>
▁nation ality</w>
▁maj ored</w>
▁liv ely</w>
▁invol ve</w>
▁hon ored</w>
▁fun ded</w>
▁fil ial</w>
▁extingu ished</w>
▁establis hes</w>
▁denuclear ize</w>
▁classi fication</w>
▁cat ches</w>
▁burd ens</w>
▁arg uments</w>
▁Tr y</w>
▁N H</w>
▁L a</w>
▁Kang won</w>
▁Go jong</w>
▁C all</w>
▁9 3</w>
yst ems</w>
wor ds</w>
v al
m un
l ooking</w>
an th
▁y ours</w>
▁ver tical</w>
▁uncons titutional</w>
▁un fortunate</w>
▁trans form</w>
▁tr apped</w>
▁ta g</w>
▁ship ments</w>
▁re iter
▁orig inated</w>
▁or chestra</w>
▁n aked</w>
▁interpr et</w>
▁ins truction</w>
▁diss ol
▁disag reement</w>
▁dict at
▁contro ls</w>
▁comm ute</w>
▁circumst ance</w>
▁bo yc
▁alt ogether</w>
▁adolesc ents</w>
▁S erg
▁O riental</w>
▁Ac tion</w>
ter hood</w>
os eon</w>
lo ad</w>
ing er</w>
ereab outs</w>
ch ung</w>
b estos</w>
▁trip le</w>
▁tow ns</w>
▁sign als</w>
▁radi o
▁quan tit
▁opp onents</w>
▁mis sions</w>
▁me tic
▁l ightly</w>
▁en shr
▁chore ography</w>
▁as tr
▁acc ompl
▁Pr im
▁P ass
▁B ri
r ance</w>
l ined</w>
g h
an ked</w>
ab ling</w>
U S
In d
G wang
F i</w>
D C</w>
▁staff s</w>
▁repro duc
▁indis crimin
▁incor r
▁hom osex
▁euro s</w>
▁ass ume</w>
▁applic able</w>
▁analy zes</w>
▁adm it</w>
▁T esla</w>
▁Sex ual</w>
▁Res ident</w>
▁N issan</w>
▁M etro</w>
▁G ive</w>
▁Fl ower</w>
▁Commun ist</w>
▁Ch elsea</w>
ul ary</w>
or ith
iti oning</w>
ic ian</w>
ectiv ity</w>
ch eong</w>
bus iness</w>
▁wh ereabouts</w>
▁super visory</w>
▁reun ification</w>
▁peri od
▁out flow</w>
▁o ri
▁ment oring</w>
▁im bal
▁gre eted</w>
▁en abling</w>
▁dr un
▁disc overing</w>
▁d ong</w>
▁d ark
▁com edian</w>
▁clim b</w>
▁borrow ing</w>
▁bon uses</w>
▁Yeons u</w>
▁Sind ang</w>
▁Independ ent</w>
▁G TX</w>
▁D idn</w>
▁Co ffee</w>
un kwan</w>
ug u
esti ve</w>
em ia</w>
e et
N D</w>
G B</w>
▁t ent</w>
▁su ed</w>
▁rev enge</w>
▁prov ing</w>
▁occup y</w>
▁nutri ents</w>
▁newlyw eds</w>
▁car ved</w>
▁app liance</w>
▁ank le</w>
▁Schol ar
▁S og
▁R ock</w>
▁M ission</w>
▁L ittle</w>
▁Gim je</w>
▁E p
▁B eom</w>
w age</w>
c on</w>
E l
▁vill a</w>
▁surp ass</w>
▁sc ar
▁quiet ly</w>
▁por n
▁mis con
▁imp aired</w>
▁er ected</w>
▁destro ying</w>
▁conf ession</w>
▁anticip ation</w>
▁Un ified</w>
▁S ach
▁On line</w>
▁N H
▁Hung ary</w>
▁CG V</w>
▁B ears</w>
▁App raisal</w>
st ep</w>
s elling</w>
ren owned</w>
is ely</w>
il ation</w>
eh ead</w>
col ored</w>
chil d</w>
ab a</w>
M oon</w>
▁sl avery</w>
▁reserv oir</w>
▁mys tery</w>
▁mos qu
▁mod ify</w>
▁liter ally</w>
▁k ingdom</w>
▁ins ol
▁inf inite</w>
▁gun s</w>
▁gre etings</w>
▁franch ises</w>
▁extingu ish</w>
▁char coal</w>
▁atmosp heric</w>
▁an gle</w>
▁Y ak
▁Tr uth</w>
▁Ta ean</w>
▁Q atar</w>
▁Parliam ent</w>
▁M ach
▁L i</w>
▁Juven ile</w>
▁Fl or
▁Emir ates</w>
▁Eag les</w>
▁9 6</w>
w oman</w>
ugg ed</w>
u j
r isk</w>
oun ge</w>
k ies</w>
N E</w>
▁transl ate</w>
▁subs tit
▁st em</w>
▁so y</w>
▁sad ness</w>
▁reti re</w>
▁professi onalism</w>
▁or g
▁inten tional</w>
▁impl ements</w>
▁gr illed</w>
▁foreg oing</w>
▁exhib its</w>
▁ex otic</w>
▁en erg
▁dis rup
▁consc ience</w>
▁appropri ateness</w>
▁Yang san</w>
▁I C
▁Ex port</w>
▁Ar irang</w>
▁4 50</w>
rup t
os ium</w>
k il
eward ship</w>
aly st</w>
▁volunt eering</w>
▁tr ail
▁to ys</w>
▁ter restrial</w>
▁t angible</w>
▁subcontrac tors</w>
▁spr ink
▁san itation</w>
▁s izes</w>
▁p ad</w>
▁meaning less</w>
▁initi ated</w>
▁guard ians</w>
▁gall eries</w>
▁end ang
▁behav iors</w>
▁ath letic</w>
▁ab dom
▁Sungky unkwan</w>
▁Sh all</w>
▁O pp
▁Chil gok</w>
▁10 1</w>
on ement</w>
m at
iel ds</w>
ff in</w>
es tly</w>
ehol ders</w>
c atching</w>
ans ori</w>
▁vocab ulary</w>
▁vic ious</w>
▁unch anged</w>
▁ultim ately</w>
▁spec ially</w>
▁sex y</w>
▁semif inals</w>
▁secret ariat</w>
▁rein st
▁ref using</w>
▁rea ff
▁purif ier</w>
▁off enders</w>
▁mon itors</w>
▁mir acle</w>
▁g od</w>
▁condition ers</w>
▁bo osting</w>
▁bl eeding</w>
▁appro aches</w>
▁T un
▁P os
▁P ak
▁F ather</w>
▁9 7</w>
▁19 19</w>
us hing</w>
uk i</w>
ro ximately</w>
ob o</w>
ec es</w>
ar ians</w>
A ll</w>
▁trad em
▁su ffers</w>
▁sk ep
▁sand w
▁rest oring</w>
▁prov oc
▁merch and
▁liv el
▁li p
▁ins ects</w>
▁ind emn
▁hon ey</w>
▁fort une</w>
▁embro iled</w>
▁council ors</w>
▁cont am
▁cl ock</w>
▁c ock
▁bl an
▁author ization</w>
▁al lies</w>
▁air ports</w>
▁Sang ju</w>
▁L ook</w>
▁K uk</w>
▁H ak
▁Fac ility</w>
▁F an</w>
▁Ass istance</w>
▁A M</w>
t ful</w>
om in
it ures</w>
al g
▁sur ely</w>
▁str ikes</w>
▁shr inking</w>
▁short ages</w>
▁sc ary</w>
▁rid icul
▁remitt ance</w>
▁rem uneration</w>
▁recogn izing</w>
▁od or</w>
▁ind icate</w>
▁identi fying</w>
▁hesit ate</w>
▁ground breaking</w>
▁g ro
▁fin alize</w>
▁exclus ion</w>
▁disc ounted</w>
▁disc arded</w>
▁depar ted</w>
▁deep er</w>
▁crow n</w>
▁centi meters</w>
▁acqu itted</w>
▁S till</w>
▁P eter</w>
▁MO U</w>
▁L ow</w>
▁198 7</w>
iti ous</w>
id ency</w>
ea fter</w>
d el
arm acy</w>
ann el</w>
I T
▁y ach
▁w eren</w>
▁syn th
▁r h
▁qu iz</w>
▁prot esters</w>
▁particip atory</w>
▁p anc
▁motorc ycle</w>
▁mod ification</w>
▁h at
▁gr anting</w>
▁fant asy</w>
▁disappoin ting</w>
▁dens ity</w>
▁d w
▁cro p</w>
▁counsel or</w>
▁conv icted</w>
▁cons ulted</w>
▁cons ortium</w>
▁char ter</w>
▁ch amber</w>
▁alum ni</w>
▁adv ancing</w>
▁Orig inally</w>
▁L ab</w>
▁C oin
▁9 4</w>
v iew</w>
re y</w>
c ity</w>
anc ell
1 3
▁specif y</w>
▁sm ugg
▁sis terhood</w>
▁shrim p</w>
▁r ational</w>
▁nick name</w>
▁influ enza</w>
▁hand some</w>
▁h ambur
▁gradu ating</w>
▁f ears</w>
▁distinc tive</w>
▁discom fort</w>
▁cred itors</w>
▁conver t</w>
▁co at</w>
▁camp s</w>
▁bookst ores</w>
▁Sam cheok</w>
▁S of
▁Pr ice</w>
▁O ECD</w>
▁L ou
▁J obs</w>
▁H e
▁F unds</w>
▁Coun try</w>
▁Comm od
▁8 9</w>
v a</w>
t oral</w>
sh irt</w>
l ying</w>
im ination</w>
f unded</w>
eok bokki</w>
cel ain</w>
an eous</w>
▁surg ed</w>
▁subcontrac tor</w>
▁regis tering</w>
▁rad on</w>
▁lov ing</w>
▁l ump</w>
▁del ays</w>
▁def ault</w>
▁counc ilor</w>
▁collea gue</w>
▁Wor k
▁K ane</w>
▁Haw ai
▁B ar</w>
x y</w>
oo ked</w>
oc cup
m ented</w>
h es
con f
C on
▁seaw eed</w>
▁occas ional</w>
▁nav igation</w>
▁mil d</w>
▁mar athon</w>
▁light ning</w>
▁gener ous</w>
▁fr ac
▁fat al</w>
▁civ ilization</w>
▁ch ip</w>
▁bo iled</w>
▁appoin ting</w>
▁accompan ying</w>
▁Rest aur
▁P ot
▁P ic
▁Entr ustment</w>
▁Ch eck</w>
ur n</w>
sec ond</w>
resent ative</w>
or o</w>
o id</w>
n ot</w>
m ic</w>
im ir</w>
▁writ ings</w>
▁thea tr
▁temp les</w>
▁tac tics</w>
▁stat ues</w>
▁m erc
▁journ al</w>
▁industr ialization</w>
▁ind eed</w>
▁gl imp
▁g ang
▁flu ent</w>
▁expr essly</w>
▁d atab
▁d am</w>
▁cell phone</w>
▁bi ased</w>
▁ax is</w>
▁advis ors</w>
▁addr esses</w>
▁accel erating</w>
▁T al
▁Sc iences</w>
▁S M</w>
▁S AT</w>
▁Rea ding</w>
▁Mic ros
▁Mac ron</w>
▁K r
▁G all
▁A head</w>
ut ch</w>
ound ings</w>
ou ch</w>
er ia</w>
a ign</w>
▁rem inis
▁reck less</w>
▁r up
▁pri or
▁entertain ers</w>
▁dr ill</w>
▁P an</w>
▁G aya</w>
▁Ev ent</w>
s is</w>
on ary</w>
it ages</w>
ipp er</w>
▁valu ables</w>
▁to y</w>
▁t anks</w>
▁show c
▁s in</w>
▁s ends</w>
▁retali atory</w>
▁resp ects</w>
▁re ject</w>
▁pl aque</w>
▁pl ag
▁en t
▁dir ty</w>
▁bound aries</w>
▁bat h</w>
▁ambul ance</w>
▁alg orith
▁alg ae</w>
▁accur acy</w>
▁Vlad imir</w>
▁Super v
▁Rec onciliation</w>
▁R B
▁Pref ecture</w>
▁Nam hans
▁Mar k
▁Bo y</w>
▁2 20</w>
um m
ul nori</w>
th r
s ided</w>
rupt cy</w>
l essly</w>
eh and</w>
E U</w>
▁ver d
▁tea ches</w>
▁sympath ize</w>
▁sens ation</w>
▁preced ent</w>
▁particip ant</w>
▁org ans</w>
▁offic et
▁in hab
▁hum idity</w>
▁hor ror</w>
▁hear tb
▁fundam entally</w>
▁d ynasty</w>
▁contin ent</w>
▁cat tle</w>
▁car toon</w>
▁brea the</w>
▁T ech</w>
▁Mon ey</w>
▁Gun po</w>
▁E co</w>
▁D eb
resp on
r ement</w>
emp tion</w>
e ered</w>
d aughter</w>
comm ittees</w>
as i</w>
ang es</w>
B M</w>
Ac c
A d
▁unj ust</w>
▁trem endous</w>
▁sus hi</w>
▁surr oundings</w>
▁resol utions</w>
▁par ental</w>
▁maj oring</w>
▁li ability</w>
▁cr aft</w>
▁bl amed</w>
▁be ars</w>
▁ban ner</w>
▁app ealing</w>
▁a esth
▁Xi a
▁W at
▁V ideo</w>
▁T om</w>
▁N ature</w>
▁Micros oft</w>
▁M ur
▁J un
▁B all
▁198 9</w>
u ti
t aking</w>
si m</w>
rop h
ic ity</w>
ew ater</w>
en uri</w>
a way</w>
▁w ealthy</w>
▁seri ousness</w>
▁s ung</w>
▁rep ository</w>
▁organiz er</w>
▁lin ks</w>
▁li ps</w>
▁l av
▁install ments</w>
▁insol v
▁head ache</w>
▁glimp se</w>
▁gat eway</w>
▁f og</w>
▁expl oring</w>
▁eleg ant</w>
▁din os
▁coll ided</w>
▁bur ea
▁accid entally</w>
▁Viol ence</w>
▁Met h
▁M ug
▁A l</w>
▁3 60</w>
y u
w inning</w>
spec ial</w>
l amation</w>
▁surg ical</w>
▁subsequ ent</w>
▁sh irt</w>
▁sh apes</w>
▁prot ects</w>
▁necess arily</w>
▁las er</w>
▁insp ectors</w>
▁fir eworks</w>
▁fing ers</w>
▁eth ical</w>
▁en l
▁earthqu akes</w>
▁discip les</w>
▁cas ting</w>
▁be for
▁amb ig
▁accel erated</w>
▁Sh illa</w>
▁N ine</w>
▁Geum gang</w>
▁El ectronic</w>
s ale</w>
or m</w>
ky um</w>
▁was hed</w>
▁roll ing</w>
▁prov es</w>
▁prior itiz
▁pas ta</w>
▁n ail</w>
▁mountain ous</w>
▁l y
▁far es</w>
▁den y</w>
▁def ective</w>
▁ch efs</w>
▁as bestos</w>
▁ackn owledge</w>
▁Tax i</w>
▁T as
▁Par king</w>
▁M ental</w>
▁L im
▁F uk
▁Dang jin</w>
▁D uk</w>
yc l
tro duction</w>
ten ded</w>
s aving</w>
ent ative</w>
amp ed</w>
E F</w>
▁we ird</w>
▁w ings</w>
▁t ape</w>
▁str ing</w>
▁special izes</w>
▁sl ope</w>
▁rest room</w>
▁recomm ends</w>
▁par tly</w>
▁nov el
▁mod ule</w>
▁mill im
▁impr ac
▁distrib utor</w>
▁dictat orship</w>
▁congr essman</w>
▁cabb age</w>
▁c ogn
▁benef iciary</w>
▁belong ed</w>
▁befor ehand</w>
▁W anna</w>
▁T eh
▁Sh op</w>
▁P ink</w>
▁I ll
▁Econom ics</w>
▁E ff
▁A e</w>
▁A S
▁2 40</w>
vis ors</w>
unc iation</w>
os ter</w>
og gi</w>
f ine</w>
el ect</w>
am ming</w>
M s</w>
Ch ief</w>
▁w ing</w>
▁v ital
▁un limited</w>
▁un ilateral</w>
▁stic ker</w>
▁rub ber</w>
▁pro actively</w>
▁p acks</w>
▁lim iting</w>
▁land mark</w>
▁interview ed</w>
▁dr ills</w>
▁dis per
▁deliber ately</w>
▁b ored</w>
▁W oods</w>
▁W aste</w>
▁Sh ort
▁High way</w>
▁G ij
▁C ost
sp ea
p eople</w>
ot echnology</w>
ep o</w>
af ine</w>
a its</w>
R S</w>
R AI
I ST</w>
▁web toon</w>
▁venti lation</w>
▁unconsc ious</w>
▁sensi tivity</w>
▁s inking</w>
▁rev ising</w>
▁reg ards</w>
▁negl ect</w>
▁min d
▁lo aded</w>
▁kil n</w>
▁jump ing</w>
▁grad ers</w>
▁flex ibility</w>
▁f oul</w>
▁el ite</w>
▁conscienti ous</w>
▁Patri ots</w>
▁Merc edes</w>
▁M ath
▁Geor ge</w>
▁Ex pl
▁E wha</w>
yst al</w>
tion ality</w>
s eeing</w>
g y</w>
f loor</w>
est ation</w>
est ablis
ep tions</w>
ea uty</w>
▁t ips</w>
▁superv ising</w>
▁sidew alk</w>
▁shad ow</w>
▁s ight
▁quarter finals</w>
▁neph ew</w>
▁ne ar
▁modern ization</w>
▁manip ulated</w>
▁intensi fy</w>
▁entrus ting</w>
▁delinqu ent</w>
▁b od
▁Sever al</w>
▁Seong san</w>
▁K IA</w>
▁I S
▁Gim cheon</w>
ung er</w>
t el</w>
n esses</w>
itt ers</w>
is oned</w>
e ans
ati ent</w>
M r</w>
1 6
▁ultr afine</w>
▁s ort</w>
▁rus hing</w>
▁rout ine</w>
▁pr iced</w>
▁poor ly</w>
▁par am
▁laug hed</w>
▁kin dly</w>
▁jus tices</w>
▁hand made</w>
▁griev ance</w>
▁genu ine</w>
▁form ulation</w>
▁fem inis
▁exp ands</w>
▁div ul
▁disp osed</w>
▁describ e</w>
▁d ense</w>
▁blan ket</w>
▁announc er</w>
▁W eb
▁T ire</w>
▁S or
▁Proc ed
▁In come</w>
▁Co alition</w>
tr ans
th irds</w>
ost ok</w>
iv ostok</w>
▁threa ten</w>
▁ther ap
▁r i
▁psych ology</w>
▁pr ince</w>
▁pl ot</w>
▁in k</w>
▁gr ants</w>
▁dis ruption</w>
▁des igning</w>
▁defin ition</w>
▁conglom erate</w>
▁authentic ation</w>
▁Tr ust</w>
▁Taeg eukgi</w>
▁P ain
▁Las tly</w>
▁Kh ash
▁Colomb ia</w>
▁Bo at</w>
pros perity</w>
p ed</w>
n ew</w>
in ch</w>
da ero</w>
▁st ak
▁pro s</w>
▁politic ally</w>
▁pl ain</w>
▁op tical</w>
▁met ab
▁form ulated</w>
▁ferm ented</w>
▁emp eror</w>
▁educ ated</w>
▁d ub
▁coun tr
▁consol idated</w>
▁col on
▁bak ery</w>
▁ann o
▁T er
▁Sa enuri</w>
▁S ir</w>
▁N ep
▁Mic ro
▁Li u</w>
▁Fre edom</w>
▁Fr ont</w>
▁Ever land</w>
▁Emp loy
y ul</w>
y ou</w>
ul ness</w>
ti ble</w>
st ly</w>
nam ents</w>
iconduc tor</w>
h ouses</w>
dir ected</w>
c ue</w>
▁tit les</w>
▁summ its</w>
▁summ ary</w>
▁spot ted</w>
▁read justment</w>
▁postp onement</w>
▁pos ters</w>
▁off shore</w>
▁nur turing</w>
▁m aps</w>
▁influ x</w>
▁induc ement</w>
▁ind ication</w>
▁hea l</w>
▁dissem ination</w>
▁disappoin tment</w>
▁cou rier</w>
▁consol ation</w>
▁c ow</w>
▁br ut
▁artw orks</w>
▁S ug
▁S av
▁P un
▁L and
▁Hw an</w>
▁For ms</w>
▁F ar</w>
▁F ans</w>
▁Cooper atives</w>
▁Comm ander</w>
▁C ell
▁B on</w>
▁Analys is</w>
o tion</w>
j ing
is ingly</w>
essi ties</w>
el ry</w>
b an
amp h
Spec ial</w>
RAI L</w>
20 17</w>
▁under developed</w>
▁un h
▁th anked</w>
▁subcontrac ting</w>
▁st eam</w>
▁spec ulative</w>
▁rep airing</w>
▁photograp h</w>
▁observ ations</w>
▁music ian</w>
▁minim al</w>
▁m m</w>
▁licens ed</w>
▁inten ding</w>
▁inc ub
▁h unger</w>
▁gr ain</w>
▁fl ocked</w>
▁experim ental</w>
▁exhaus t</w>
▁dr agon</w>
▁crea tors</w>
▁cel adon</w>
▁bub ble</w>
▁archit ect</w>
▁Vlad ivostok</w>
▁Sa o</w>
▁Rep orter</w>
▁P i
▁Camp aign</w>
▁A ug</w>
pr ess
id ifier</w>
g wan</w>
d iv
ch eon
arm ing</w>
ar ound</w>
a ising</w>
T ech</w>
P eople</w>
▁unpr edic
▁tr acks</w>
▁surviv ors</w>
▁ser ial</w>
▁recyc led</w>
▁reb uil
▁plung e</w>
▁lea ks</w>
▁justif iable</w>
▁glob alization</w>
▁f asting</w>
▁expend itures</w>
▁ens uring</w>
▁critic isms</w>
▁contrac ted</w>
▁construc ting</w>
▁comb at</w>
▁clear ance</w>
▁c re
▁ben ch</w>
▁accep ts</w>
▁Y em
▁W ang
▁S ook</w>
▁R ain</w>
▁Nam hae</w>
▁Min joo</w>
▁Isra el
▁Gold man</w>
▁Da eb
▁D rea
▁Civ ic</w>
▁Bl ockchain</w>
p res
or n
forc ing</w>
eni us</w>
d et
ak san</w>
W or
A p
▁v enues</w>
▁short en</w>
▁r al
▁qu ot
▁qu een</w>
▁pur ification</w>
▁out p
▁nec essities</w>
▁millim eters</w>
▁l am
▁j azz</w>
▁interf ere</w>
▁fingerpr int</w>
▁consum e</w>
▁cons ecu
▁consecu tively</w>
▁chap ter</w>
▁but terf
▁bas eman</w>
▁ass ign</w>
▁aff ecting</w>
▁Sh ar
▁S anch
▁Log istics</w>
▁H ot</w>
▁Emp eror</w>
▁Congr essman</w>
▁Cl oud</w>
▁Belg ian</w>
ounc ement</w>
oll ar</w>
igh th
ect edly</w>
eas y</w>
af ts</w>
▁warm th</w>
▁vend ors</w>
▁un w
▁u t
▁trail er</w>
▁surv ived</w>
▁sol id
▁por celain</w>
▁obs truction</w>
▁neg atively</w>
▁n erve</w>
▁labor atory</w>
▁dr essing</w>
▁artw ork</w>
▁accum ulate</w>
▁Reg ardless</w>
▁Ph oto</w>
▁Oc eans</w>
▁H al
▁G yu</w>
▁Dong nae</w>
▁D ome</w>
▁Cl an</w>
▁Ass emblyman</w>
top us</w>
spec ific</w>
ph oto</w>
par t
m ap</w>
f e
end um</w>
e fficient</w>
▁wid ening</w>
▁v ib
▁t vN</w>
▁revel ation</w>
▁perpetr ators</w>
▁o mbudsman</w>
▁loc k</w>
▁kilog rams</w>
▁jo y
▁imm igrant</w>
▁hin ted</w>
▁endang ered</w>
▁depar t</w>
▁d izz
▁chair men</w>
▁activ ation</w>
▁absor bed</w>
▁a ds</w>
▁We b</w>
▁Sach s</w>
▁S ign
▁N orm
▁Kol on</w>
▁K A
▁Hang ul</w>
▁202 3</w>
st age</w>
lud es</w>
in os</w>
g ate</w>
et um</w>
con d
c or
b a</w>
A P</w>
▁t ire</w>
▁straw berry</w>
▁st up
▁st amps</w>
▁p ar</w>
▁o k</w>
▁mer ely</w>
▁kin dness</w>
▁integr ate</w>
▁disturb ance</w>
▁cheer ful</w>
▁cat alyst</w>
▁candid acy</w>
▁bull pen</w>
▁bel oved</w>
▁b eside</w>
▁arch ives</w>
▁ag on
▁adver se</w>
▁Susp ic
▁Short ly</w>
▁Min h</w>
▁K o
▁Jin hae</w>
▁Ira q</w>
▁Han ok</w>
th ey</w>
st ud
si ze</w>
it ories</w>
inv ested</w>
ign ated</w>
b el
ain age</w>
E R</w>
▁z oo</w>
▁verd ict</w>
▁v owed</w>
▁transi t</w>
▁tradem ark</w>
▁tr eas
▁t ong
▁t ide</w>
▁t ear</w>
▁sun ny</w>
▁sanc tion</w>
▁run way</w>
▁quantit ative</w>
▁prot ection
▁l etting</w>
▁invol ves</w>
▁impr isoned</w>
▁honor able</w>
▁h em
▁fail ures</w>
▁eng aging</w>
▁e ar</w>
▁dis gu
▁develop ments</w>
▁counter attack</w>
▁clin ics</w>
▁class rooms</w>
▁appear ances</w>
▁Uzb ek</w>
▁Rec ords</w>
▁Re v</w>
▁Pro p
▁Pol itic
▁Khash oggi</w>
▁K u
▁B BC</w>
▁2 30</w>
st and</w>
g iving</w>
ew ell</w>
at al</w>
all ow</w>
B r
▁sk y
▁satis factory</w>
▁sal ty</w>
▁ref ined</w>
▁pul ling</w>
▁prohib ition</w>
▁prem i
▁overl ap</w>
▁mass ac
▁magaz ines</w>
▁livel ih
▁livelih oods</w>
▁glob ally</w>
▁attrib utable</w>
▁amat eur</w>
▁Tea cher</w>
▁Scholar ship</w>
▁Rel ated</w>
▁KO RAIL</w>
▁For ensic</w>
▁Eul ji</w>
▁DP RK</w>
▁Bus h</w>
▁B ehind</w>
▁Al ex
us ts</w>
t s
rop er</w>
par k</w>
eti tive</w>
er ators</w>
e owners</w>
ati ents</w>
all est</w>
W hy</w>
J ung</w>
▁trib ute</w>
▁tr easure</w>
▁rot ation</w>
▁rib s</w>
▁reiter ated</w>
▁recip e</w>
▁prec ise</w>
▁mod erate</w>
▁merg ed</w>
▁join ts</w>
▁hard ware</w>
▁forc ibly</w>
▁elimin ating</w>
▁cul pri
▁culpri t</w>
▁bro th</w>
▁batt l
▁bank ruptcy</w>
▁Q R</w>
▁P D</w>
▁M oh
▁J enn
▁G ap</w>
▁Be ing</w>
iss ance</w>
ic ians</w>
i ment</w>
d eg
b ase</w>
a issance</w>
a eb
T RA</w>
S J</w>
Dis trict</w>
▁wr apping</w>
▁vag ue</w>
▁ser vers</w>
▁sc ol
▁neutr al</w>
▁mid fielder</w>
▁l ands</w>
▁fortun ate</w>
▁fl owed</w>
▁fil mm
▁enjoy able</w>
▁e n</w>
▁di ary</w>
▁a rom
▁S H
▁Restaur ant</w>
▁P etro
▁Oc cup
▁K ingdoms</w>
▁Hawai i</w>
▁H osted</w>
▁El derly</w>
▁Dis closure</w>
▁Ch o
ub a</w>
oo dy</w>
it ative</w>
ho ons</w>
e ze</w>
ay ag
ann y</w>
ag a</w>
T O
D ef
▁w ood
▁t orn</w>
▁sol ic
▁reimb ur
▁proj ec
▁port able</w>
▁mus hroom</w>
▁ferti liz
▁evac uate</w>
▁domin ate</w>
▁dissatis faction</w>
▁dis rupted</w>
▁car eg
▁St an
▁Nong ak</w>
▁Jung n
▁Dong guk</w>
▁Com b
▁A reas</w>
uc r
stic k</w>
st ers</w>
r ound</w>
mar ble</w>
and ers</w>
▁wea ken</w>
▁us eless</w>
▁univer se</w>
▁sur fac
▁stim ulate</w>
▁spir its</w>
▁sight seeing</w>
▁pestic ides</w>
▁p our</w>
▁nob le</w>
▁lun ch
▁li d</w>
▁lea f</w>
▁laug hing</w>
▁land f
▁inspec ting</w>
▁imm inent</w>
▁hor ses</w>
▁foll owers</w>
▁fib er</w>
▁dist ant</w>
▁displ aying</w>
▁dismant le</w>
▁cross w
▁coun ted</w>
▁constr aints</w>
▁clean ers</w>
▁c odes</w>
▁birth rate</w>
▁be tr
▁W an
▁Techn ical</w>
▁M issi
▁I CO</w>
▁Dis ney</w>
▁Cer amic</w>
ther apy</w>
min ton</w>
m work</w>
it ated</w>
ev in</w>
ens ed</w>
a u</w>
P M</w>
▁worksh ops</w>
▁wast ewater</w>
▁underm ine</w>
▁sound ness</w>
▁refer endum</w>
▁prot agon
▁prem ise</w>
▁pi an
▁lea gues</w>
▁g ene</w>
▁f o
▁entreprene urship</w>
▁dam aging</w>
▁d enti
▁controversi es</w>
▁construc t</w>
▁bel iefs</w>
▁aud io</w>
▁anonym ous</w>
▁ac ute</w>
▁W ir
▁Ordin ances</w>
▁M ulti</w>
▁Kon kuk</w>
▁Bos ton</w>
ot al</w>
mar kets</w>
l iness</w>
ign ee</w>
h alf</w>
gressi vely</w>
eu i</w>
el iness</w>
ae won</w>
S ome</w>
P O</w>
O T</w>
L ife</w>
▁whe els</w>
▁v an</w>
▁unc le</w>
▁t sun
▁super market</w>
▁soyb ean</w>
▁sn ea
▁semin ars</w>
▁rem ind</w>
▁prev iew</w>
▁merchand ise</w>
▁mer its</w>
▁mas ters</w>
▁j am</w>
▁fin anc
▁exerc ised</w>
▁encoun tered</w>
▁el abor
▁ed itor</w>
▁conn ections</w>
▁classi c</w>
▁cal mly</w>
▁br acket</w>
▁bl essing</w>
▁app ell
▁Trea ty</w>
▁Pyeong yang</w>
▁P ayment</w>
▁Ne ighb
▁Man ufac
▁H ap
▁Gug ak</w>
▁Fam ilies</w>
▁F ield</w>
▁Cr ime</w>
▁Ar tists</w>
us hed</w>
ur ning</w>
u tionary</w>
ry ul</w>
r ess</w>
ic iency</w>
h ang</w>
en tions</w>
dro id</w>
d istance</w>
c a</w>
b ank</w>
assi c</w>
L ove</w>
▁war s</w>
▁w ounded</w>
▁star red</w>
▁rev ocation</w>
▁repatri ation</w>
▁remin ded</w>
▁prot ot
▁photograp her</w>
▁p ump</w>
▁man us
▁m old</w>
▁handic apped</w>
▁discharg ing</w>
▁der ived</w>
▁d egr
▁constitu ency</w>
▁collabor ate</w>
▁col um
▁char is
▁cancell ed</w>
▁blu epr
▁bea utif
▁attemp ting</w>
▁accommod ations</w>
▁Yem en
▁Res ource</w>
▁Particip atory</w>
▁Met al</w>
▁K uk
▁Insp ector</w>
▁D an</w>
sm all</w>
ro gen</w>
n ut</w>
l or
b rid</w>
arr h
P s</w>
▁w ears</w>
▁urg ency</w>
▁t il
▁supplem ented</w>
▁renov ation</w>
▁radio active</w>
▁portfol io</w>
▁poll ing</w>
▁optim istic</w>
▁occas ionally</w>
▁j et</w>
▁interpr eter</w>
▁ins ect</w>
▁inf eri
▁he ightened</w>
▁habit at</w>
▁establis hments</w>
▁disapp earing</w>
▁dir ecting</w>
▁curr encies</w>
▁brea ch</w>
▁To y
▁T am
▁Respon se</w>
▁Mar s</w>
▁L ions</w>
▁Fr ank
▁Ed u
▁1 14</w>
▁1 000</w>
ool ing</w>
oc ating</w>
o ys</w>
f ive</w>
ee k
ch ol</w>
ayag eum</w>
act us</w>
L O</w>
Acc ording</w>
▁wrink les</w>
▁typ hoons</w>
▁sympt om</w>
▁s our</w>
▁ramp ant</w>
▁r abb
▁pres idency</w>
▁plan es</w>
▁may ors</w>
▁intern ationally</w>
▁intell ect
▁insp ired</w>
▁harass ed</w>
▁circ ular</w>
▁cerem onies</w>
▁ass ail
▁S K
▁R os
▁Pr o</w>
▁O ri
▁Mus lim</w>
▁Kum gang</w>
▁K CC</w>
▁Han nam</w>
▁Ch u</w>
▁C rown</w>
▁Bar eun</w>
v el</w>
ti ll
osp ace</w>
eter ia</w>
el im</w>
b ye</w>
b ility</w>
R ep
P ol
I I</w>
. ;</w>
▁tas ty</w>
▁stim ulus</w>
▁ra ided</w>
▁mut ually</w>
▁ment ors</w>
▁mechan ism</w>
▁int act</w>
▁inform ing</w>
▁ind ef
▁inc omes</w>
▁hol ders</w>
▁her itages</w>
▁fr iction</w>
▁draw ings</w>
▁drag ged</w>
▁dr ainage</w>
▁conflic ting</w>
▁con s</w>
▁cl eans
▁c emetery</w>
▁S ak
▁Pl ace</w>
▁Net marble</w>
▁Gong ju</w>
▁F ull</w>
▁Act ual</w>
ye ok</w>
sh ot</w>
r ed
it i</w>
en ship</w>
em ory</w>
eh ow</w>
at r
as is</w>
a eng
J u
" ."</w>
▁wid ened</w>
▁unpredic table</w>
▁un ite</w>
▁trop hy</w>
▁t ail</w>
▁r ope</w>
▁prov iso</w>
▁over c
▁nor thwest</w>
▁multi pl
▁man kind</w>
▁labor ers</w>
▁l aying</w>
▁k iller</w>
▁imprac tic
▁her al
▁grab bed</w>
▁gas es</w>
▁g or
▁f ountain</w>
▁deduc ted</w>
▁datab ase</w>
▁cur ve</w>
▁crack downs</w>
▁consc ious</w>
▁cat cher</w>
▁at titudes</w>
▁arbitr arily</w>
▁Th ir
▁Pro jects</w>
▁P il
▁O w
▁M other</w>
▁Ind ivid
▁Bus in
▁Acc ounts</w>
yp es</w>
w orks</w>
uth an
su per
ov ascular</w>
ou ble</w>
ong san</w>
li est</w>
h ony</w>
ess im
er ospace</w>
el come</w>
eed y</w>
ag u
S NS</w>
S C
▁wher ever</w>
▁wh ist
▁wh is
▁w iel
▁vis ually</w>
▁th esis</w>
▁tas ted</w>
▁t ube</w>
▁subsid ization</w>
▁stro kes</w>
▁sp o
▁shor tened</w>
▁reminis cent</w>
▁rein forced</w>
▁press ured</w>
▁ph armacy</w>
▁near est</w>
▁impractic able</w>
▁hun ting</w>
▁fl ash</w>
▁env el
▁drun ken</w>
▁dis par
▁d ancers</w>
▁convinc ed</w>
▁alt ar</w>
▁ab usive</w>
▁V en
▁Ukr aine</w>
▁R ou
▁P ublis
▁Na ju</w>
▁KE B</w>
▁G ospel</w>
▁Commod ity</w>
▁10 5</w>
▁' '</w>
u zz
ot alk</w>
or ate</w>
ison ers</w>
igh tening</w>
g ak</w>
emocr atic</w>
ebr al</w>
crib ed</w>
▁w ip
▁tea mm
▁r ude</w>
▁perc eived</w>
▁mat ernity</w>
▁magn itude</w>
▁kid ney</w>
▁isol ation</w>
▁interv ened</w>
▁ins urers</w>
▁inaug ural</w>
▁extrac t</w>
▁e ager</w>
▁diversi fied</w>
▁distinc t</w>
▁dismant lement</w>
▁cultiv ated</w>
▁ch ick
▁bloc k
▁Ul jin</w>
▁Tig ers</w>
▁Tel ecomm
▁Saem aeul</w>
▁R ich
▁Namhans anseong</w>
▁M it
▁Che il</w>
▁B and</w>
▁3 65</w>
▁199 3</w>
val ue</w>
re ver
j i
ir acy</w>
e op
at i</w>
ancell or</w>
S I</w>
P C</w>
G u
▁w ishing</w>
▁tea mwork</w>
▁sub committees</w>
▁sol e</w>
▁or th
▁n an
▁ins isting</w>
▁incr ed
▁exagg eration</w>
▁enro lled</w>
▁d row
▁char ms</w>
▁boyc ott</w>
▁ban ning</w>
▁a qu
▁M ak
▁K en
▁K AIST</w>
▁Hu i</w>
▁Fri ends</w>
▁Egyp tian</w>
▁D ol
▁Custom ers</w>
▁C emetery</w>
▁A m</w>
ub er</w>
tr ion</w>
sc enes</w>
az z
F r
D ong
▁v ivid
▁transl ator</w>
▁t ig
▁splend id</w>
▁soc i
▁sk irt</w>
▁secret aries</w>
▁rep airs</w>
▁rel eases</w>
▁recrea tion</w>
▁pl umm
▁inj ected</w>
▁ind ig
▁b uck
▁as cer
▁appropri ately</w>
▁ambig uous</w>
▁W ater
▁Tw enty</w>
▁Sec ret
▁S ent
▁M is
▁M eg
▁K un</w>
▁K evin</w>
▁Joh n
▁J ord
▁J im
▁H ealing</w>
▁Gyeong in</w>
▁Cro ati
un ding</w>
ti l
si vely</w>
ourc ing</w>
g yeong
form er</w>
as tic
L ocal</w>
In tern
▁wand ering</w>
▁underw ear</w>
▁too th</w>
▁tal e</w>
▁sur name</w>
▁sp ite</w>
▁sign boards</w>
▁relax ation</w>
▁poss essed</w>
▁pos ing</w>
▁lim itation</w>
▁la b</w>
▁ins erted</w>
▁g ang</w>
▁fl at
▁exp orters</w>
▁e ag
▁dec ent</w>
▁cr acks</w>
▁caf eteria</w>
▁bloss om</w>
▁bea ten</w>
▁app les</w>
▁app etit
▁Sh r
▁N az
▁J Y
▁Gi ants</w>
▁E um
▁D ay
▁Ch eon</w>
▁Bi olog
▁B ase</w>
urr ic
s erved</w>
ro gation</w>
regis tered</w>
p rov
of u</w>
li k</w>
kil ometer</w>
iv als</w>
ist a</w>
all ation</w>
ad ae</w>
Th rough</w>
S R</w>
Russi a</w>
H O</w>
G r
B en
▁tr ace</w>
▁termin als</w>
▁subtit les</w>
▁strea ms</w>
▁str iving</w>
▁souven irs</w>
▁sib lings</w>
▁re op
▁r ents</w>
▁pupp y</w>
▁partic les</w>
▁no ting</w>
▁l ing
▁hall yu</w>
▁ext inc
▁enjo ys</w>
▁desp air</w>
▁d ies</w>
▁compos er</w>
▁comp act</w>
▁brea th
▁bel ts</w>
▁Se om
▁S election</w>
▁Ex isting</w>
▁Cell trion</w>
▁C ur
▁B ing
sh op</w>
organ ized</w>
m od
is tice</w>
er able</w>
arrh ea</w>
arb on</w>
M I</w>
H appy</w>
▁transpor ted</w>
▁st ays</w>
▁som etime</w>
▁s aus
▁roll ed</w>
▁p ills</w>
▁n ic
▁man ners</w>
▁inad equate</w>
▁form ulating</w>
▁fi xing</w>
▁diversi fy</w>
▁distrib utors</w>
▁disapp ears</w>
▁cor n</w>
▁conc essions</w>
▁batt les</w>
▁ass emb
▁arrang ing</w>
▁all eys</w>
▁accomp any</w>
▁Syri an</w>
▁San itation</w>
▁Res erv
▁Pers onal</w>
▁Nam yang</w>
▁Mat erials</w>
▁Ma x</w>
▁M u</w>
▁M ember</w>
▁M ain</w>
▁L ib
▁KO TRA</w>
▁Ik san</w>
▁Gij ang</w>
▁Farm ers</w>
▁D J</w>
▁Ali b
▁After wards</w>
ys ide</w>
ut enant</w>
um in
st ore</w>
par ent</w>
ound ations</w>
om en</w>
ogur yeo</w>
oc iate</w>
itor ious</w>
in ese</w>
igh ten</w>
ffer ent</w>
enn is</w>
con tro
c rea
b uil
ant ation</w>
P EC</w>
▁s ized</w>
▁r ation
▁prec eding</w>
▁overh eated</w>
▁n eat</w>
▁f et
▁exhib it</w>
▁el imination</w>
▁drea ming</w>
▁dr ying</w>
▁div orc
▁demonstr ating</w>
▁court esy</w>
▁conv iction</w>
▁car pool</w>
▁b ent</w>
▁ass ess</w>
▁Y us
▁Y o</w>
▁Un less</w>
▁Sem iconductor</w>
▁Sc ienti
▁R ome</w>
▁Produc t</w>
▁Per forming</w>
▁Nak dong
▁Mc D
▁Ma h
▁L ank
▁Gang hwa</w>
▁Da elim</w>
▁Austr ia</w>
pow ered</w>
ili ated</w>
ic it</w>
g ap</w>
R eg
" ):</w>
▁subscrib e</w>
▁sou theastern</w>
▁prop osing</w>
▁gar lic</w>
▁ey el
▁ear ners</w>
▁ear liest</w>
▁di arrhea</w>
▁dec ree</w>
▁coun ting</w>
▁cou sin</w>
▁contrac tors</w>
▁coll ects</w>
▁cogn itive</w>
▁ch orus</w>
▁auth ors</w>
▁am end</w>
▁al titude</w>
▁T aking</w>
▁S ett
▁Rad io</w>
▁P usan</w>
▁Nak dong</w>
▁L uc
▁D og
▁D ays</w>
▁Ch ap
▁A BC</w>
s ocial</w>
ond ly</w>
om ic</w>
oin tment</w>
ll er</w>
j ong
f it</w>
ep h</w>
com pl
ath ers</w>
E S</w>
▁vic inity</w>
▁trag ic</w>
▁tong ue</w>
▁st ation
▁sp y</w>
▁satis fying</w>
▁ral lies</w>
▁pr isoners</w>
▁mat ched</w>
▁inc lusive</w>
▁fl ags</w>
▁contrib utes</w>
▁amend ments</w>
▁allerg ic</w>
▁Sever ance</w>
▁S port</w>
▁P Cs</w>
▁L egal</w>
▁L PG</w>
▁J ul
▁Cor ruption</w>
▁Consult ative</w>
▁Bo eing</w>
▁B ib
▁2 70</w>
y ro
us c
og enic</w>
j iro</w>
ip lom
il ar</w>
if ting</w>
f oo
ew here</w>
el ected</w>
at or
app roximately</w>
an ned</w>
RA M</w>
H yun</w>
▁y oga</w>
▁tw enti
▁surv iving</w>
▁stic kers</w>
▁ster eot
▁sm iles</w>
▁sm iled</w>
▁sh aped</w>
▁sac red</w>
▁rum ored</w>
▁rel ocate</w>
▁p essim
▁over turned</w>
▁nob ody</w>
▁mon ks</w>
▁med ian</w>
▁l ac
▁imp orting</w>
▁hot ter</w>
▁fresh men</w>
▁f ederation</w>
▁deplo y</w>
▁decl aring</w>
▁cond em
▁compet ence</w>
▁comb us
▁ch asing</w>
▁c ure</w>
▁T err
▁Pl ay
▁L iga</w>
▁Imm edi
▁E l</w>
▁Biolog ics</w>
▁B lu
ti les</w>
sbur g</w>
ro oted</w>
om ed</w>
in ho</w>
estr al</w>
ess ness</w>
as tr
V R</w>
Cons idering</w>
▁w anting</w>
▁vin yl</w>
▁v ested</w>
▁unexp ectedly</w>
▁underst ands</w>
▁under water</w>
▁tigh tened</w>
▁t akers</w>
▁spr ay</w>
▁ren ew</w>
▁prec ip
▁pr aying</w>
▁plac ement</w>
▁nec kl
▁mart yr
▁m ad</w>
▁l ighter</w>
▁kn ees</w>
▁inst ance</w>
▁ign oring</w>
▁far ewell</w>
▁dro pping</w>
▁dec e
▁car cin
▁birth place</w>
▁ag gressively</w>
▁accum ulation</w>
▁Pun ishment</w>
▁Plat form</w>
▁Oper a</w>
▁Nakdong gang</w>
▁Mod el</w>
▁Missi onary</w>
▁L ocated</w>
▁Kw ang
▁Inc ident</w>
▁E ight</w>
▁Bas ketball</w>
▁An droid</w>
▁A R</w>
ussi ons</w>
ras es</w>
p tion</w>
o th
ig ade</w>
h ua</w>
ed ia</w>
astic ity</w>
S un
F or
▁vivid ly</w>
▁vibr ation</w>
▁un for
▁too th
▁super markets</w>
▁sun rise</w>
▁sacrif iced</w>
▁rain water</w>
▁pron unciation</w>
▁preserv ing</w>
▁pill ars</w>
▁oc topus</w>
▁manip ulating</w>
▁l amp</w>
▁in roads</w>
▁encour ages</w>
▁e uthan
▁di ffers</w>
▁counter part</w>
▁con ten
▁bur nt</w>
▁add ic
▁W y
▁W as
▁Th ank
▁Part ners</w>
▁P ak</w>
▁Mus k</w>
▁M our
▁K yong
▁I rel
▁Hang ang</w>
▁El ectr
▁B on
▁Att ached</w>
▁Ann iversary</w>
wr iting</w>
d ie</w>
chil dren</w>
L S</w>
▁un at
▁thro at</w>
▁t ense</w>
▁summ on</w>
▁stor ing</w>
▁stak eholders</w>
▁sal on</w>
▁ref uses</w>
▁predic tions</w>
▁perman ently</w>
▁penc il</w>
▁pati ence</w>
▁municip alities</w>
▁min orities</w>
▁inter act</w>
▁horiz ontal</w>
▁gather ings</w>
▁fol ding</w>
▁ec ology</w>
▁comp ilation</w>
▁br ide</w>
▁bo oming</w>
▁a unt</w>
▁You t
▁W atch</w>
▁S ri</w>
▁Real ly</w>
▁R hee</w>
▁Ph ys
▁Instit utions</w>
▁Dr ama</w>
▁Doc tor</w>
▁Ch on
▁C iting</w>
▁19 45</w>
w s</w>
us ting</w>
st ein</w>
p ayment</w>
op ia</w>
ompl ete</w>
h oo</w>
es elf</w>
cont ent</w>
b erg</w>
b as
R T</w>
▁wher eas</w>
▁str aw</w>
▁stor yt
▁standard ized</w>
▁r oughly</w>
▁pri est</w>
▁obj ectives</w>
▁miscon duct</w>
▁lo yalty</w>
▁lay out</w>
▁l ounge</w>
▁l an
▁hab itual</w>
▁h anding</w>
▁g host</w>
▁exp elled</w>
▁craf ts</w>
▁c m</w>
▁bro ker</w>
▁briqu ettes</w>
▁appell ate</w>
▁air ing</w>
▁Sw iss</w>
▁P ope</w>
▁Ok in
▁Mun ich</w>
▁Irel and</w>
▁D ev
▁Cos m
▁B ud
▁2 80</w>
▁198 6</w>
tion ing</w>
r ig
om etr
ock ey</w>
assad ors</w>
Dec ree</w>
▁thr one</w>
▁t oken</w>
▁st atistical</w>
▁road map</w>
▁re trial</w>
▁pro lif
▁opp oses</w>
▁o v
▁mak geolli</w>
▁l eased</w>
▁interf erence</w>
▁hos tile</w>
▁des ert</w>
▁consult ant</w>
▁co ating</w>
▁chew y</w>
▁cap italization</w>
▁c inema</w>
▁adj ust
▁V i
▁Sil icon</w>
▁Sec ondary</w>
▁R ew
▁R ed
▁P R</w>
▁Op in
▁M eng</w>
▁Lea ders</w>
▁Ju k
▁Initi ally</w>
▁Cas es</w>
▁C ann
▁Air b
ver th
verth eless</w>
r ye</w>
ph ones</w>
on ers</w>
n ational</w>
m inister</w>
lim s</w>
j ang
ex per
educ tion</w>
d oo</w>
ap le</w>
U N
▁wr ist</w>
▁w rest
▁testi mon
▁t ightly</w>
▁sh ining</w>
▁sen sibility</w>
▁reconstruc ted</w>
▁priv ately</w>
▁pol y
▁pestic ide</w>
▁p ad
▁optim ized</w>
▁on eself</w>
▁observ atory</w>
▁no isy</w>
▁minim izing</w>
▁li able</w>
▁jo ke</w>
▁j ar</w>
▁fluct uations</w>
▁elect ro
▁e ro
▁domin ance</w>
▁cr ab</w>
▁contam inated</w>
▁chick ens</w>
▁a ids</w>
▁Un iver
▁Har v
▁Alib aba</w>
obb ies</w>
eg u
ag ging</w>
E X
▁val ued</w>
▁ultr as
▁t ends</w>
▁qual ifying</w>
▁pr ayed</w>
▁occup ational</w>
▁mot to</w>
▁mar t</w>
▁m ang
▁legitim acy</w>
▁l ent</w>
▁k ick
▁jew elry</w>
▁j eal
▁incin eration</w>
▁inc omp
▁hom er
▁fre el
▁fr ustration</w>
▁environ mentally</w>
▁countr yside</w>
▁commissi oning</w>
▁char ity</w>
▁b ou
▁appetit e</w>
▁Tun nel</w>
▁T W
▁Jord an</w>
▁Han m
▁G oh
▁F ees</w>
▁Autom obile</w>
thr itis</w>
ov a</w>
mar ried</w>
it uals</w>
ich i</w>
h ill</w>
elli on</w>
e ev
c ancer</w>
b er
al ks</w>
ab ok</w>
D es
▁utiliz es</w>
▁under g
▁ultim ate</w>
▁strea k</w>
▁st em
▁sl eep
▁regul ate</w>
▁r ides</w>
▁public ations</w>
▁pro xy</w>
▁portr ayed</w>
▁n am
▁multi l
▁mo tive</w>
▁magn ific
▁lef t
▁ic on</w>
▁ferti lity</w>
▁extingu ishing</w>
▁esc aping</w>
▁engr aved</w>
▁dur ability</w>
▁bro kers</w>
▁al right</w>
▁academ ies</w>
▁Y esterday</w>
▁Sil ver</w>
▁Secret ariat</w>
▁Se or
▁S und
▁Pal est
▁M ill
▁K ur
▁Gw an</w>
▁D or
▁C z
▁Ad visor</w>
uclear ization</w>
su fficiency</w>
om as</w>
o therapy</w>
o b</w>
is ite</w>
hy ang
f inal</w>
er ting</w>
deg ree</w>
b elt</w>
R C</w>
O A</w>
F I
C r
B usan</w>
▁uncond itionally</w>
▁treas urer</w>
▁transm itted</w>
▁tim et
▁st akes</w>
▁saf er</w>
▁questi onn
▁produc tive</w>
▁prefer ences</w>
▁pill ar</w>
▁ph rases</w>
▁liter acy</w>
▁h o
▁franch is
▁fl ames</w>
▁exped ition</w>
▁en tries</w>
▁embarr assing</w>
▁discontin ued</w>
▁del ic
▁cryptocurr encies</w>
▁cl ick</w>
▁cardi ovascular</w>
▁cap tures</w>
▁bur ns</w>
▁bluepr int</w>
▁be dro
▁b et</w>
▁b at</w>
▁an tic
▁W ay</w>
▁W as</w>
▁Sch ools</w>
▁Sand ers</w>
▁Reg is
▁Mus lims</w>
▁Jos eph</w>
▁Jo ong
▁G oguryeo</w>
▁Ch annel</w>
▁Cer tification</w>
▁C op
ys anth
sc ape</w>
s k
quar ter</w>
oti sm</w>
ot ted</w>
ons ored</w>
incip al</w>
hear ted</w>
end y</w>
c ultural</w>
at ement</w>
S ec
▁vo iced</w>
▁tort ure</w>
▁super visors</w>
▁sol ely</w>
▁sh ade</w>
▁sal mon</w>
▁s erm
▁re per
▁prev alent</w>
▁lo ose</w>
▁l anded</w>
▁justif ication</w>
▁inv is
▁ins ists</w>
▁hy brid</w>
▁g aps</w>
▁fir ing</w>
▁evalu ates</w>
▁dump ing</w>
▁divorc ed</w>
▁depend ence</w>
▁cr acked</w>
▁cl ash</w>
▁chat ting</w>
▁cas tle</w>
▁bul k</w>
▁Vis itors</w>
▁U ti
▁R ound</w>
▁Port ugal</w>
▁Pal embang</w>
▁Okin awa</w>
▁K elly</w>
▁J ir
▁Eum seong</w>
▁Br and</w>
▁B ad
ysanth em
ous ing</w>
ist ants</w>
in troduction</w>
h e
g h</w>
f ront</w>
em on</w>
aw i</w>
ard ous</w>
ang ular</w>
L B</w>
) ;</w>
▁teen age</w>
▁sw ord</w>
▁special ization</w>
▁sm ok
▁slog ans</w>
▁recomm ending</w>
▁ra pper</w>
▁prepar es</w>
▁off ender</w>
▁n it
▁j ury</w>
▁inc idence</w>
▁impos es</w>
▁immer sed</w>
▁imbal ance</w>
▁gr ab</w>
▁flav ors</w>
▁contrad ic
▁car t</w>
▁autom ation</w>
▁a usp
▁V eg
▁My ung
▁K F
▁Hen ry</w>
▁Gre ece</w>
▁F erry</w>
▁E ug
▁D utch</w>
▁Cons ervation</w>
▁Che ol
▁B ody</w>
▁3 30</w>
vers ely</w>
sh irts</w>
ov en</w>
hel p</w>
g ly</w>
es ty</w>
equ ently</w>
M O</w>
K ing</w>
▁tw elve</w>
▁supp ression</w>
▁ridicul ous</w>
▁repea ting</w>
▁r ated</w>
▁r andom</w>
▁oblig ed</w>
▁min ors</w>
▁mer itorious</w>
▁liqu idation</w>
▁guarant eeing</w>
▁ful l
▁en vy</w>
▁el s
▁els ewhere</w>
▁divul ge</w>
▁describ es</w>
▁derm atitis</w>
▁dec oration</w>
▁cr itic</w>
▁cli ps</w>
▁br ightly</w>
▁a erial</w>
▁Shr ine</w>
▁Phil harm
▁Non san</w>
▁Im jin</w>
▁Hum an
▁H ub</w>
▁Aj ou</w>
▁A ch
w adae</w>
um entary</w>
tr e</w>
ro ll</w>
rever sible</w>
ord able</w>
i ar
ar u</w>
a ido</w>
Ch inese</w>
Ben z</w>
1 4
▁w ear
▁v s</w>
▁te ens</w>
▁symbol izes</w>
▁surp assing</w>
▁sk i</w>
▁sh eets</w>
▁sea water</w>
▁run ners</w>
▁prosec uted</w>
▁pos es</w>
▁perform er</w>
▁ori entation</w>
▁negl ecting</w>
▁migr atory</w>
[...]
